<pad>	0
<unk>	0
<s>	0
</s>	0
,	-3.02124
.	-3.19885
'	-3.42319
s	-3.77482
▁the	-4.11933
▁de	-4.13872
▁a	-4.37649
▁to	-4.57269
▁of	-4.659
▁and	-4.69649
▁la	-4.81616
▁et	-4.85387
▁that	-4.92154
▁que	-4.99011
▁I	-5.00605
▁le	-5.0186
▁les	-5.05045
▁in	-5.05622
▁à	-5.06356
▁	-5.0882
▁l	-5.11455
-	-5.20029
▁is	-5.27036
▁d	-5.28109
▁you	-5.28272
▁un	-5.30584
▁des	-5.30981
▁it	-5.32097
▁we	-5.40607
▁en	-5.41165
est	-5.49669
▁nous	-5.53193
▁une	-5.5626
▁qui	-5.58184
t	-5.58949
▁vous	-5.59992
▁And	-5.66239
▁dans	-5.68447
▁this	-5.69508
▁ce	-5.69868
▁pour	-5.70026
▁pas	-5.72303
▁on	-5.74595
▁--	-5.7581
▁est	-5.79456
▁je	-5.92643
▁Et	-5.94479
▁qu	-5.96749
e	-5.98489
▁was	-6.00271
▁c	-6.0106
▁for	-6.02142
▁du	-6.04104
▁"	-6.08684
▁plus	-6.09391
▁are	-6.10221
▁have	-6.11723
?	-6.15576
▁they	-6.16733
▁ne	-6.16984
▁n	-6.18115
:	-6.18908
re	-6.19596
▁with	-6.20598
▁can	-6.24313
▁sur	-6.25191
▁So	-6.29481
▁il	-6.30376
ai	-6.3149
▁what	-6.33904
▁be	-6.34802
▁about	-6.35297
▁me	-6.36444
a	-6.36905
▁C	-6.38968
▁j	-6.40716
▁sont	-6.45178
d	-6.45304
▁avec	-6.49333
▁at	-6.50168
▁not	-6.51177
▁all	-6.51269
▁do	-6.52163
▁au	-6.52478
▁se	-6.53669
ing	-6.55368
▁s	-6.55647
▁y	-6.5788
▁fait	-6.58591
r	-6.59314
il	-6.60555
m	-6.60767
▁there	-6.62199
’	-6.6253
▁par	-6.63078
▁so	-6.63496
▁one	-6.63818
▁people	-6.63979
▁an	-6.64247
▁:	-6.64407
▁as	-6.65129
▁Je	-6.65288
▁like	-6.65493
▁my	-6.65624
▁from	-6.66528
▁comme	-6.67512
▁It	-6.67716
▁ces	-6.6969
▁but	-6.70221
▁cette	-6.71555
▁?	-6.71863
▁Il	-6.72629
▁ça	-6.73309
▁si	-6.73437
un	-6.75172
▁faire	-6.76975
▁our	-6.78525
ed	-6.78843
y	-6.78971
▁mais	-6.8013
▁or	-6.80488
▁just	-6.80773
on	-6.8146
▁ont	-6.83141
er	-6.84383
es	-6.85066
▁tout	-6.85582
▁We	-6.85796
▁ou	-6.86104
."	-6.87256
▁out	-6.87986
▁But	-6.88646
▁Mais	-6.89998
▁avons	-6.90228
▁these	-6.90667
▁The	-6.90819
▁if	-6.9135
ve	-6.91814
▁very	-6.91875
▁Nous	-6.9189
▁know	-6.9533
▁by	-6.95717
▁up	-6.97197
▁them	-6.98872
▁he	-6.99674
▁going	-6.99974
▁when	-7.01912
▁more	-7.0259
▁peut	-7.0307
▁très	-7.03278
▁because	-7.05113
▁had	-7.05414
▁bien	-7.07422
▁think	-7.07565
▁who	-7.08011
▁monde	-7.08275
▁see	-7.09624
▁J	-7.10303
▁their	-7.11157
▁ils	-7.11327
▁how	-7.11708
▁were	-7.1232
▁which	-7.12588
▁your	-7.1342
▁gens	-7.14911
▁would	-7.15369
▁get	-7.16237
▁really	-7.16472
en	-7.18574
▁us	-7.19678
une	-7.21018
▁chose	-7.21917
▁world	-7.22002
▁être	-7.225
▁time	-7.23942
▁leur	-7.25696
▁même	-7.26602
▁has	-7.27944
▁dit	-7.2798
▁m	-7.28044
▁♫	-7.28289
▁here	-7.29175
▁notre	-7.29923
▁«	-7.30244
▁then	-7.30576
▁La	-7.3161
▁This	-7.32102
▁don	-7.32216
▁some	-7.3238
▁cela	-7.32404
▁into	-7.32494
▁S	-7.32698
▁way	-7.34019
▁You	-7.35163
ly	-7.35507
▁actually	-7.35783
é	-7.36018
▁aux	-7.36221
▁suis	-7.36409
▁où	-7.36927
▁quand	-7.37171
▁mon	-7.37422
▁Le	-7.39168
▁tous	-7.39622
▁go	-7.39634
ment	-7.39717
▁était	-7.40036
▁will	-7.40059
▁where	-7.40153
▁été	-7.40407
▁years	-7.40592
▁son	-7.40964
▁other	-7.4147
▁aussi	-7.43149
▁things	-7.4316
▁now	-7.43264
▁want	-7.44079
▁Vous	-7.44413
nt	-7.45025
▁make	-7.45211
▁Ce	-7.4549
▁A	-7.45709
▁could	-7.45911
▁Now	-7.46058
▁T	-7.46335
▁vraiment	-7.46367
▁Les	-7.47778
▁beaucoup	-7.47953
▁been	-7.48791
ils	-7.49296
▁They	-7.49376
▁donc	-7.49893
▁parce	-7.50653
c	-7.52009
était	-7.52098
ce	-7.52281
▁»	-7.53781
▁deux	-7.53861
▁Donc	-7.54426
▁vie	-7.549
ant	-7.56262
▁TED	-7.5715
▁On	-7.57249
▁no	-7.57655
être	-7.57786
n	-7.58188
▁choses	-7.58195
▁elle	-7.58453
ll	-7.59075
▁said	-7.59351
▁ma	-7.59772
▁something	-7.60379
ent	-7.60435
▁nos	-7.60575
▁right	-7.60787
▁ans	-7.61276
▁than	-7.61569
▁In	-7.6219
▁En	-7.62841
"	-7.63276
▁voir	-7.64103
▁those	-7.64334
▁two	-7.64395
▁quelque	-7.64503
▁much	-7.65005
▁là	-7.6521
▁first	-7.65553
▁over	-7.66226
▁dire	-7.66417
▁votre	-7.67345
▁thing	-7.69155
▁also	-7.6917
▁back	-7.70104
▁L	-7.70726
▁his	-7.71307
▁look	-7.71526
▁got	-7.71802
▁Ils	-7.71938
▁little	-7.7247
;	-7.73117
▁work	-7.7313
▁peu	-7.73975
▁temps	-7.75106
▁say	-7.75462
al	-7.76207
▁comment	-7.76557
▁fois	-7.7665
▁she	-7.76938
▁life	-7.77285
▁question	-7.77787
▁That	-7.77794
▁moi	-7.77886
z	-7.78488
▁need	-7.79108
▁only	-7.79744
ait	-7.80226
▁most	-7.80311
▁avait	-7.80785
l	-7.80975
▁sa	-7.81936
▁point	-7.82165
ur	-7.83022
▁ici	-7.8308
▁even	-7.83081
▁important	-7.83709
▁new	-7.8396
ons	-7.84992
▁pouvez	-7.85129
▁take	-7.85189
▁lot	-7.8585
▁many	-7.86162
▁kind	-7.87752
▁Si	-7.88644
in	-7.90665
▁good	-7.91884
▁moment	-7.92076
▁around	-7.92415
▁What	-7.92632
▁sommes	-7.92864
▁her	-7.92911
▁did	-7.93356
▁personnes	-7.93629
▁He	-7.94757
▁different	-7.94934
▁Alors	-7.9515
▁encore	-7.95743
▁non	-7.9611
▁pense	-7.96435
▁There	-7.96438
▁Talk	-7.97009
p	-7.97139
▁dont	-7.9775
▁part	-7.98279
▁down	-7.98457
▁leurs	-7.98868
▁façon	-7.99397
▁through	-8.00084
ranscript	-8.00389
▁va	-8.00705
ubtitles	-8.00791
▁10	-8.01686
▁avoir	-8.01895
o	-8.02303
▁car	-8.02805
▁every	-8.03402
elle	-8.03617
▁autre	-8.03796
▁same	-8.04188
▁come	-8.04213
▁place	-8.04339
▁pays	-8.05295
▁use	-8.05537
▁change	-8.05962
▁lui	-8.06787
▁being	-8.07096
▁sans	-8.07715
▁avez	-8.07888
▁alors	-8.08658
▁juste	-8.08923
hui	-8.0943
le	-8.0953
▁maintenant	-8.09778
▁besoin	-8.10688
u	-8.10779
▁toutes	-8.10804
ont	-8.11067
▁doing	-8.12
▁put	-8.12169
▁-	-8.12298
▁long	-8.12354
▁day	-8.12477
▁three	-8.12942
▁vais	-8.13084
▁jamais	-8.16648
?"	-8.16858
▁human	-8.16998
▁If	-8.17399
▁entre	-8.17834
▁talk	-8.17874
▁années	-8.18405
g	-8.18658
▁well	-8.18955
▁quelques	-8.18999
▁enfants	-8.19699
▁eu	-8.19954
▁percent	-8.20467
▁any	-8.2056
▁called	-8.20756
▁problème	-8.21248
ez	-8.21964
ci	-8.22427
ation	-8.22587
▁pouvons	-8.23435
▁20	-8.2386
▁made	-8.24018
▁moins	-8.241
aient	-8.24121
autres	-8.24164
▁find	-8.24239
▁D	-8.24383
▁veux	-8.24685
▁tell	-8.25635
▁why	-8.25718
▁Well	-8.25919
▁mes	-8.26086
▁peuvent	-8.26255
or	-8.26869
▁toujours	-8.27128
▁Elle	-8.27183
▁fact	-8.27305
▁year	-8.2767
▁seulement	-8.28387
f	-8.28623
▁chaque	-8.28734
▁dollars	-8.28816
▁grand	-8.29473
▁parler	-8.29696
à	-8.30342
▁simple	-8.30648
i	-8.31475
▁great	-8.31726
▁own	-8.3212
▁jour	-8.32123
h	-8.32518
▁pendant	-8.32525
▁idea	-8.32599
▁should	-8.32753
▁course	-8.33217
▁personne	-8.33256
▁didn	-8.33426
▁Voici	-8.33499
▁partie	-8.3369
b	-8.33828
▁today	-8.33831
th	-8.34671
▁soit	-8.34696
▁après	-8.35013
▁after	-8.35428
▁travail	-8.35667
▁started	-8.35938
▁ses	-8.36488
▁trois	-8.37144
vous	-8.3728
it	-8.37494
▁last	-8.37867
▁Merci	-8.37895
▁savez	-8.38209
S	-8.38268
▁thought	-8.38291
I	-8.38335
▁re	-8.38715
▁big	-8.39449
▁première	-8.39547
ic	-8.39777
▁might	-8.3984
ra	-8.3988
▁better	-8.39888
▁système	-8.40207
▁vers	-8.40226
autre	-8.40749
▁off	-8.40767
▁Un	-8.41015
▁autres	-8.41049
▁étaient	-8.41181
▁before	-8.415
▁exemple	-8.41534
étais	-8.41668
▁quoi	-8.41698
▁give	-8.41949
▁possible	-8.42124
▁problem	-8.42234
▁puis	-8.42372
▁aujourd	-8.42809
▁science	-8.42914
A	-8.42947
▁start	-8.43457
▁millions	-8.43643
▁went	-8.43854
▁elles	-8.43959
an	-8.44117
▁commencé	-8.44284
▁another	-8.44358
▁Thank	-8.44776
▁show	-8.4555
▁system	-8.45559
eau	-8.45582
▁design	-8.45876
▁bit	-8.45935
▁never	-8.45975
▁toute	-8.46161
ne	-8.46687
▁voyez	-8.46763
▁brain	-8.46876
▁able	-8.4699
▁manière	-8.47018
▁still	-8.47342
▁story	-8.47437
▁cet	-8.48462
▁together	-8.48552
▁Dans	-8.4872
▁tant	-8.49033
▁sûr	-8.49095
▁let	-8.49679
▁million	-8.4992
▁him	-8.50076
▁next	-8.50846
▁pourquoi	-8.51239
ar	-8.51269
▁ago	-8.51481
▁sort	-8.51633
▁water	-8.52223
▁avant	-8.52268
▁grande	-8.5414
▁came	-8.54205
▁few	-8.54328
▁data	-8.54779
▁again	-8.55499
▁Une	-8.55648
avais	-8.55781
▁public	-8.55783
▁jusqu	-8.55982
entre	-8.56135
able	-8.56521
ri	-8.56608
▁depuis	-8.56639
▁between	-8.56775
▁does	-8.56854
▁êtes	-8.56889
▁sous	-8.56901
▁When	-8.56939
▁vu	-8.56997
▁technology	-8.57056
▁mean	-8.57264
▁each	-8.57417
▁used	-8.57436
,"	-8.57447
▁petit	-8.57582
▁New	-8.57589
▁cerveau	-8.58002
▁femmes	-8.58034
▁trouver	-8.58258
!	-8.58273
▁face	-8.58903
▁Quand	-8.58909
▁font	-8.58956
▁cas	-8.58987
▁rien	-8.59052
▁données	-8.59174
▁end	-8.5947
▁pourrait	-8.5947
▁women	-8.59925
▁too	-8.60102
▁found	-8.60111
▁train	-8.6033
▁bon	-8.61071
C	-8.62041
▁love	-8.62134
▁quelqu	-8.62248
▁passe	-8.62292
▁technologie	-8.62408
▁faut	-8.62666
ée	-8.63543
▁example	-8.6386
D	-8.63973
ro	-8.64543
▁looking	-8.65025
▁social	-8.65026
▁understand	-8.65295
▁assez	-8.65471
▁nature	-8.65804
▁créer	-8.65967
▁Cela	-8.66233
▁Maintenant	-8.66441
▁pouvoir	-8.66543
▁tu	-8.6673
▁live	-8.67022
▁E	-8.67396
▁real	-8.67895
▁doesn	-8.6796
▁four	-8.67971
▁prendre	-8.68541
▁Pour	-8.68588
▁call	-8.68839
▁De	-8.69193
▁ever	-8.69209
▁sens	-8.69411
▁wanted	-8.69629
▁done	-8.69728
▁genre	-8.69807
▁Because	-8.70025
▁sorte	-8.70166
▁How	-8.70245
▁help	-8.70735
▁3	-8.70966
▁power	-8.71093
▁information	-8.71152
▁devons	-8.71221
▁30	-8.71232
▁whole	-8.71389
▁vos	-8.71649
▁questions	-8.71752
▁cancer	-8.72222
▁comprendre	-8.72374
▁believe	-8.72387
▁eux	-8.72407
▁idée	-8.72483
li	-8.72666
▁school	-8.72712
▁premier	-8.72858
is	-8.73041
▁person	-8.73253
▁working	-8.74006
▁nouveau	-8.74029
▁passé	-8.74061
▁six	-8.74407
ais	-8.74699
▁trying	-8.74897
▁50	-8.74901
▁feel	-8.75056
▁may	-8.75298
▁always	-8.75634
▁away	-8.75924
▁children	-8.75967
▁country	-8.76022
ion	-8.76026
▁try	-8.76108
▁second	-8.76602
▁100	-8.77004
▁crois	-8.77539
▁peux	-8.7762
▁déjà	-8.78086
▁travers	-8.78171
▁future	-8.78387
ch	-8.78422
▁minutes	-8.78448
nous	-8.78892
▁chez	-8.79171
▁man	-8.79173
▁sais	-8.79369
ers	-8.79492
▁donner	-8.79497
▁histoire	-8.79519
▁B	-8.79845
▁contre	-8.80207
▁fin	-8.80459
▁using	-8.80463
▁cause	-8.81008
▁high	-8.81059
▁create	-8.81285
ter	-8.81412
▁bonne	-8.81462
▁Parce	-8.81683
▁home	-8.82006
▁ceux	-8.82024
▁savoir	-8.82187
▁dis	-8.82264
▁000	-8.82329
▁plutôt	-8.82351
▁space	-8.82635
▁type	-8.82708
▁thinking	-8.83407
▁small	-8.83489
ette	-8.83525
▁money	-8.8361
▁simplement	-8.83758
▁She	-8.83797
▁become	-8.84341
▁plupart	-8.84674
▁nouvelle	-8.8477
lo	-8.85216
age	-8.85329
elles	-8.85486
▁number	-8.85577
ir	-8.8575
▁took	-8.85838
ie	-8.85954
▁hard	-8.86028
▁means	-8.86192
▁projet	-8.86267
▁five	-8.86352
▁montrer	-8.86916
▁raison	-8.87015
▁environ	-8.8704
▁maybe	-8.87184
histoire	-8.87676
▁mettre	-8.87746
▁kids	-8.87761
▁ceci	-8.87826
▁problèmes	-8.87963
▁trop	-8.87986
▁For	-8.88021
▁corps	-8.88107
la	-8.88168
▁everything	-8.88169
▁image	-8.88477
▁My	-8.88658
▁light	-8.88766
▁aller	-8.88993
és	-8.89002
▁jours	-8.89022
se	-8.89689
▁best	-8.89879
▁One	-8.89998
▁old	-8.90063
▁15	-8.90193
▁changer	-8.90423
▁mieux	-8.90578
▁main	-8.90653
▁Comment	-8.90981
▁left	-8.91028
el	-8.91102
▁Au	-8.91497
▁population	-8.91545
▁Ma	-8.91763
▁M	-8.91926
▁food	-8.9231
▁Internet	-8.92362
▁nombre	-8.92433
▁getting	-8.92617
▁voici	-8.92962
▁ainsi	-8.92962
▁laquelle	-8.92962
▁sense	-8.93067
▁compte	-8.93292
▁its	-8.93338
▁vrai	-8.9337
▁enough	-8.93545
▁mois	-8.93596
▁ensuite	-8.93619
▁quel	-8.93788
▁petite	-8.93955
▁U	-8.94013
▁culture	-8.94157
▁!	-8.94244
▁play	-8.94413
▁mis	-8.94426
Unis	-8.94587
▁serait	-8.94753
te	-8.95237
ul	-8.95275
▁mal	-8.95429
▁men	-8.95483
▁ai	-8.95483
▁quite	-8.95506
▁doit	-8.95535
▁machine	-8.95543
▁making	-8.95558
ity	-8.9563
▁energy	-8.95761
même	-8.95994
au	-8.96
▁lieu	-8.96013
là	-8.96138
▁OK	-8.96209
▁pu	-8.96233
▁These	-8.96783
▁am	-8.96808
us	-8.96927
▁per	-8.96956
▁happened	-8.97005
▁veut	-8.97038
▁building	-8.97114
▁countries	-8.97448
▁build	-8.97579
▁2	-8.97648
▁ville	-8.97879
▁avaient	-8.97898
▁hand	-8.9833
▁Tout	-8.98385
▁body	-8.98447
▁open	-8.98535
▁without	-8.9858
▁santé	-8.98619
▁photo	-8.99006
▁parents	-8.99073
▁talking	-8.99145
▁dé	-8.99198
▁femme	-8.99353
▁global	-8.9949
▁côté	-8.99519
▁No	-8.99802
▁pris	-8.99833
▁vont	-8.99956
▁probably	-9.00224
▁penser	-9.00337
▁interesting	-9.00618
agit	-9.00672
x	-9.00798
▁propre	-9.00897
ou	-9.00907
▁told	-9.00945
▁under	-9.01106
▁comes	-9.01121
▁cours	-9.01154
to	-9.01188
▁P	-9.01217
▁ask	-9.01219
▁York	-9.01491
▁stuff	-9.01714
▁utiliser	-9.01922
▁says	-9.02043
E	-9.02124
▁Qu	-9.02245
▁lives	-9.02283
man	-9.02289
▁parle	-9.02441
▁forme	-9.02825
▁ré	-9.02977
avoir	-9.03201
▁Here	-9.03252
▁certains	-9.03323
▁près	-9.03371
▁coming	-9.03517
k	-9.03614
▁film	-9.03694
▁happen	-9.04147
▁large	-9.04212
▁t	-9.04218
me	-9.04287
▁side	-9.04493
▁trouve	-9.04693
▁lorsque	-9.04726
▁such	-9.04764
idée	-9.04923
▁passer	-9.04982
▁learn	-9.05187
▁case	-9.05372
▁bring	-9.05472
▁anything	-9.05649
▁seule	-9.05687
▁across	-9.05723
ions	-9.0574
▁certain	-9.05818
▁réalité	-9.06023
▁Pourquoi	-9.06086
▁pretty	-9.06096
▁As	-9.06126
ig	-9.06203
▁trouvé	-9.06208
air	-9.06304
▁hommes	-9.06834
▁Africa	-9.07084
▁souvent	-9.07087
▁care	-9.07242
▁ensemble	-9.0731
▁sera	-9.07318
▁experience	-9.07463
▁R	-9.07607
▁surface	-9.07655
▁gros	-9.07656
▁celui	-9.07766
▁far	-9.07887
art	-9.07998
▁family	-9.08056
▁chance	-9.08164
▁difficile	-9.084
up	-9.08403
▁Let	-9.08417
énergie	-9.08432
▁room	-9.08494
argent	-9.08641
▁young	-9.08641
▁reason	-9.08686
ti	-9.08776
▁saw	-9.09113
▁images	-9.09269
▁différentes	-9.09694
ité	-9.09756
▁half	-9.09777
▁living	-9.09823
▁tard	-9.0986
▁times	-9.09882
▁solution	-9.10206
▁business	-9.10333
▁autour	-9.10408
▁force	-9.10706
▁reste	-9.11129
▁project	-9.11353
▁seen	-9.11505
avons	-9.11638
▁else	-9.11782
▁All	-9.11832
ine	-9.12026
▁quatre	-9.12028
▁process	-9.12083
▁move	-9.12177
▁société	-9.12381
▁computer	-9.12397
▁later	-9.12555
▁...	-9.12671
▁F	-9.12689
▁groupe	-9.12894
▁asked	-9.12952
▁allons	-9.13193
ées	-9.13325
de	-9.13326
▁maison	-9.13444
▁mind	-9.13757
id	-9.13811
▁changement	-9.13951
▁vision	-9.14015
▁famille	-9.14022
▁having	-9.1426
▁planète	-9.14277
M	-9.14277
▁celle	-9.145
▁makes	-9.14537
▁seul	-9.14578
▁;	-9.14594
▁40	-9.14782
▁niveau	-9.14896
▁bad	-9.15216
▁structure	-9.15291
▁Earth	-9.15399
▁picture	-9.15436
▁health	-9.15446
ive	-9.15498
▁top	-9.15594
▁goes	-9.15798
▁technologies	-9.15881
▁inside	-9.16204
▁happens	-9.16213
▁city	-9.16257
▁bas	-9.16605
▁single	-9.16723
▁G	-9.16982
P	-9.17027
▁while	-9.17054
▁test	-9.17186
▁situation	-9.17217
importe	-9.17607
▁community	-9.17727
▁Why	-9.18119
▁faisons	-9.18342
▁haut	-9.18401
am	-9.18441
▁rend	-9.18519
▁planet	-9.18597
▁lumière	-9.18777
▁sujet	-9.18853
▁almost	-9.18986
▁base	-9.1908
ness	-9.19108
▁patients	-9.19129
▁answer	-9.1926
moi	-9.19284
▁days	-9.19421
▁billion	-9.19468
appelle	-9.19825
▁yet	-9.19891
▁18	-9.19896
▁début	-9.19938
▁hope	-9.20216
▁marché	-9.2026
ique	-9.20298
▁both	-9.20339
▁nouvelles	-9.2057
▁demandé	-9.20699
▁réponse	-9.20778
▁savons	-9.20831
▁control	-9.20881
▁travailler	-9.20963
▁signifie	-9.20971
▁matter	-9.20971
▁set	-9.20979
▁often	-9.21073
▁Des	-9.21076
▁book	-9.21085
ous	-9.21113
▁already	-9.21132
▁partir	-9.21226
▁problems	-9.21331
▁milliards	-9.2142
▁Par	-9.21507
T	-9.21557
▁également	-9.21571
▁art	-9.21755
▁presque	-9.21916
▁recherche	-9.22043
▁Ces	-9.22053
▁ways	-9.22122
▁N	-9.22215
at	-9.22258
▁CA	-9.22269
▁saying	-9.22273
▁donné	-9.22623
ry	-9.22695
▁form	-9.22929
▁donne	-9.22932
▁produit	-9.23145
▁quelle	-9.2318
▁keep	-9.23479
▁imagine	-9.23542
▁couple	-9.23639
▁4	-9.23716
▁livre	-9.23736
▁age	-9.23944
▁whether	-9.24127
▁12	-9.24195
▁read	-9.24197
ist	-9.24321
▁met	-9.24337
ta	-9.24361
▁order	-9.24376
▁construire	-9.24401
▁model	-9.24438
O	-9.24594
▁faites	-9.24622
▁plan	-9.24634
▁voulez	-9.24665
▁tellement	-9.24713
▁plusieurs	-9.24754
▁remember	-9.24822
co	-9.24832
▁wrong	-9.24934
▁Mon	-9.24939
▁attention	-9.2499
▁someone	-9.25048
▁history	-9.25205
▁nothing	-9.25206
▁super	-9.25301
B	-9.2534
▁looked	-9.25545
▁once	-9.25673
▁humain	-9.25716
tats	-9.25729
▁within	-9.25893
▁vue	-9.25909
▁job	-9.25947
▁homme	-9.26022
tu	-9.26108
▁Or	-9.26143
▁montre	-9.262
▁commencer	-9.26506
▁K	-9.26653
▁idées	-9.26702
▁moyen	-9.2675
▁true	-9.26846
▁robot	-9.26896
aux	-9.27016
▁basically	-9.27218
▁stop	-9.27415
▁ideas	-9.27866
▁ligne	-9.27908
▁guy	-9.27921
▁tête	-9.2819
▁allez	-9.28237
▁group	-9.28389
▁1	-9.28425
iez	-9.28471
▁guerre	-9.28507
▁mort	-9.28543
que	-9.28596
▁myself	-9.28614
▁enfant	-9.29035
▁research	-9.29141
▁turn	-9.29218
▁Voilà	-9.29451
ement	-9.29476
qu	-9.29578
▁différents	-9.29647
▁child	-9.29663
ance	-9.2968
▁pouvait	-9.29924
as	-9.29947
▁head	-9.29978
▁appris	-9.29994
ate	-9.30283
▁année	-9.30461
▁United	-9.30494
▁Re	-9.30513
▁regarder	-9.30514
▁arrive	-9.30593
ha	-9.30834
ac	-9.30836
▁Eh	-9.30913
▁amazing	-9.31099
▁Elles	-9.31122
▁cinq	-9.31164
▁music	-9.31231
▁ni	-9.31239
▁propos	-9.31416
▁months	-9.31485
▁Bien	-9.31502
▁jeu	-9.31544
▁O	-9.31573
▁communauté	-9.31604
▁government	-9.31724
▁heart	-9.31824
▁sure	-9.31872
▁dernière	-9.31893
▁war	-9.31938
▁développement	-9.31944
2	-9.31988
um	-9.32048
ol	-9.32065
▁beautiful	-9.32257
vi	-9.3229
▁cellules	-9.32385
▁humains	-9.32452
▁petits	-9.32524
espace	-9.32701
▁mère	-9.32781
et	-9.32784
▁probablement	-9.32816
▁built	-9.32833
▁modèle	-9.32889
▁message	-9.33001
▁voiture	-9.33298
ard	-9.33547
▁words	-9.33617
".	-9.33772
▁heard	-9.33826
▁rendre	-9.33971
▁cells	-9.34099
▁créé	-9.34293
accord	-9.34355
▁processus	-9.34396
▁video	-9.34421
▁politique	-9.34507
▁vient	-9.34535
▁coup	-9.3462
▁run	-9.34683
po	-9.349
urs	-9.35063
▁night	-9.35167
▁endroit	-9.35354
▁self	-9.3541
▁language	-9.35428
▁To	-9.35457
▁heures	-9.35577
▁stories	-9.35586
▁front	-9.35597
▁local	-9.35642
▁looks	-9.35845
▁Est	-9.35883
abord	-9.35954
▁line	-9.36001
▁wasn	-9.36116
▁mot	-9.36211
▁share	-9.36292
rait	-9.36344
...	-9.36353
▁piece	-9.36374
▁Google	-9.36592
▁until	-9.36714
v	-9.36787
ure	-9.37074
▁Do	-9.37121
eux	-9.37171
▁air	-9.37301
▁species	-9.37308
▁futur	-9.37322
▁nom	-9.3737
ni	-9.37469
di	-9.3748
▁meilleur	-9.37545
▁animal	-9.37587
▁devez	-9.37917
ut	-9.38006
▁Que	-9.3806
▁America	-9.38122
▁vivre	-9.38147
▁musique	-9.38218
▁expérience	-9.38252
▁grâce	-9.38423
na	-9.3852
▁voilà	-9.38629
▁complètement	-9.3864
▁site	-9.38726
▁pay	-9.38774
▁mots	-9.38781
ma	-9.38885
▁père	-9.39043
▁yeux	-9.39081
▁pro	-9.39271
▁violence	-9.39289
▁marche	-9.39386
▁peur	-9.39452
▁fais	-9.39454
▁became	-9.3946
ner	-9.39489
▁Comme	-9.39513
▁universe	-9.3955
▁education	-9.39602
▁patient	-9.39612
com	-9.39668
▁commence	-9.39762
▁partout	-9.39799
▁5	-9.39913
▁intéressant	-9.40096
▁entendu	-9.4011
▁aider	-9.40386
▁con	-9.40386
▁disent	-9.40572
▁animaux	-9.40691
▁appelé	-9.40773
▁everybody	-9.40826
▁word	-9.41067
▁completely	-9.4116
▁learned	-9.41196
▁devenir	-9.412
▁must	-9.41281
▁gouvernement	-9.41493
▁demande	-9.41516
té	-9.41784
▁60	-9.41789
▁regardez	-9.41823
▁code	-9.42017
▁state	-9.42092
▁States	-9.42097
▁figure	-9.42286
▁decided	-9.42478
▁Terre	-9.42653
▁isn	-9.42835
▁knew	-9.42852
ge	-9.42875
▁taking	-9.42963
▁study	-9.43033
▁name	-9.43082
▁exactly	-9.43085
tte	-9.4309
▁places	-9.43117
▁though	-9.43126
▁woman	-9.43175
▁hear	-9.43227
▁friends	-9.43404
op	-9.43469
▁since	-9.43474
▁happening	-9.43602
je	-9.43703
▁itself	-9.43861
▁sound	-9.43873
école	-9.43874
▁voulais	-9.43936
5	-9.43952
ating	-9.44121
▁voit	-9.44141
▁co	-9.44261
▁against	-9.44393
▁terre	-9.44506
ru	-9.44577
ck	-9.44859
▁décidé	-9.44944
pe	-9.45095
▁certaines	-9.45299
ty	-9.45319
▁Oui	-9.45325
▁society	-9.45367
▁p	-9.45437
▁mesure	-9.45514
▁animals	-9.45598
▁huge	-9.45599
▁students	-9.45602
▁vidéo	-9.45881
ré	-9.45924
▁loin	-9.4606
L	-9.46117
▁themselves	-9.46139
R	-9.46411
intérieur	-9.46415
▁somebody	-9.46592
▁level	-9.46639
▁unique	-9.4669
▁continue	-9.46847
▁works	-9.46892
▁disease	-9.46912
▁capable	-9.4703
▁afin	-9.4713
▁game	-9.47192
▁source	-9.47305
▁pensé	-9.47358
▁cent	-9.47505
▁India	-9.47796
▁ourselves	-9.47825
▁Bon	-9.48041
ia	-9.48091
▁amis	-9.48093
▁essayer	-9.48102
▁view	-9.48306
▁avions	-9.48356
▁capacité	-9.48533
▁choix	-9.48736
▁siècle	-9.48773
▁At	-9.48777
▁Oh	-9.48827
▁company	-9.49309
ting	-9.49341
▁dernier	-9.49353
▁dernières	-9.49357
▁sometimes	-9.49425
▁lequel	-9.49491
▁écrit	-9.49598
▁along	-9.4964
▁created	-9.49852
▁découvert	-9.49996
▁25	-9.50112
▁19	-9.50129
be	-9.50134
▁jeunes	-9.50364
▁environment	-9.50385
▁incroyable	-9.50903
▁milliers	-9.5093
▁nourriture	-9.50933
▁impact	-9.5097
▁g	-9.51074
▁rather	-9.51167
les	-9.51179
▁sait	-9.51471
he	-9.51579
▁aucune	-9.51585
▁hours	-9.51784
eur	-9.51951
▁mother	-9.52007
old	-9.52025
▁compris	-9.52113
▁80	-9.52201
▁points	-9.52219
▁parfois	-9.52345
▁particular	-9.52519
ag	-9.52665
▁turns	-9.52705
▁facile	-9.5276
▁permet	-9.52898
▁grands	-9.52931
▁histoires	-9.53023
▁couldn	-9.53101
▁voyage	-9.53103
▁God	-9.53344
▁table	-9.53393
▁exactement	-9.53425
▁free	-9.53434
▁worked	-9.53497
▁taille	-9.5351
aime	-9.53544
▁voulons	-9.53659
▁police	-9.53663
▁everyone	-9.53673
▁ressemble	-9.53687
▁Chris	-9.53797
The	-9.53812
▁apprendre	-9.54048
▁fille	-9.54061
vo	-9.54221
▁rest	-9.54262
▁house	-9.54402
▁Ceci	-9.5448
▁American	-9.54509
N	-9.54599
▁short	-9.54623
▁least	-9.54628
▁11	-9.54671
▁early	-9.54875
▁close	-9.54895
▁robots	-9.55064
▁r	-9.55088
▁black	-9.55111
▁jouer	-9.55218
▁natural	-9.55326
▁Then	-9.55352
▁powerful	-9.55373
▁land	-9.55519
▁entire	-9.55536
▁thousands	-9.55548
▁instead	-9.55598
▁cool	-9.55609
ling	-9.55639
▁aurait	-9.55709
aide	-9.55765
▁rapidement	-9.55879
▁mondiale	-9.55882
▁red	-9.55966
▁réellement	-9.55984
▁team	-9.56214
▁compassion	-9.56215
▁Pas	-9.56247
▁V	-9.56359
▁grandes	-9.56449
▁meilleure	-9.56469
▁Non	-9.56501
▁plein	-9.56513
▁entier	-9.56626
▁semble	-9.56709
▁200	-9.56756
▁f	-9.56771
avez	-9.56788
▁Ou	-9.56918
▁difference	-9.56931
3	-9.56972
▁third	-9.57018
▁market	-9.57066
▁won	-9.5712
if	-9.57123
▁outside	-9.57135
em	-9.57317
▁village	-9.5744
▁happy	-9.57578
▁fut	-9.57585
▁rapport	-9.5764
▁devant	-9.57706
▁photos	-9.57755
▁aucun	-9.58027
▁China	-9.5808
bo	-9.58266
▁gave	-9.58482
▁impossible	-9.58484
▁programme	-9.58619
▁centre	-9.5877
▁Okay	-9.5892
▁importante	-9.58981
▁common	-9.59088
▁dois	-9.59157
▁full	-9.5924
▁seven	-9.59351
ies	-9.59436
▁nuit	-9.59605
▁learning	-9.59714
▁behind	-9.59724
▁shows	-9.59881
▁cell	-9.59935
▁villes	-9.59966
ated	-9.60002
▁présent	-9.6004
im	-9.6005
▁taken	-9.60269
▁Europe	-9.60282
▁conditions	-9.60365
▁Dieu	-9.60408
bi	-9.60435
▁leave	-9.60439
go	-9.60485
▁Ne	-9.60502
▁kinds	-9.60531
▁prix	-9.60623
▁scale	-9.60635
▁maladie	-9.60678
▁sécurité	-9.60777
▁guys	-9.60925
ized	-9.6101
▁longtemps	-9.61012
▁demander	-9.6107
▁différence	-9.6121
▁regarde	-9.61355
▁changed	-9.61752
▁%	-9.61766
▁porte	-9.61938
▁Ainsi	-9.62048
▁media	-9.62049
▁suite	-9.62127
▁Puis	-9.62169
G	-9.62259
▁Chine	-9.62297
▁humaine	-9.62385
ach	-9.62393
▁dû	-9.62562
▁cost	-9.62627
no	-9.62667
▁contrôle	-9.62677
▁devenu	-9.62709
▁normal	-9.62738
▁position	-9.62759
▁virus	-9.62765
▁Mo	-9.62769
▁voyons	-9.62835
▁cities	-9.62962
▁changé	-9.62967
▁arriver	-9.6305
hi	-9.63092
▁veulent	-9.63098
information	-9.63144
▁service	-9.63224
K	-9.63238
▁past	-9.63396
▁appelle	-9.6342
▁mouvement	-9.63488
▁Tu	-9.63595
▁oui	-9.63677
▁middle	-9.63761
w	-9.63907
avait	-9.63921
che	-9.63948
▁pre	-9.64144
▁droit	-9.6415
▁century	-9.64245
ho	-9.64253
▁fond	-9.64304
▁difficult	-9.6437
▁gauche	-9.64427
▁scientifiques	-9.64453
esprit	-9.6448
▁walk	-9.64575
▁devrait	-9.64831
ici	-9.649
do	-9.64955
▁systems	-9.65144
ot	-9.65252
▁turned	-9.65259
▁arrivé	-9.65354
ton	-9.65371
▁news	-9.6538
▁pensez	-9.6546
▁Car	-9.65568
▁father	-9.65639
▁puisse	-9.65664
▁support	-9.65677
mo	-9.65693
we	-9.65722
▁milieu	-9.65762
▁moving	-9.65775
▁beginning	-9.65912
▁given	-9.65967
▁types	-9.65989
▁W	-9.66031
▁particulier	-9.66046
▁chacun	-9.6607
▁size	-9.66093
▁énorme	-9.66272
▁eyes	-9.66345
▁direction	-9.66557
▁production	-9.66611
use	-9.66719
▁oil	-9.66816
year	-9.67074
▁prison	-9.67158
pi	-9.67299
▁dessus	-9.67348
ism	-9.67426
bas	-9.67633
▁paper	-9.67652
os	-9.67699
▁Al	-9.67772
ème	-9.67804
▁began	-9.67829
▁tour	-9.67849
▁é	-9.6795
▁easy	-9.67968
va	-9.6804
▁week	-9.68046
▁micro	-9.68057
▁deuxième	-9.68119
▁selon	-9.68247
▁yourself	-9.68252
▁grow	-9.68282
▁area	-9.68343
▁vite	-9.68392
7	-9.68473
▁salle	-9.68517
▁wonderful	-9.68571
▁croissance	-9.68663
4	-9.68675
▁low	-9.68814
▁concept	-9.68859
▁mer	-9.68881
▁6	-9.6898
eurs	-9.69007
univers	-9.69015
▁parlé	-9.69021
▁deal	-9.69244
▁nouveaux	-9.69255
▁petites	-9.69351
▁version	-9.69354
▁finally	-9.69432
rs	-9.69452
▁companies	-9.69514
▁7	-9.69545
▁différent	-9.69568
▁».	-9.6959
▁perhaps	-9.69645
▁eight	-9.69647
▁economic	-9.6965
▁utilisé	-9.69743
▁défi	-9.69795
▁fonctionne	-9.698
▁needed	-9.69838
tra	-9.69869
▁poor	-9.69959
▁réseau	-9.70057
▁simply	-9.70068
▁doivent	-9.7021
aimerais	-9.70358
▁ocean	-9.70365
br	-9.7058
▁devient	-9.70637
▁construit	-9.70691
▁étudiants	-9.7075
out	-9.70891
▁combien	-9.70921
▁venir	-9.7115
▁seeing	-9.71153
Afrique	-9.71164
▁sub	-9.71327
▁gets	-9.71349
▁terms	-9.71484
▁realized	-9.71504
▁hands	-9.71527
▁effet	-9.71912
▁phone	-9.71917
▁jeune	-9.7192
▁bout	-9.71923
less	-9.71979
▁produits	-9.72002
▁cannot	-9.7225
▁H	-9.72365
▁death	-9.72436
▁Ca	-9.72506
▁national	-9.72682
▁systèmes	-9.727
isme	-9.72741
▁ex	-9.72766
▁carte	-9.72785
▁Some	-9.72925
▁solutions	-9.72949
▁others	-9.72966
année	-9.73
▁existe	-9.73018
éducation	-9.73053
▁spend	-9.73092
▁conversation	-9.7331
▁fish	-9.73377
▁lots	-9.73413
▁informations	-9.7343
▁physique	-9.73581
▁etc	-9.73592
8	-9.73598
▁machines	-9.73624
ted	-9.7379
mer	-9.7382
▁17	-9.73824
▁page	-9.73852
▁reality	-9.73859
▁longer	-9.73909
années	-9.73994
ill	-9.74154
▁16	-9.74163
▁web	-9.74174
▁takes	-9.74367
▁access	-9.74551
▁John	-9.74569
▁Can	-9.74727
▁partager	-9.74804
ff	-9.75042
▁inter	-9.75253
▁sortir	-9.75386
▁bio	-9.75387
sh	-9.7549
▁pouvais	-9.75597
▁amount	-9.75614
▁services	-9.75616
▁droite	-9.75617
min	-9.75658
uring	-9.75682
▁felt	-9.75748
der	-9.75839
▁fear	-9.76056
▁quickly	-9.76074
▁buy	-9.76101
▁color	-9.7613
▁whatever	-9.76161
▁réussi	-9.76197
▁voudrais	-9.76198
Oh	-9.76226
▁commun	-9.76231
▁respect	-9.76264
▁entreprises	-9.76375
▁stage	-9.76395
▁action	-9.76495
▁endroits	-9.76601
▁voix	-9.7665
▁pourraient	-9.76826
▁dur	-9.76922
▁moitié	-9.76953
ue	-9.7697
gu	-9.77032
mi	-9.77049
▁centaines	-9.77091
▁spent	-9.77129
▁économique	-9.77169
▁comportement	-9.77271
▁People	-9.77277
▁14	-9.77301
▁individual	-9.77315
ian	-9.77388
▁relation	-9.77587
ier	-9.77707
▁complex	-9.77717
▁growth	-9.77763
▁conférence	-9.77768
▁value	-9.7796
▁blood	-9.78041
▁political	-9.78109
nce	-9.78113
▁blue	-9.78176
▁content	-9.78186
▁terme	-9.7821
▁tried	-9.78229
lé	-9.78301
▁climate	-9.78307
mêmes	-9.78383
▁te	-9.78452
▁challenge	-9.78525
▁derrière	-9.78635
▁laisser	-9.78746
▁David	-9.78789
▁?"	-9.78811
▁mission	-9.78889
▁résoudre	-9.78957
▁behavior	-9.79027
▁résultats	-9.79041
▁parts	-9.79154
▁opportunity	-9.79564
ante	-9.79589
▁chemin	-9.79611
▁prend	-9.79865
homme	-9.79986
F	-9.80016
▁field	-9.80058
▁semaine	-9.80116
▁ability	-9.80116
▁key	-9.8016
▁Just	-9.80163
▁réel	-9.80177
▁known	-9.80346
▁construction	-9.80362
▁hold	-9.80401
ga	-9.80574
▁zone	-9.80598
▁soient	-9.80609
▁scène	-9.80659
▁lost	-9.80664
▁minute	-9.80673
You	-9.80689
▁speak	-9.80755
iste	-9.80765
▁500	-9.8082
▁audience	-9.80859
▁die	-9.80929
▁heureux	-9.80977
",	-9.80984
▁write	-9.811
tic	-9.81112
▁interested	-9.81194
▁program	-9.81336
utiliser	-9.8134
Well	-9.81343
▁pré	-9.81432
▁issue	-9.81542
▁90	-9.81548
▁economy	-9.81608
▁World	-9.81631
▁qualité	-9.81693
▁sol	-9.8171
▁70	-9.81715
▁équipe	-9.81717
▁semaines	-9.81841
▁San	-9.81919
▁scientifique	-9.82081
▁Mars	-9.82115
▁green	-9.82273
▁gone	-9.82334
▁ordinateur	-9.82666
▁final	-9.82674
▁friend	-9.82683
▁21	-9.82744
▁matin	-9.82758
▁deep	-9.82912
▁post	-9.82925
▁Our	-9.82982
▁vies	-9.82997
▁autant	-9.83014
▁ground	-9.83087
▁step	-9.83143
▁maladies	-9.833
ally	-9.83337
▁Right	-9.83377
▁network	-9.83385
▁finalement	-9.83389
▁DNA	-9.83533
ler	-9.83558
end	-9.83583
▁humans	-9.83604
▁Sa	-9.83697
▁allé	-9.83728
▁pain	-9.83759
▁needs	-9.83781
▁innovation	-9.83796
▁contact	-9.83934
▁nombreux	-9.84033
ap	-9.84111
▁either	-9.84183
▁pièce	-9.84203
▁incredible	-9.84346
▁personal	-9.84385
▁propres	-9.84491
▁radio	-9.84544
▁travaille	-9.84683
▁tend	-9.84788
▁termes	-9.84851
▁weeks	-9.84892
▁fun	-9.84913
▁risque	-9.84919
▁sea	-9.84922
con	-9.85021
▁leaders	-9.85114
▁eat	-9.85121
ah	-9.8518
▁result	-9.85208
▁sitting	-9.85211
▁secret	-9.85212
▁white	-9.85221
What	-9.85375
and	-9.85398
▁born	-9.85409
▁institutions	-9.85492
▁stress	-9.85496
▁measure	-9.85503
▁experiment	-9.85633
▁sent	-9.85645
mon	-9.85648
ux	-9.85897
▁feeling	-9.85979
▁Aujourd	-9.85992
▁résultat	-9.86053
▁valeur	-9.86061
ab	-9.86255
▁risk	-9.86333
▁lorsqu	-9.86418
ob	-9.86447
▁matière	-9.86491
espère	-9.86533
▁communication	-9.8657
▁étions	-9.8657
▁nice	-9.86655
▁différente	-9.86685
▁livres	-9.86722
▁cut	-9.86776
▁seconde	-9.86802
▁réalisé	-9.86898
fi	-9.86921
▁papier	-9.86993
▁realize	-9.8702
époque	-9.87217
tri	-9.87261
▁lire	-9.87272
▁mètres	-9.8733
▁kid	-9.87421
▁based	-9.8744
▁physical	-9.87449
▁filles	-9.87495
▁rendu	-9.875
iv	-9.87502
▁growing	-9.87533
▁théorie	-9.87604
vers	-9.87634
▁feet	-9.8767
▁nombreuses	-9.8767
▁development	-9.87737
▁raisons	-9.87767
▁pourrions	-9.87768
▁watch	-9.87778
▁average	-9.87835
▁modern	-9.87857
ize	-9.87876
▁clear	-9.8811
▁perspective	-9.88122
▁rencontré	-9.88317
▁fini	-9.88332
▁disait	-9.88806
▁v	-9.88806
ite	-9.88898
▁Afrique	-9.88906
▁troisième	-9.89032
▁journée	-9.89035
▁positive	-9.89257
▁classe	-9.89269
▁Not	-9.89285
▁areas	-9.89315
▁Peut	-9.8934
▁montré	-9.8955
▁ressources	-9.89589
om	-9.89613
▁13	-9.89699
▁Après	-9.89712
▁morning	-9.89712
▁wouldn	-9.89807
ns	-9.8984
▁understanding	-9.89861
▁miles	-9.90016
▁bottom	-9.90057
▁brought	-9.90057
▁conscience	-9.90058
▁map	-9.90058
▁produire	-9.90058
▁anti	-9.90175
▁fire	-9.90286
▁dark	-9.90308
▁ait	-9.90365
line	-9.90366
▁scientists	-9.90414
ille	-9.905
▁pick	-9.90517
▁parmi	-9.90555
▁pensent	-9.90638
▁essayé	-9.90775
aire	-9.90793
▁material	-9.90807
ud	-9.90817
▁moral	-9.90878
ale	-9.90954
▁lab	-9.90985
▁Ha	-9.91045
▁Avec	-9.911
▁present	-9.91129
▁rôle	-9.91153
ex	-9.91169
▁8	-9.91183
▁South	-9.91421
▁pensons	-9.9145
▁vitesse	-9.91451
▁tools	-9.91557
▁produce	-9.91672
▁capital	-9.91694
▁allow	-9.91698
▁faisant	-9.91888
▁développer	-9.91948
▁knowledge	-9.92168
▁issues	-9.92222
▁movement	-9.92324
▁similar	-9.9233
▁center	-9.92366
▁solve	-9.92553
▁special	-9.92573
amour	-9.92667
▁domaine	-9.92774
▁fil	-9.92823
▁24	-9.92893
▁mode	-9.92992
▁général	-9.93159
▁developed	-9.9316
▁po	-9.93196
▁Ensuite	-9.93396
▁Dr	-9.93564
▁class	-9.93635
▁girl	-9.9364
H	-9.93659
ber	-9.93724
▁forward	-9.93726
per	-9.93781
▁téléphone	-9.93827
▁break	-9.94009
▁premiers	-9.94137
6	-9.94174
▁starting	-9.94221
▁baby	-9.94296
▁obtenir	-9.94325
▁hundreds	-9.94361
▁raconter	-9.9443
▁alone	-9.94477
▁taux	-9.94507
▁perdu	-9.94635
▁langage	-9.94656
1	-9.94734
▁literally	-9.9484
▁fast	-9.94887
▁climatique	-9.95033
expérience	-9.9513
▁plant	-9.95175
▁giving	-9.952
▁wrote	-9.952
▁charge	-9.95379
▁rate	-9.95385
▁travaillé	-9.9545
ary	-9.95464
▁running	-9.95571
▁save	-9.95572
▁rester	-9.95654
▁sortes	-9.95712
time	-9.9577
▁chercher	-9.95796
▁mauvais	-9.95944
▁seems	-9.96054
▁période	-9.96114
00	-9.96155
▁devrions	-9.96298
▁numbers	-9.9632
▁soleil	-9.96484
▁signal	-9.96584
▁ami	-9.96588
▁outils	-9.9663
▁online	-9.96641
▁reçu	-9.96666
▁viennent	-9.96675
▁réfléchir	-9.96741
▁theory	-9.96747
dessus	-9.96791
da	-9.9689
▁zones	-9.96924
▁faisait	-9.96926
▁digital	-9.96945
▁court	-9.96968
ish	-9.97003
▁Go	-9.97055
amp	-9.97076
ès	-9.97093
▁eye	-9.97142
▁quantité	-9.97197
▁fly	-9.97363
▁religion	-9.9738
▁success	-9.97402
▁bar	-9.97421
▁forces	-9.9746
▁telling	-9.97461
▁sex	-9.97513
▁terrible	-9.97533
the	-9.97534
environnement	-9.97536
V	-9.97773
▁passion	-9.97794
▁books	-9.9783
▁changes	-9.97857
▁focus	-9.979
▁guess	-9.97968
ible	-9.98047
▁utilisant	-9.98155
lin	-9.98164
ip	-9.98226
▁règles	-9.98347
▁dream	-9.98361
▁stand	-9.98567
▁utilise	-9.98732
▁vois	-9.98736
▁terrain	-9.9874
▁meet	-9.98842
▁mine	-9.98845
men	-9.9886
▁voulait	-9.98909
▁confiance	-9.9891
▁thank	-9.98912
▁anyone	-9.98928
▁develop	-9.98962
▁Facebook	-9.99096
▁voice	-9.99106
▁gars	-9.99109
pa	-9.992
▁aura	-9.99217
▁succès	-9.99286
ca	-9.99329
▁certaine	-9.99409
ger	-9.99435
gi	-9.99466
▁act	-9.9947
▁creating	-9.99476
▁distance	-9.99496
▁English	-9.99666
▁vérité	-9.99666
▁traitement	-9.99708
▁route	-9.99884
▁Be	-9.9991
ants	-10.0004
▁truc	-10.0018
▁assis	-10.0018
▁Yeah	-10.0018
▁major	-10.0021
ster	-10.0022
▁»,	-10.0038
ba	-10.004
▁doute	-10.0045
▁découvrir	-10.0045
▁St	-10.005
nes	-10.0051
▁bras	-10.0053
économie	-10.0058
▁law	-10.0058
▁voitures	-10.0064
▁groupes	-10.0071
W	-10.0072
▁relations	-10.0078
▁moyenne	-10.009
▁developing	-10.0096
évolution	-10.0116
▁tendance	-10.0127
▁mains	-10.0131
▁ones	-10.0131
9	-10.0135
▁pourriez	-10.0137
▁bâtiment	-10.0146
▁period	-10.0159
▁journey	-10.016
▁fils	-10.0163
▁jeux	-10.0166
▁haute	-10.0177
▁déc	-10.0182
▁continuer	-10.0182
▁conception	-10.0184
▁pauvres	-10.0199
▁relationship	-10.0205
▁époque	-10.0211
▁marcher	-10.0212
▁industry	-10.0217
▁celles	-10.0217
▁By	-10.0217
▁Etats	-10.0222
▁medical	-10.0237
▁absolutely	-10.0238
▁Notre	-10.0242
▁génération	-10.0245
io	-10.0249
▁office	-10.0253
▁discovered	-10.0262
ront	-10.0263
▁région	-10.0266
▁send	-10.0274
▁espèces	-10.028
▁série	-10.0292
▁environnement	-10.0294
▁gives	-10.03
▁durant	-10.0303
▁talked	-10.0308
▁crée	-10.0333
âge	-10.0333
od	-10.0338
▁demi	-10.0339
▁rue	-10.0348
▁With	-10.0361
▁girls	-10.0367
▁begin	-10.0371
▁vivent	-10.0376
▁crise	-10.0392
▁stay	-10.0409
ial	-10.0412
état	-10.0412
▁modèles	-10.0417
▁showed	-10.0429
ations	-10.0433
ring	-10.0433
▁Y	-10.0448
▁designed	-10.0449
▁objets	-10.045
▁seem	-10.0452
Je	-10.0461
▁effect	-10.0473
▁Qui	-10.0491
impression	-10.0493
▁surtout	-10.0494
▁peine	-10.0495
▁massive	-10.0495
▁generation	-10.0495
▁lors	-10.0505
▁connu	-10.051
▁mass	-10.0513
▁Plus	-10.0514
▁prise	-10.0529
▁star	-10.0532
▁truth	-10.0534
▁justice	-10.0534
ful	-10.0535
▁étant	-10.0536
▁savent	-10.0544
▁drive	-10.0552
▁An	-10.0555
▁resources	-10.0558
iques	-10.0562
▁tiny	-10.0575
▁product	-10.0577
▁recently	-10.0578
▁international	-10.0587
▁sept	-10.059
▁recherches	-10.0592
▁rouge	-10.0592
▁treat	-10.0599
▁sociaux	-10.0615
▁shape	-10.0617
▁playing	-10.0618
è	-10.0621
▁dead	-10.0623
▁follow	-10.063
▁tel	-10.0638
▁basic	-10.0641
▁screen	-10.0661
▁Man	-10.0664
ator	-10.0664
▁seront	-10.0671
▁notion	-10.0673
▁pouvaient	-10.0676
▁favorite	-10.0677
▁street	-10.0685
▁allait	-10.069
U	-10.0692
ow	-10.0693
▁approche	-10.0702
ke	-10.0706
▁beyond	-10.0717
▁sun	-10.0717
▁race	-10.0718
▁pourtant	-10.072
▁progress	-10.0722
▁prochaine	-10.0727
,000	-10.0734
▁reach	-10.0738
▁ordinateurs	-10.0741
▁poser	-10.076
▁Sud	-10.0775
▁available	-10.0779
▁fit	-10.078
pt	-10.0782
▁suivante	-10.0785
▁300	-10.0802
▁approach	-10.0804
▁changing	-10.0809
▁projets	-10.0816
▁especially	-10.0841
▁meilleurs	-10.0843
▁evidence	-10.0862
▁incredibly	-10.0862
▁provide	-10.0867
▁transport	-10.087
▁Na	-10.09
tor	-10.0909
▁représente	-10.0912
ère	-10.0913
▁asking	-10.0917
▁response	-10.0924
▁télé	-10.0925
▁visage	-10.093
▁role	-10.0946
ain	-10.0955
▁partage	-10.0956
▁Ici	-10.0965
océan	-10.0967
▁extrêmement	-10.0968
isation	-10.0971
▁état	-10.0978
▁ha	-10.098
▁ice	-10.0991
▁drug	-10.0999
▁bonnes	-10.1003
▁espèce	-10.1009
▁explain	-10.101
heure	-10.1016
▁pétrole	-10.1051
▁voie	-10.1052
▁record	-10.1054
ak	-10.1056
▁Bo	-10.1058
ble	-10.1061
▁liste	-10.1069
▁bigger	-10.1075
tes	-10.1081
▁connect	-10.1093
▁parties	-10.1094
▁choice	-10.1102
▁reasons	-10.1103
by	-10.1105
▁performance	-10.1107
▁perfect	-10.1107
▁camera	-10.1113
▁Yes	-10.112
▁politiques	-10.113
▁bureau	-10.1135
lt	-10.1137
où	-10.1139
▁soon	-10.114
du	-10.1145
▁instant	-10.115
▁Certains	-10.1157
▁involved	-10.116
▁box	-10.1165
▁coût	-10.1169
▁Chaque	-10.118
ADN	-10.1203
▁haven	-10.1205
▁appelée	-10.1206
▁solar	-10.1215
▁several	-10.1222
▁noir	-10.1223
▁bo	-10.1224
▁surprise	-10.1236
▁tas	-10.1237
aller	-10.1245
▁writing	-10.1248
▁putting	-10.125
des	-10.1251
▁path	-10.1251
▁ch	-10.1252
%	-10.1253
nd	-10.1254
▁gas	-10.1255
▁9	-10.1257
▁vol	-10.1262
▁création	-10.1265
▁gaz	-10.127
▁pose	-10.1274
rons	-10.1277
▁potential	-10.1281
dy	-10.1281
▁venu	-10.1285
▁National	-10.1287
▁fall	-10.1288
▁War	-10.1294
▁fight	-10.1295
▁hit	-10.1298
▁trucs	-10.1305
▁sit	-10.1309
▁médicaments	-10.1315
▁fou	-10.1315
iens	-10.1327
▁mauvaise	-10.1329
all	-10.1334
▁rapide	-10.1344
▁hundred	-10.1344
▁Ka	-10.1352
▁Pendant	-10.1352
▁démocratie	-10.1352
▁Po	-10.1353
▁lived	-10.1355
▁yes	-10.1359
cent	-10.1365
▁h	-10.1382
▁computers	-10.1383
▁nation	-10.1384
▁bizarre	-10.1396
étaient	-10.1401
▁formes	-10.1403
avenir	-10.1404
▁month	-10.1411
▁drugs	-10.1412
▁regardé	-10.1414
▁lit	-10.1416
▁Imaginez	-10.1421
▁groups	-10.1423
ordinateur	-10.143
▁structures	-10.1431
▁changements	-10.1443
▁wall	-10.1444
!"	-10.1447
▁teach	-10.1448
▁bons	-10.1454
▁manger	-10.1465
▁add	-10.1468
▁architecture	-10.1479
▁Chinese	-10.1488
▁Who	-10.1497
▁utilisent	-10.1501
▁loi	-10.1502
▁worth	-10.1506
▁communities	-10.1507
▁suivre	-10.1508
▁towards	-10.1511
▁Sur	-10.1511
▁retour	-10.1516
▁aren	-10.1517
val	-10.1518
▁imp	-10.1524
▁réaliser	-10.1525
▁révolution	-10.1529
▁creative	-10.1529
▁clean	-10.1529
▁explore	-10.1541
▁device	-10.1548
tique	-10.1553
▁carbon	-10.1558
▁vent	-10.1567
▁soi	-10.1571
▁couleur	-10.1571
ver	-10.1573
▁appel	-10.1576
éri	-10.1591
ins	-10.1592
▁Twitter	-10.1596
▁After	-10.1596
▁transformer	-10.1619
▁mental	-10.1626
▁Co	-10.1628
▁First	-10.1641
▁entreprise	-10.1641
▁capables	-10.1643
▁espace	-10.1644
▁likely	-10.1651
ables	-10.1657
▁complexe	-10.1664
▁Every	-10.1668
Inde	-10.167
▁sang	-10.1671
▁object	-10.1672
▁lose	-10.1677
▁imaginer	-10.1682
▁technique	-10.1686
▁total	-10.1687
▁Bill	-10.1693
▁hot	-10.1694
▁sociétés	-10.1695
▁condition	-10.1702
▁Même	-10.1708
▁expériences	-10.1709
avère	-10.171
▁affect	-10.1713
▁died	-10.1718
▁protect	-10.1722
▁aide	-10.1729
▁cars	-10.1731
▁software	-10.1731
▁transformation	-10.1735
après	-10.1738
▁general	-10.1747
▁trust	-10.1754
▁listen	-10.1764
▁wish	-10.1766
▁wind	-10.1769
lar	-10.177
▁CO	-10.1773
▁croire	-10.1777
▁strong	-10.1782
▁rules	-10.1785
▁ta	-10.179
▁list	-10.1792
▁West	-10.1793
▁fonction	-10.1797
▁discours	-10.1799
▁choisi	-10.1809
▁pictures	-10.1812
▁article	-10.1814
▁medicine	-10.1824
▁standard	-10.1826
▁échelle	-10.1828
▁extraordinaire	-10.183
▁pire	-10.1841
▁danger	-10.1843
▁arm	-10.1844
▁Beaucoup	-10.1845
▁étude	-10.1856
▁Nord	-10.1864
▁liberté	-10.1868
▁permettre	-10.1869
▁manque	-10.1869
▁faite	-10.1874
▁speed	-10.1876
▁spread	-10.1877
▁sein	-10.1877
▁fine	-10.1897
▁meaning	-10.1909
▁parti	-10.191
dé	-10.1913
▁biggest	-10.1914
▁mobile	-10.1919
▁expliquer	-10.193
▁Afghanistan	-10.1931
▁nine	-10.1933
▁Of	-10.1937
ateur	-10.1947
▁wait	-10.1951
▁dimensions	-10.1959
▁droits	-10.1959
side	-10.1961
▁laboratoire	-10.1967
Amérique	-10.1969
▁visual	-10.1982
▁scientific	-10.1985
▁finding	-10.1992
▁quality	-10.1997
▁accident	-10.2006
▁North	-10.2008
▁Lorsque	-10.2013
▁hospital	-10.2014
▁sentiment	-10.2018
▁intelligence	-10.2018
▁becomes	-10.202
▁bonheur	-10.2031
▁multi	-10.2031
ever	-10.2033
▁cycle	-10.2044
▁active	-10.2052
▁pauvreté	-10.2054
▁Maybe	-10.2056
▁largest	-10.2057
▁lead	-10.2069
▁glace	-10.208
▁mêmes	-10.208
▁protection	-10.2082
rie	-10.209
▁Inde	-10.2091
▁beau	-10.2092
▁présente	-10.2106
particulièrement	-10.2108
▁langue	-10.211
isé	-10.2112
qui	-10.2112
▁moyens	-10.2115
▁prêt	-10.212
▁éléments	-10.212
▁higher	-10.212
▁expect	-10.2122
▁lesquelles	-10.2125
▁carbone	-10.2132
▁stick	-10.2134
▁vote	-10.2162
▁moments	-10.2163
▁développé	-10.2166
ang	-10.2167
▁vraie	-10.2171
▁techniques	-10.2171
▁poverty	-10.2172
▁récemment	-10.2172
▁personnel	-10.2172
▁anybody	-10.2172
▁vieux	-10.218
▁courant	-10.218
innovation	-10.2181
▁showing	-10.2183
land	-10.2189
▁evolution	-10.2195
▁absolument	-10.2197
▁kill	-10.2202
vis	-10.2204
▁influence	-10.2205
▁études	-10.2212
▁répondre	-10.2212
▁okay	-10.222
▁revenir	-10.222
▁totalement	-10.2223
▁smart	-10.2233
▁libre	-10.2241
▁exciting	-10.2243
iser	-10.2248
▁enfin	-10.2252
▁uniquement	-10.2256
▁pensais	-10.2267
▁répondu	-10.2271
▁match	-10.2272
▁Don	-10.2274
▁revolution	-10.2275
▁double	-10.2279
▁Pa	-10.228
No	-10.2288
ay	-10.229
▁longue	-10.2302
ped	-10.2308
▁médias	-10.2308
▁oh	-10.2309
▁vis	-10.2313
▁safe	-10.2319
▁savais	-10.2327
▁particularly	-10.2328
▁skin	-10.2333
▁results	-10.2333
We	-10.2335
▁moved	-10.2339
▁perception	-10.2339
▁walking	-10.2341
▁huit	-10.2342
▁late	-10.235
▁chiffres	-10.2362
▁context	-10.2363
▁Richard	-10.2364
▁commercial	-10.2365
▁sounds	-10.2371
▁onto	-10.2378
▁finir	-10.2384
▁certainly	-10.2384
▁Paul	-10.2386
▁vit	-10.2396
industrie	-10.2399
▁b	-10.2399
▁combat	-10.2412
▁deviennent	-10.2413
▁schools	-10.2415
▁disant	-10.2418
▁central	-10.2424
▁slow	-10.2425
▁African	-10.2437
▁totally	-10.2444
▁belle	-10.2446
▁search	-10.245
▁Quel	-10.2452
ja	-10.2454
▁telle	-10.2461
▁consider	-10.2469
wa	-10.248
▁former	-10.2485
▁including	-10.2485
▁City	-10.2498
▁app	-10.2509
▁obviously	-10.2514
▁teachers	-10.2524
▁direct	-10.2527
▁camp	-10.2528
ries	-10.253
▁écrire	-10.2534
▁Washington	-10.2534
▁further	-10.2534
▁among	-10.2535
▁tool	-10.2535
▁extremely	-10.2538
j	-10.2539
uff	-10.2548
▁hour	-10.2551
▁suivant	-10.2551
▁bus	-10.2552
ise	-10.2561
ative	-10.2561
▁auto	-10.257
▁sauver	-10.2578
▁goal	-10.2578
king	-10.2579
▁student	-10.2579
apprentissage	-10.2584
ng	-10.2584
▁Regardez	-10.2584
▁Me	-10.2585
▁tells	-10.2587
▁ho	-10.2588
▁plantes	-10.2588
▁security	-10.259
▁track	-10.2599
▁rich	-10.2601
ments	-10.2606
▁solaire	-10.2609
▁sociale	-10.2621
▁fundamental	-10.2627
▁materials	-10.2633
▁touch	-10.2636
▁soir	-10.2637
▁ready	-10.264
▁mur	-10.2643
▁sleep	-10.2644
▁formation	-10.2652
▁forêt	-10.2656
▁budget	-10.2658
▁extraordinary	-10.266
▁notice	-10.2668
endroit	-10.2671
▁films	-10.2682
nu	-10.2692
▁présentation	-10.2692
ide	-10.2699
▁road	-10.2704
▁waste	-10.2704
▁importe	-10.2726
▁atteindre	-10.273
▁everywhere	-10.2733
▁400	-10.2735
let	-10.2736
▁door	-10.274
▁TV	-10.2741
▁projects	-10.275
▁watching	-10.2754
▁devait	-10.2758
▁médecine	-10.2759
▁rec	-10.2761
▁organization	-10.2761
wi	-10.2767
▁plants	-10.277
▁esprit	-10.2771
▁atteint	-10.2782
▁examples	-10.2783
▁nobody	-10.2784
▁extra	-10.2801
▁traiter	-10.2806
▁bord	-10.2807
▁choose	-10.2809
▁crazy	-10.2809
▁tôt	-10.2809
▁doctor	-10.2811
▁Ba	-10.2812
▁désir	-10.282
né	-10.282
humanité	-10.2823
▁crisis	-10.2834
▁happiness	-10.2837
▁demand	-10.2841
▁école	-10.285
▁sign	-10.2852
▁pratique	-10.2857
▁plastic	-10.2859
▁puissance	-10.2859
▁career	-10.2871
▁connected	-10.2879
▁eventually	-10.2885
▁vivant	-10.2888
▁clair	-10.2901
ities	-10.2903
▁permis	-10.291
▁traditional	-10.291
▁democracy	-10.291
▁objects	-10.2911
▁merci	-10.2915
▁continent	-10.2917
▁allowed	-10.2926
J	-10.2929
▁gagner	-10.2931
izing	-10.2932
▁gènes	-10.2933
▁accès	-10.2944
▁aid	-10.2945
ical	-10.2948
▁choisir	-10.295
ade	-10.2954
▁song	-10.2958
si	-10.2958
▁Dan	-10.2961
électricité	-10.2961
▁travel	-10.2962
▁Se	-10.2982
▁individuals	-10.2983
▁college	-10.2987
▁Most	-10.2992
▁sites	-10.2995
▁cap	-10.2999
▁feu	-10.2999
▁genetic	-10.3013
▁pattern	-10.3019
▁tree	-10.3019
▁littéralement	-10.3039
▁worse	-10.3039
▁cher	-10.3044
▁designers	-10.3053
▁Pro	-10.3053
▁date	-10.3058
▁Ro	-10.306
▁efficace	-10.3066
▁dehors	-10.3067
▁soins	-10.3075
▁named	-10.3077
▁incroyablement	-10.3078
▁taught	-10.3091
▁exist	-10.3092
▁Ok	-10.3093
uc	-10.3102
▁communautés	-10.3102
like	-10.3105
▁supposed	-10.3106
ran	-10.3109
delà	-10.3111
▁grew	-10.3117
▁directement	-10.3119
▁essentially	-10.3119
▁sentir	-10.3121
▁peau	-10.3126
▁Even	-10.3126
▁shot	-10.3128
▁jobs	-10.3138
▁suivi	-10.3143
▁Cha	-10.3146
▁cellule	-10.3152
▁potentiel	-10.3154
ile	-10.3164
ning	-10.3164
ind	-10.3165
port	-10.3174
▁possibilité	-10.3179
▁pages	-10.318
▁Mi	-10.3185
app	-10.319
▁studies	-10.3195
▁truly	-10.3195
ley	-10.3207
▁dés	-10.3213
▁devenue	-10.3216
▁contexte	-10.3222
▁écoles	-10.3223
▁réseaux	-10.3224
▁thousand	-10.3232
▁movie	-10.3233
▁zero	-10.3236
▁Web	-10.3238
▁réduire	-10.3251
▁Vi	-10.3256
▁recognize	-10.3259
▁carrière	-10.326
▁wonder	-10.3268
▁trees	-10.3268
ug	-10.327
▁causes	-10.327
ui	-10.3274
▁memory	-10.3274
▁matériaux	-10.3275
▁concerne	-10.3276
▁protéger	-10.328
▁utilisons	-10.3282
image	-10.3283
▁civil	-10.3289
▁families	-10.3301
▁coin	-10.3302
action	-10.3313
origine	-10.3313
▁crime	-10.3315
avaient	-10.3318
▁bleu	-10.3318
▁pull	-10.3324
▁boy	-10.3327
▁Today	-10.3328
fe	-10.3328
▁games	-10.333
▁mondial	-10.3345
▁paix	-10.3354
▁distribution	-10.3354
▁teacher	-10.3357
▁lois	-10.3357
▁starts	-10.3358
▁simples	-10.3359
▁fallait	-10.3359
▁shown	-10.3361
▁press	-10.3367
▁decision	-10.3368
ization	-10.3368
▁serious	-10.3374
▁né	-10.3377
▁kilomètres	-10.3377
▁George	-10.3381
▁bunch	-10.3381
▁East	-10.3381
enfants	-10.3381
▁masse	-10.3389
▁travaillent	-10.3391
université	-10.3402
▁dites	-10.3404
ction	-10.3405
▁square	-10.3411
uvre	-10.342
▁critical	-10.3425
tion	-10.3429
▁address	-10.3435
▁check	-10.3435
▁prenez	-10.3435
▁prennent	-10.3435
▁rise	-10.344
▁actions	-10.3441
▁range	-10.3444
▁rêve	-10.3452
▁pensée	-10.3455
▁text	-10.3456
▁lower	-10.3457
▁near	-10.3463
▁payer	-10.3465
▁arrière	-10.3465
▁dollar	-10.3468
▁em	-10.3475
har	-10.35
▁Ben	-10.3502
▁faster	-10.3504
▁leadership	-10.3516
▁ton	-10.3525
▁auparavant	-10.3528
tre	-10.3531
▁galaxies	-10.3532
▁HIV	-10.3543
▁above	-10.3543
▁standing	-10.3544
▁vivons	-10.3544
▁please	-10.3545
▁increase	-10.3546
gé	-10.3548
▁killed	-10.3556
▁intelligent	-10.3562
aurais	-10.3564
▁objet	-10.3565
▁female	-10.357
▁phénomène	-10.357
▁wife	-10.357
▁board	-10.357
▁models	-10.3575
▁Sh	-10.3581
▁collective	-10.3586
▁conduit	-10.3586
▁portable	-10.3591
▁morceau	-10.3596
▁excited	-10.3597
▁activity	-10.3598
▁nécessaire	-10.3611
échelle	-10.3618
▁membres	-10.3619
▁acheter	-10.3622
▁vécu	-10.3623
▁cultures	-10.3626
▁ouvert	-10.3634
▁professeur	-10.3646
▁familles	-10.365
▁math	-10.367
ists	-10.3675
▁complicated	-10.368
▁plastique	-10.368
euse	-10.3692
aujourd	-10.3701
▁imagination	-10.3704
▁famous	-10.3707
▁somewhere	-10.3707
▁suddenly	-10.3711
▁Are	-10.3712
▁fix	-10.3717
▁Where	-10.3721
▁ended	-10.3721
ors	-10.3722
▁Tous	-10.373
▁campagne	-10.3735
ong	-10.3742
▁mourir	-10.3763
▁dangerous	-10.3764
▁commencent	-10.3779
▁successful	-10.3785
▁larger	-10.3787
▁importantes	-10.3787
▁grandi	-10.3799
▁meant	-10.3802
▁proche	-10.3818
▁MIT	-10.3819
▁numéro	-10.382
▁lu	-10.3824
▁peace	-10.3837
▁subject	-10.3844
gue	-10.3846
▁o	-10.3846
▁allows	-10.3869
▁cases	-10.387
▁effective	-10.3872
▁faible	-10.3873
▁chef	-10.3873
▁température	-10.3875
▁profit	-10.3878
▁cold	-10.3892
▁foot	-10.3896
▁James	-10.3903
▁Those	-10.3903
bu	-10.3904
▁buildings	-10.3905
▁tests	-10.3909
▁products	-10.3909
▁workers	-10.3923
ensemble	-10.3926
▁étudier	-10.3931
▁floor	-10.3931
▁microbes	-10.3931
▁trade	-10.3932
istes	-10.3935
car	-10.3935
▁specific	-10.3936
▁km	-10.394
▁exemples	-10.3941
▁150	-10.396
▁website	-10.396
▁pourrais	-10.3963
▁genes	-10.3965
▁effectivement	-10.3966
▁pied	-10.3974
▁reading	-10.3976
▁di	-10.3977
▁ayant	-10.399
▁lancé	-10.3991
▁Là	-10.3996
▁noire	-10.3999
raient	-10.4013
▁account	-10.4014
one	-10.4015
▁Michael	-10.4016
▁military	-10.4017
▁chanson	-10.4018
▁publique	-10.4019
▁es	-10.4019
▁parent	-10.4021
▁collection	-10.4024
▁fan	-10.4025
▁intéressante	-10.4027
tat	-10.4029
▁experts	-10.4035
▁survive	-10.4039
▁fort	-10.4041
èrent	-10.4041
▁Look	-10.4042
▁financial	-10.4045
▁private	-10.4045
▁collaboration	-10.4046
▁corruption	-10.4048
▁gouvernements	-10.4052
▁bed	-10.4052
▁drop	-10.4053
ray	-10.4057
▁return	-10.4063
▁region	-10.4067
▁shift	-10.4068
▁infrastructure	-10.4068
▁merveilleux	-10.4074
▁freedom	-10.4074
ving	-10.4076
▁indeed	-10.4103
▁nuclear	-10.4105
▁connaissance	-10.4106
ienne	-10.4111
▁35	-10.4113
▁certainement	-10.4115
▁feed	-10.4124
espoir	-10.4127
▁nord	-10.4128
▁sell	-10.4129
▁purpose	-10.4131
▁bébé	-10.4136
▁Ho	-10.4141
▁trouble	-10.4148
▁Big	-10.4149
▁series	-10.415
▁older	-10.4151
▁visit	-10.4152
▁draw	-10.4155
▁dog	-10.4157
▁Laissez	-10.4162
▁stars	-10.4164
▁poisson	-10.4165
▁disons	-10.4169
▁style	-10.4174
▁suit	-10.4175
▁neurones	-10.4186
▁kept	-10.4189
▁progrès	-10.4189
dire	-10.419
▁mise	-10.4202
off	-10.4202
▁sorti	-10.4205
▁training	-10.4218
▁balance	-10.4219
▁price	-10.4227
▁argument	-10.4237
aires	-10.4244
▁urban	-10.4246
▁ciel	-10.4247
▁interest	-10.4263
▁note	-10.4265
▁sky	-10.4278
vent	-10.4278
▁count	-10.4282
▁souris	-10.4285
▁durable	-10.4289
▁humanity	-10.4289
▁treatment	-10.4293
▁revenu	-10.4297
▁accept	-10.43
avant	-10.4302
▁naturel	-10.4305
▁répond	-10.4308
▁pressure	-10.4308
▁actual	-10.431
▁practice	-10.4315
▁collègues	-10.4323
tons	-10.4325
▁suppose	-10.4325
▁correspond	-10.433
»	-10.4333
▁bodies	-10.4335
▁messages	-10.4337
▁mo	-10.4343
importance	-10.4362
▁br	-10.4365
▁boîte	-10.4365
▁Anderson	-10.4365
▁electricity	-10.4366
▁usually	-10.4367
▁américaine	-10.4367
▁internet	-10.4376
▁laissé	-10.4378
▁secondes	-10.438
ome	-10.4383
▁original	-10.4385
▁pe	-10.4392
▁effort	-10.4398
▁photograph	-10.4404
▁invisible	-10.441
▁current	-10.4418
▁skills	-10.4419
▁Like	-10.4425
▁étrange	-10.443
ev	-10.4433
▁discussion	-10.4436
▁brains	-10.4439
ologie	-10.4442
▁document	-10.4451
▁blind	-10.4453
▁somehow	-10.4455
▁trou	-10.4457
▁citoyens	-10.4458
▁healthy	-10.4465
▁génial	-10.4466
▁médecin	-10.4467
allais	-10.4468
▁rappelle	-10.4468
ki	-10.4469
▁win	-10.4471
▁physics	-10.4484
▁contenu	-10.4484
▁function	-10.4488
▁strange	-10.4489
▁riches	-10.4489
vin	-10.4491
▁garder	-10.4494
▁tirer	-10.4496
▁decisions	-10.4498
▁pi	-10.4503
▁responsabilité	-10.4514
▁voulu	-10.4515
▁faux	-10.4516
ord	-10.4517
▁vert	-10.4519
▁predict	-10.4528
rez	-10.4532
▁façons	-10.4538
▁temperature	-10.4544
▁biology	-10.4544
▁alive	-10.4545
▁Los	-10.4549
▁dépend	-10.4554
gen	-10.4557
▁fur	-10.4559
▁calcul	-10.4566
pro	-10.4567
▁bacteria	-10.457
▁decide	-10.4574
▁célèbre	-10.4574
▁policy	-10.4574
▁becoming	-10.4574
▁devoir	-10.4577
ute	-10.4579
▁pousser	-10.4584
▁viens	-10.4586
▁décision	-10.4589
▁smaller	-10.4597
led	-10.4598
▁Kenya	-10.4612
▁Du	-10.4615
▁town	-10.4617
▁premières	-10.4617
▁forms	-10.4618
▁décisions	-10.4619
▁tomber	-10.4622
▁conflict	-10.4625
▁sexe	-10.463
entreprise	-10.4633
▁biologie	-10.4635
▁anymore	-10.4635
▁horrible	-10.4638
▁fabriquer	-10.4646
▁magnifique	-10.4651
▁listening	-10.4654
▁li	-10.4656
▁cartes	-10.4658
▁trouvent	-10.4659
▁Imagine	-10.4661
▁moderne	-10.4664
▁University	-10.4665
▁volume	-10.4668
oo	-10.4682
▁Mu	-10.4683
▁patterns	-10.4688
▁familiar	-10.4695
▁yeah	-10.4695
▁concevoir	-10.4697
▁sources	-10.4698
▁raise	-10.4711
▁regard	-10.4713
▁rock	-10.4719
▁cru	-10.4724
▁chaîne	-10.4726
ama	-10.4726
▁gay	-10.4733
ka	-10.4733
▁sp	-10.4741
▁w	-10.4745
▁Amérique	-10.4746
▁mom	-10.4747
ium	-10.4747
▁sommet	-10.4752
▁doctors	-10.4755
▁créativité	-10.4756
▁instance	-10.4756
▁beauté	-10.4758
▁loved	-10.4765
▁lien	-10.4766
▁citizens	-10.4767
▁graph	-10.4768
▁rule	-10.4778
▁vide	-10.4785
▁expensive	-10.4787
▁poids	-10.4787
▁devraient	-10.4787
▁chat	-10.4795
rais	-10.4804
▁envoyé	-10.4806
▁numérique	-10.4808
▁milliard	-10.4809
chi	-10.4813
▁entendre	-10.4813
▁visible	-10.4819
▁tri	-10.483
▁puissant	-10.4837
▁environmental	-10.4843
▁Times	-10.4844
nel	-10.4844
▁anywhere	-10.4849
▁côte	-10.4849
▁permettent	-10.4849
▁laissez	-10.4851
▁income	-10.4861
▁Indian	-10.4866
term	-10.4866
▁mémoire	-10.488
▁instrument	-10.4883
▁mathématiques	-10.4891
▁El	-10.4895
▁tourner	-10.4898
▁cat	-10.4912
activité	-10.4914
par	-10.4915
▁lancer	-10.4917
▁chair	-10.492
▁rare	-10.4923
▁valeurs	-10.4931
▁magazine	-10.4935
▁entière	-10.4937
▁transform	-10.4937
▁gr	-10.4938
▁rep	-10.4942
▁voler	-10.4947
▁morts	-10.4948
▁dix	-10.4948
▁Quelle	-10.4954
ailleurs	-10.496
▁effets	-10.4965
▁fer	-10.497
▁économie	-10.4971
▁majorité	-10.4976
▁arbres	-10.4982
▁sat	-10.4987
ans	-10.4987
▁teaching	-10.4994
▁sud	-10.4996
▁phrase	-10.4999
▁upon	-10.5003
ograph	-10.5004
▁désormais	-10.5005
▁written	-10.5008
▁decade	-10.5012
▁fr	-10.5015
ight	-10.5016
▁pieces	-10.5016
▁neurons	-10.5017
▁meeting	-10.5023
▁waiting	-10.5025
▁silence	-10.5037
▁weren	-10.5041
▁clearly	-10.5049
▁lines	-10.5061
▁phase	-10.5068
▁océans	-10.5073
▁dessin	-10.5078
teur	-10.5084
▁attack	-10.5085
▁stock	-10.5087
▁véritable	-10.5094
▁tradition	-10.5096
▁connection	-10.5099
▁bruit	-10.51
▁hors	-10.5101
▁pop	-10.511
▁store	-10.5113
▁designer	-10.5113
ock	-10.5118
ny	-10.5122
▁contrôler	-10.5124
▁fantastique	-10.5132
▁earlier	-10.5132
▁beauty	-10.5133
▁neuf	-10.5136
adore	-10.5146
▁Di	-10.5148
ft	-10.515
▁pouvions	-10.5164
▁France	-10.5166
tant	-10.5174
▁attend	-10.5182
cal	-10.5185
▁aspects	-10.5188
arrive	-10.5191
▁débat	-10.5194
▁Darwin	-10.5196
▁himself	-10.5196
▁découverte	-10.5197
▁except	-10.5202
▁ba	-10.5203
ding	-10.5207
▁joue	-10.5208
▁45	-10.5209
▁entrer	-10.5216
▁Charles	-10.5228
▁formidable	-10.5228
▁Which	-10.5228
▁throughout	-10.5236
▁puissent	-10.5244
▁His	-10.5245
▁heat	-10.5247
aider	-10.5252
▁pièces	-10.5256
cle	-10.526
▁quartier	-10.526
▁NASA	-10.526
▁étudié	-10.526
▁fuel	-10.5262
▁2008	-10.5262
▁weight	-10.5262
▁réponses	-10.5263
▁su	-10.5269
▁nu	-10.5275
▁greatest	-10.528
hand	-10.5282
▁challenges	-10.5282
▁politics	-10.5293
▁popular	-10.5293
▁driving	-10.5293
▁cross	-10.5302
▁ran	-10.5304
fin	-10.5306
▁facilement	-10.5309
▁sorts	-10.5318
▁communicate	-10.5325
▁lesquels	-10.5326
habitude	-10.5327
▁park	-10.5342
▁legal	-10.5342
ep	-10.5348
▁flow	-10.5348
▁revenus	-10.5349
▁faisaient	-10.5366
▁Ch	-10.5368
▁clients	-10.5372
▁caractéristique	-10.5391
▁join	-10.5391
▁transition	-10.5393
▁diseases	-10.5394
▁Einstein	-10.5398
▁term	-10.5398
▁corner	-10.5401
▁tuer	-10.5407
▁rights	-10.541
ps	-10.5414
▁Another	-10.5423
▁babies	-10.5423
▁voulaient	-10.5424
▁gain	-10.5425
▁cover	-10.5433
▁imaginez	-10.5439
▁wealth	-10.5445
▁arrêté	-10.5447
▁Americans	-10.5447
▁forth	-10.5447
▁greater	-10.5456
▁Francisco	-10.5456
▁funny	-10.5457
▁immediately	-10.5458
▁consommation	-10.5459
▁compagnie	-10.546
▁satellite	-10.546
▁critique	-10.5461
▁comp	-10.5463
▁collect	-10.5466
▁engineering	-10.5473
▁encourage	-10.5475
▁médecins	-10.5476
ram	-10.548
▁fonctionner	-10.5486
▁London	-10.5489
▁Personne	-10.5489
▁rain	-10.5491
▁essentiellement	-10.5492
▁hair	-10.5493
▁cri	-10.5494
▁decades	-10.5497
▁Robert	-10.5498
▁pleine	-10.5499
▁sensation	-10.5499
▁artist	-10.5502
▁prevent	-10.5507
imp	-10.5508
ina	-10.551
▁block	-10.5512
way	-10.5514
▁poissons	-10.5517
▁willing	-10.5522
▁Pakistan	-10.5522
▁tenir	-10.5524
▁helped	-10.5527
environ	-10.5527
stro	-10.5532
▁améliorer	-10.5537
▁présenter	-10.5541
ass	-10.5542
▁enjoy	-10.5544
▁complexes	-10.5548
▁fantastic	-10.5556
▁remarkable	-10.5556
▁douleur	-10.5556
▁actuellement	-10.5561
▁perdre	-10.5576
▁journal	-10.5578
▁cognitive	-10.5589
▁entièrement	-10.5595
▁apply	-10.5598
▁walked	-10.5617
▁Tom	-10.5622
▁chambre	-10.5622
▁motivation	-10.5622
▁biological	-10.5623
▁dance	-10.5626
▁cultural	-10.5626
▁courbe	-10.5632
▁push	-10.5634
▁governments	-10.5636
▁shared	-10.5641
▁arrêter	-10.5645
▁aspect	-10.565
▁importance	-10.5659
▁costs	-10.5663
▁outil	-10.5675
▁raconte	-10.5677
▁observer	-10.5682
▁improve	-10.5697
▁coeur	-10.5698
▁forest	-10.5701
▁legs	-10.5703
▁values	-10.5716
▁Many	-10.5718
▁pression	-10.5718
▁recent	-10.5721
▁im	-10.5722
▁Western	-10.5723
▁correct	-10.5724
▁failure	-10.5726
▁clairement	-10.5728
▁essayons	-10.5728
▁Où	-10.5729
▁regardant	-10.5729
▁email	-10.5734
▁forte	-10.5743
essayer	-10.5747
▁professional	-10.5749
▁bébés	-10.5752
existe	-10.5754
▁engage	-10.5754
▁useful	-10.5755
▁heure	-10.5756
▁conçu	-10.5757
▁Combien	-10.5757
▁évidemment	-10.5758
▁forget	-10.5759
Internet	-10.5764
▁tissue	-10.5765
▁slide	-10.5768
▁caméra	-10.5769
▁mari	-10.5779
ê	-10.5782
ani	-10.5788
▁départ	-10.5791
▁cadre	-10.5791
▁parlons	-10.5791
▁Canada	-10.5792
▁verrez	-10.5795
ren	-10.5811
▁trip	-10.5812
ien	-10.5816
▁Steve	-10.5816
gar	-10.582
▁rencontre	-10.5822
▁programmes	-10.5823
▁Très	-10.5826
▁bateau	-10.5826
▁inventé	-10.5829
▁rem	-10.5831
▁pot	-10.5837
▁blanc	-10.5837
▁chain	-10.5839
▁gene	-10.5839
▁passent	-10.5848
▁Ta	-10.5848
▁leader	-10.5854
▁notes	-10.5855
▁compréhension	-10.586
▁therefore	-10.586
▁génétique	-10.5867
▁conséquences	-10.587
pr	-10.5872
▁colleagues	-10.5873
▁peuple	-10.5874
▁sciences	-10.5875
▁mesurer	-10.5882
▁following	-10.5884
La	-10.5885
cy	-10.5885
▁limites	-10.5892
▁devais	-10.5894
▁rivière	-10.5894
▁From	-10.5896
▁Two	-10.5897
▁boat	-10.5901
▁immense	-10.5906
▁réaction	-10.591
▁moteur	-10.5912
▁magic	-10.5912
▁cuisine	-10.592
▁pa	-10.5925
▁Bi	-10.5929
▁Chicago	-10.5929
▁genome	-10.5929
▁rythme	-10.5929
▁conference	-10.5929
▁exposé	-10.5929
▁décrit	-10.5929
ward	-10.5929
▁existence	-10.593
▁flu	-10.593
▁champ	-10.5931
▁américain	-10.5936
light	-10.5936
▁ahead	-10.5937
▁Mes	-10.5937
▁vidéos	-10.594
▁pl	-10.5942
lle	-10.5943
▁secteur	-10.5944
▁pure	-10.5948
▁Son	-10.5949
ient	-10.595
▁profond	-10.5953
▁minds	-10.596
▁creativity	-10.5963
▁immédiatement	-10.5963
▁speech	-10.5963
▁landscape	-10.5963
▁parlent	-10.5963
▁Harvard	-10.5966
▁âge	-10.5967
▁bois	-10.5973
50	-10.5974
duc	-10.5975
▁reduce	-10.5982
▁atmosphere	-10.6002
extérieur	-10.6006
▁ver	-10.6013
▁riche	-10.6013
▁tué	-10.6017
▁naissance	-10.6033
▁various	-10.6033
▁restaurant	-10.6051
▁station	-10.6051
▁univers	-10.6054
▁descend	-10.6059
▁bomb	-10.606
▁séquence	-10.6068
▁plaisir	-10.6068
▁amené	-10.6072
▁levels	-10.6074
architecture	-10.6076
▁roll	-10.6078
▁énergie	-10.6083
tive	-10.6087
▁choices	-10.6089
ping	-10.6095
▁obvious	-10.6096
▁Ri	-10.6099
▁Think	-10.6103
▁définition	-10.6105
▁Hu	-10.6109
▁complete	-10.611
form	-10.6112
▁classique	-10.6112
▁brand	-10.6114
▁seconds	-10.6118
ché	-10.6121
▁alternative	-10.6128
▁finance	-10.6136
▁ailleurs	-10.6137
▁profondément	-10.6138
▁worst	-10.6138
▁accessible	-10.6139
▁Pi	-10.6144
▁invented	-10.6148
her	-10.6164
▁flying	-10.6165
▁th	-10.6169
▁bi	-10.6176
▁2000	-10.6182
▁logique	-10.6185
▁laisse	-10.619
▁bactéries	-10.6192
▁conclusion	-10.6195
▁principe	-10.6195
▁preuve	-10.6195
▁venue	-10.6196
▁efforts	-10.6197
▁précis	-10.6197
▁arts	-10.6207
ép	-10.6208
▁Cependant	-10.6209
▁génome	-10.6209
▁affaires	-10.621
atif	-10.621
▁servir	-10.6212
▁sauf	-10.6213
▁BG	-10.6213
▁matériel	-10.6215
▁investment	-10.6216
▁below	-10.6219
▁meilleures	-10.6222
auto	-10.6224
▁Hi	-10.6229
▁montrent	-10.6232
▁quant	-10.6236
▁aime	-10.6236
▁enormous	-10.6238
▁contraire	-10.6238
enfant	-10.6243
▁pollution	-10.6244
ship	-10.6246
▁toi	-10.6246
▁remarqué	-10.625
cher	-10.6254
apprendre	-10.6257
▁Your	-10.6259
▁e	-10.6266
▁logiciel	-10.6268
▁contract	-10.6268
▁jump	-10.6269
hé	-10.6272
mat	-10.6273
cer	-10.6273
▁Her	-10.6279
▁birth	-10.628
▁café	-10.628
▁compliqué	-10.628
▁actuelle	-10.6281
▁Life	-10.6286
Le	-10.6289
oir	-10.629
▁although	-10.6316
▁zéro	-10.6316
▁sérieux	-10.6317
▁quick	-10.6321
rus	-10.6322
▁programs	-10.6326
▁visite	-10.6327
▁disaient	-10.6332
▁disc	-10.6337
ey	-10.6341
▁target	-10.6341
▁garçon	-10.6341
▁médicament	-10.6341
▁envoyer	-10.635
▁Instead	-10.6352
mar	-10.6356
▁dynamique	-10.6388
▁television	-10.6388
▁malgré	-10.639
ologist	-10.6399
▁étape	-10.6404
▁sand	-10.6406
▁remarquable	-10.6418
▁parfait	-10.6422
▁wild	-10.6424
▁Thomas	-10.6424
▁organizations	-10.6424
▁mouvements	-10.6426
▁Su	-10.643
▁Am	-10.6431
▁climat	-10.6431
▁sombre	-10.6433
▁inspired	-10.6434
log	-10.6441
▁difficiles	-10.6442
▁prêts	-10.6442
▁bu	-10.6444
▁Grand	-10.6454
▁supply	-10.6461
▁sick	-10.6461
▁laws	-10.6462
▁male	-10.6473
▁lutte	-10.6479
▁Ga	-10.6482
fu	-10.6485
▁vend	-10.6485
▁daughter	-10.649
▁straight	-10.6497
▁honor	-10.6497
▁populaire	-10.6497
▁expression	-10.6498
▁anyway	-10.6501
inter	-10.6506
▁explique	-10.6518
mes	-10.6524
▁plate	-10.6527
▁event	-10.6527
▁accord	-10.6529
▁applications	-10.6532
▁bou	-10.6533
▁pieds	-10.6533
▁microscope	-10.6534
▁summer	-10.6534
▁situations	-10.6534
ateurs	-10.6535
▁slightly	-10.6535
▁ten	-10.6536
▁ferme	-10.6536
▁complexité	-10.6536
▁broken	-10.6537
▁président	-10.6537
▁interact	-10.6549
▁Ah	-10.6555
▁rencontrer	-10.6557
▁augmente	-10.6557
▁hasard	-10.656
▁risques	-10.6563
▁destruction	-10.657
▁Boston	-10.657
▁agree	-10.6582
▁conversations	-10.6587
▁élevé	-10.6604
▁23	-10.6606
▁soutien	-10.6607
▁sequence	-10.6607
▁Street	-10.6607
▁principal	-10.6608
▁mariage	-10.6611
▁ball	-10.6611
▁couleurs	-10.6613
▁industrial	-10.6616
nch	-10.6619
▁wants	-10.6622
▁Cet	-10.6625
ssant	-10.6635
▁dying	-10.6636
▁nucléaire	-10.664
▁VIH	-10.6644
▁cortex	-10.6644
▁understood	-10.6644
▁smell	-10.6644
▁societies	-10.6644
▁compare	-10.6649
▁drôle	-10.6654
▁cerveaux	-10.6654
▁effects	-10.6656
▁étoiles	-10.6663
▁streets	-10.6666
▁donnent	-10.6673
▁passant	-10.6673
▁monter	-10.6677
▁tâche	-10.6679
▁puzzle	-10.6682
▁souviens	-10.6682
▁connaissez	-10.6682
▁stopped	-10.6683
▁Angeles	-10.6684
▁surprising	-10.6685
équipe	-10.6686
▁bat	-10.6691
▁Iran	-10.6694
▁comprend	-10.6695
▁cour	-10.67
▁violent	-10.6708
▁ship	-10.6708
▁chinois	-10.6716
▁scientist	-10.6717
▁possibly	-10.6719
▁électrique	-10.6719
▁task	-10.6722
ros	-10.6723
▁clé	-10.6724
▁directly	-10.6729
▁mou	-10.6729
▁nations	-10.6739
▁vast	-10.6743
▁aware	-10.6756
▁California	-10.6756
▁Martin	-10.6757
▁Second	-10.6763
▁savait	-10.6763
▁prochain	-10.6764
▁coûte	-10.6765
▁Fa	-10.677
▁élèves	-10.6772
▁passage	-10.6773
▁différences	-10.6773
▁tap	-10.6776
▁interaction	-10.6783
▁mélange	-10.6794
▁sector	-10.6794
▁mostly	-10.6794
▁posé	-10.6795
▁particules	-10.6799
▁22	-10.6801
▁anglais	-10.6802
Europe	-10.6808
▁organisation	-10.6809
▁ski	-10.6814
▁lecture	-10.6815
Uni	-10.6816
▁plane	-10.6817
▁experiments	-10.6817
▁Bu	-10.682
▁bouger	-10.6821
▁avoid	-10.6822
nom	-10.6823
▁75	-10.6823
▁Sp	-10.6827
▁Toutes	-10.6827
▁paid	-10.6833
▁tableau	-10.6835
▁obtenu	-10.6837
▁prenons	-10.6839
▁Great	-10.6839
▁grave	-10.6839
▁lieux	-10.6843
▁passait	-10.6845
Why	-10.6846
écran	-10.6847
lan	-10.6847
▁bank	-10.6849
▁arrivent	-10.6857
▁os	-10.6857
for	-10.6869
▁campaign	-10.687
utilise	-10.6871
▁2007	-10.6871
fer	-10.6873
▁compétences	-10.6876
▁rempli	-10.6883
of	-10.6884
▁engine	-10.689
▁relationships	-10.6893
▁US	-10.6893
▁helping	-10.6896
han	-10.69
▁parc	-10.69
ô	-10.69
lit	-10.6901
▁afford	-10.6906
▁YouTube	-10.6908
▁bridge	-10.6908
▁2009	-10.6909
▁sustainable	-10.6911
▁Ph	-10.6912
▁closer	-10.6912
▁connais	-10.6914
▁faisais	-10.6915
▁gagné	-10.6916
▁achieve	-10.6919
▁respond	-10.692
effet	-10.6922
attention	-10.6922
▁fiction	-10.6923
How	-10.6923
▁efficient	-10.6926
▁vendre	-10.6928
▁application	-10.6935
▁seuls	-10.6937
▁Pr	-10.6943
▁Depuis	-10.6946
▁Londres	-10.6946
▁studio	-10.6946
▁diversité	-10.6946
▁concentrer	-10.6957
tter	-10.6961
▁évident	-10.6977
▁appareil	-10.6979
ko	-10.6979
dge	-10.698
▁capacity	-10.6984
▁ac	-10.6985
tch	-10.6988
▁graphique	-10.6989
cré	-10.699
▁verre	-10.7002
ik	-10.7005
▁détails	-10.7008
▁capture	-10.701
ures	-10.7015
▁Mark	-10.7015
▁extreme	-10.7016
▁emotional	-10.7019
▁chien	-10.7044
▁speaking	-10.7057
▁tremendous	-10.7061
rate	-10.7063
▁apart	-10.7063
▁méthode	-10.7067
▁menace	-10.7068
▁marchés	-10.707
rent	-10.7071
▁meters	-10.7071
▁dad	-10.7075
impact	-10.7077
▁utile	-10.7081
▁seraient	-10.7084
ages	-10.7088
▁dizaines	-10.7089
éré	-10.7091
ric	-10.7092
▁struggle	-10.71
▁désert	-10.71
▁window	-10.7107
riez	-10.7107
▁nearly	-10.7109
▁chaud	-10.711
▁Good	-10.7112
org	-10.7117
sions	-10.7118
lée	-10.7118
▁ca	-10.7119
▁chercheurs	-10.712
▁chances	-10.7121
▁marque	-10.7123
▁impression	-10.7123
▁noticed	-10.7125
▁played	-10.7127
▁rural	-10.7128
▁significant	-10.7132
▁dedans	-10.7135
▁Per	-10.7139
▁responsibility	-10.7139
▁évolué	-10.7139
▁Paris	-10.7139
ze	-10.7143
▁gérer	-10.7143
▁marketing	-10.7144
▁Take	-10.7145
issant	-10.7146
▁naturelle	-10.7146
▁tombe	-10.7151
ther	-10.7151
▁mountain	-10.7152
▁Pensez	-10.7178
▁connaissons	-10.7178
▁character	-10.7178
▁explorer	-10.718
▁membre	-10.7186
▁clip	-10.7188
▁Island	-10.7195
net	-10.721
▁beings	-10.7211
▁publié	-10.7211
▁trans	-10.7215
▁touche	-10.7216
▁régime	-10.7217
▁commerce	-10.7218
▁earth	-10.7218
▁Vot	-10.7222
▁richesse	-10.7222
▁Adam	-10.7224
▁catch	-10.7228
omb	-10.7231
▁throw	-10.7237
▁boys	-10.7238
▁degrees	-10.724
▁sport	-10.7246
▁individus	-10.7252
▁networks	-10.7253
▁dense	-10.7255
▁easily	-10.7256
▁identity	-10.7256
▁twice	-10.7256
▁télévision	-10.7257
▁discover	-10.7259
aise	-10.7259
▁published	-10.7263
▁evolved	-10.7265
▁chemical	-10.7267
▁labor	-10.7268
▁instruments	-10.7268
ordre	-10.727
▁humaines	-10.7274
▁lever	-10.7293
▁bought	-10.7296
▁giant	-10.7296
▁classroom	-10.7296
▁musée	-10.7299
▁highly	-10.73
▁cou	-10.7302
▁blog	-10.7302
▁farm	-10.7304
▁émotions	-10.7312
▁entrepreneurs	-10.7313
▁drawing	-10.7316
ich	-10.7317
nant	-10.7321
▁Peter	-10.7326
▁port	-10.7328
▁molécules	-10.7332
▁surveillance	-10.7336
▁pensait	-10.7336
▁Art	-10.7344
vant	-10.7345
isée	-10.7346
▁prochaines	-10.7348
▁armes	-10.7351
▁rues	-10.7354
▁exact	-10.7355
▁differently	-10.736
▁bâtiments	-10.7363
ology	-10.7368
▁invention	-10.7371
▁regardons	-10.7381
table	-10.7383
▁plans	-10.7386
ability	-10.7392
It	-10.7396
ière	-10.74
▁worry	-10.7401
▁equal	-10.7408
▁river	-10.7413
▁cyber	-10.7416
▁carry	-10.7416
▁jardin	-10.7419
▁radical	-10.742
ging	-10.7425
▁core	-10.7426
▁Ni	-10.7429
▁hearing	-10.7432
utilisation	-10.7434
▁pont	-10.744
▁report	-10.7443
iers	-10.7445
▁expert	-10.7446
▁morale	-10.7449
▁quote	-10.7449
▁represent	-10.7452
arrêter	-10.7455
▁afraid	-10.7456
▁oxygen	-10.7456
▁lycée	-10.7456
▁talks	-10.7458
▁missing	-10.7464
▁prototype	-10.7471
▁answers	-10.7474
▁presse	-10.7475
berg	-10.7476
▁fossil	-10.7485
▁remind	-10.7485
▁courage	-10.7493
▁défis	-10.7495
▁piano	-10.7496
▁scene	-10.7496
▁members	-10.7497
▁froid	-10.7497
mère	-10.7497
▁1,000	-10.7498
▁Over	-10.75
▁tough	-10.7503
▁gap	-10.7504
▁trick	-10.7504
▁basis	-10.7504
▁muscle	-10.7512
asse	-10.7516
▁ancient	-10.7518
zi	-10.7521
▁éviter	-10.7528
▁Nigeria	-10.7528
atrice	-10.7531
▁habit	-10.7534
▁Californie	-10.7536
▁fascinating	-10.7536
▁cercle	-10.7537
▁stade	-10.7537
▁colère	-10.7537
Université	-10.7537
▁communiquer	-10.7544
▁fonctionnent	-10.7554
▁cloud	-10.756
tour	-10.7561
▁argue	-10.7561
▁sh	-10.7565
▁déchets	-10.7577
oxygène	-10.7577
▁civilization	-10.7578
ifs	-10.7578
▁devices	-10.7583
ified	-10.7588
▁connaître	-10.7591
▁directeur	-10.7594
att	-10.7609
rop	-10.7609
cha	-10.7613
▁mix	-10.7614
ification	-10.7615
▁diversity	-10.7619
▁knows	-10.7621
▁definition	-10.7623
▁fournir	-10.763
▁lignes	-10.7631
▁Pe	-10.7636
▁appelons	-10.7638
20	-10.7638
▁écouter	-10.764
▁Bar	-10.7642
sol	-10.7643
over	-10.7644
▁glass	-10.7651
▁porter	-10.7654
▁apprend	-10.7655
ack	-10.7656
rac	-10.7657
▁crowd	-10.7659
▁GPS	-10.7659
▁husband	-10.7659
▁background	-10.766
imaginer	-10.7664
▁toucher	-10.7667
▁Deux	-10.7674
▁maisons	-10.7674
▁amener	-10.768
antes	-10.7684
▁99	-10.7688
▁detect	-10.7689
▁hole	-10.7698
▁récompense	-10.77
▁Encore	-10.77
vé	-10.7701
▁studying	-10.7713
non	-10.7721
▁régions	-10.7721
▁seemed	-10.7724
▁commençons	-10.7741
▁surgery	-10.7741
▁conduire	-10.7742
▁island	-10.7742
▁statistiques	-10.7742
▁chant	-10.7745
▁markets	-10.7749
▁European	-10.7752
▁express	-10.7768
▁birds	-10.7776
▁option	-10.7779
▁fonds	-10.7779
▁Again	-10.7783
▁concert	-10.7783
▁occasion	-10.7783
▁flight	-10.7784
▁via	-10.7784
▁states	-10.7787
▁Nos	-10.7787
▁Gu	-10.779
▁fund	-10.7794
▁voient	-10.7794
▁reaction	-10.7798
▁pêche	-10.7799
êtes	-10.7801
van	-10.7802
▁Leur	-10.7802
én	-10.7804
▁sujets	-10.7806
▁biologique	-10.7806
hr	-10.7807
aw	-10.7809
▁ride	-10.7814
▁produced	-10.782
▁intense	-10.7825
▁invent	-10.7826
▁complexity	-10.7828
▁600	-10.7828
▁rid	-10.7828
▁auquel	-10.783
▁Da	-10.7835
onde	-10.7839
▁preuves	-10.7841
▁rêves	-10.7844
source	-10.7844
▁serve	-10.7845
▁More	-10.7848
▁neighborhood	-10.7849
▁benefit	-10.7849
▁enseignants	-10.7849
oli	-10.785
▁derniers	-10.785
▁Li	-10.7853
▁planets	-10.7853
▁lack	-10.7854
▁apporter	-10.7856
▁Ed	-10.786
équivalent	-10.7866
▁travaillons	-10.7866
▁invest	-10.7867
▁tiers	-10.7869
▁0	-10.787
▁10,000	-10.7874
tz	-10.7885
▁possibilités	-10.7893
▁adultes	-10.7895
été	-10.7905
▁coffee	-10.7908
▁considère	-10.7908
▁1990	-10.7909
▁consciousness	-10.7909
▁déplacer	-10.7911
▁rat	-10.7922
▁Américains	-10.7922
née	-10.7929
intelligence	-10.7931
▁card	-10.7933
▁focused	-10.7934
▁fully	-10.7938
▁motor	-10.7939
exp	-10.7941
▁décennies	-10.7943
vert	-10.7945
▁profonde	-10.7948
▁Brésil	-10.7951
▁strength	-10.7951
▁invité	-10.7951
▁quasi	-10.7951
▁gotten	-10.7951
▁forever	-10.7952
▁sold	-10.796
▁passed	-10.7961
▁privée	-10.7964
▁Ar	-10.7981
▁guide	-10.7982
▁dessous	-10.7983
▁avion	-10.7985
▁eating	-10.7989
▁texte	-10.7989
▁molecules	-10.7992
▁croyez	-10.7993
▁civilisation	-10.7994
▁weird	-10.7995
▁reward	-10.7996
▁avis	-10.7998
▁interface	-10.8001
▁rev	-10.8015
▁spot	-10.8017
▁knowing	-10.8018
▁spécial	-10.8019
▁planètes	-10.8027
▁chacune	-10.8028
▁virtual	-10.8029
well	-10.803
▁étudiant	-10.8032
▁Har	-10.8034
▁Parfois	-10.8036
▁schéma	-10.8036
▁Japon	-10.8036
▁organisations	-10.8037
▁dangereux	-10.8037
▁Nations	-10.8038
based	-10.8043
▁See	-10.8046
▁maths	-10.8046
kin	-10.8053
▁puisque	-10.8055
▁ouverte	-10.8057
▁continu	-10.8057
ook	-10.8061
▁merveilleuse	-10.8067
▁sortie	-10.8075
▁hidden	-10.8078
▁Avant	-10.8085
▁chimiques	-10.8085
▁iPhone	-10.8088
▁garçons	-10.8091
▁led	-10.8091
▁k	-10.8096
ris	-10.8099
▁tissu	-10.8101
▁desire	-10.8103
▁Park	-10.8103
▁mé	-10.8109
▁honest	-10.8115
▁décider	-10.8116
▁mauvaises	-10.812
▁Science	-10.8121
▁opposite	-10.8121
▁dirige	-10.8125
▁spending	-10.8128
▁sharing	-10.8129
▁vaste	-10.8134
ick	-10.8135
▁Ab	-10.8137
▁Mar	-10.8137
▁bouche	-10.8138
▁retourner	-10.8143
▁somme	-10.8145
▁Iraq	-10.8148
rew	-10.8152
▁experiences	-10.8153
▁origin	-10.8157
▁zoom	-10.8159
▁mange	-10.8161
isés	-10.8163
▁Lo	-10.8163
▁museum	-10.8164
▁section	-10.8165
▁auraient	-10.8167
▁objectif	-10.8171
▁devenus	-10.8171
lement	-10.8172
▁uses	-10.8182
▁joy	-10.8185
▁King	-10.8188
lie	-10.8189
sum	-10.8195
▁relative	-10.8195
Ma	-10.8195
▁conflit	-10.8203
▁dreams	-10.8204
▁airplane	-10.8208
▁easier	-10.8208
▁opportunities	-10.8208
▁negative	-10.8208
▁moindre	-10.8208
▁crash	-10.8208
▁acheté	-10.8208
▁jambes	-10.8209
▁argent	-10.8209
▁interview	-10.8216
▁envie	-10.8225
▁informatique	-10.8226
▁Ru	-10.8238
▁possibility	-10.8251
▁disparu	-10.8251
▁location	-10.8251
▁Center	-10.8252
▁deliver	-10.8258
▁garde	-10.8263
▁fallu	-10.8268
ets	-10.827
▁rire	-10.8272
▁party	-10.8285
▁différemment	-10.8295
▁abeilles	-10.8295
▁scanner	-10.8295
▁flux	-10.8296
▁vaccin	-10.83
▁tax	-10.8301
▁concepts	-10.8301
ix	-10.8303
▁differences	-10.8303
▁turning	-10.8317
▁raised	-10.8317
my	-10.8319
▁labo	-10.8322
▁créatures	-10.8323
▁senti	-10.8331
▁similaire	-10.8331
▁montagne	-10.8331
▁moon	-10.8334
▁paint	-10.8335
▁Mr	-10.8338
▁traffic	-10.8338
▁miracle	-10.8339
▁crack	-10.8339
igne	-10.8343
▁criminal	-10.8346
▁despite	-10.835
▁separate	-10.8367
▁pur	-10.8368
▁fe	-10.8369
▁band	-10.8371
ana	-10.8371
▁creatures	-10.8373
▁concern	-10.8377
▁basé	-10.8382
▁combinaison	-10.8383
▁gender	-10.8383
▁malaria	-10.8383
▁produisent	-10.8386
▁vin	-10.8387
ques	-10.8389
▁parfaitement	-10.8389
ank	-10.839
avi	-10.8391
istic	-10.8395
ami	-10.8396
▁describe	-10.8402
▁sad	-10.8406
▁Asia	-10.8414
▁consiste	-10.8417
ically	-10.8418
▁random	-10.842
ual	-10.8422
▁sable	-10.8422
▁Brazil	-10.8425
▁Middle	-10.8427
▁simulation	-10.8427
▁venait	-10.8427
▁British	-10.8427
▁étiez	-10.8427
▁regret	-10.8427
organisation	-10.8429
▁perte	-10.843
▁ultimately	-10.8431
▁concernant	-10.8432
▁trial	-10.8436
▁fair	-10.844
▁shares	-10.8442
▁demandez	-10.8449
▁invite	-10.8451
uf	-10.8453
atmosphère	-10.8454
▁master	-10.8455
▁couche	-10.8459
▁alimentaire	-10.8467
▁stratégie	-10.8467
▁radiation	-10.8471
▁Sun	-10.8472
▁connaissent	-10.8473
▁refer	-10.8474
▁stem	-10.8476
▁farmers	-10.8476
▁proches	-10.8476
▁niveaux	-10.8478
▁mille	-10.8479
ste	-10.8481
▁held	-10.8483
▁propose	-10.8483
▁principes	-10.8489
issent	-10.8497
hôpital	-10.8499
▁garden	-10.8502
▁plat	-10.8505
▁pile	-10.8506
▁pauvre	-10.8513
▁titre	-10.8513
▁feels	-10.8515
▁command	-10.8515
▁phenomenon	-10.8516
▁religious	-10.8516
▁proud	-10.8518
ssent	-10.852
▁lucky	-10.852
▁villages	-10.852
▁nationale	-10.8522
cut	-10.8525
▁noise	-10.8527
▁ressentir	-10.8529
▁ressemblent	-10.8539
▁américains	-10.8542
▁cheap	-10.855
qué	-10.855
▁suffisamment	-10.8561
▁claim	-10.8561
▁yellow	-10.8561
▁platform	-10.8561
▁mouth	-10.8572
▁Sel	-10.8575
rrow	-10.8576
▁tester	-10.8579
▁soul	-10.8579
▁organismes	-10.8581
▁règle	-10.8595
▁stream	-10.8596
nne	-10.8599
hu	-10.8599
▁observe	-10.8605
▁Actually	-10.8606
▁devriez	-10.8606
▁Congo	-10.8606
▁none	-10.8606
▁feedback	-10.8606
▁club	-10.861
▁fashion	-10.8613
▁besoins	-10.8615
▁espaces	-10.8615
▁27	-10.8618
▁painting	-10.8621
▁benefits	-10.8625
▁oiseaux	-10.8625
▁cherche	-10.8626
▁manage	-10.8628
▁grosse	-10.863
▁allés	-10.8631
armée	-10.8635
▁survie	-10.8635
▁fabriqué	-10.8642
▁populations	-10.8642
▁loss	-10.8648
▁parking	-10.865
▁advantage	-10.8651
▁bottle	-10.8651
▁competition	-10.8651
▁vélo	-10.8651
▁Valley	-10.8651
▁circuit	-10.8657
▁parole	-10.8658
▁privé	-10.8658
▁survivre	-10.866
▁aiment	-10.8663
▁davantage	-10.867
▁entirely	-10.8675
informations	-10.868
étude	-10.8685
In	-10.8688
▁Th	-10.8696
▁rentrer	-10.8696
▁identify	-10.8697
▁metaphor	-10.8697
▁chaleur	-10.8697
▁golf	-10.8697
▁brother	-10.8698
▁responsable	-10.8698
▁considérer	-10.87
▁PM	-10.8701
oire	-10.8701
iel	-10.8703
▁suffering	-10.8706
▁inspiration	-10.8709
cho	-10.8712
▁tourne	-10.8713
ç	-10.8714
▁pan	-10.8715
▁mentale	-10.8716
▁click	-10.8719
▁noirs	-10.872
▁institution	-10.8723
▁particulière	-10.8728
▁Com	-10.8735
ney	-10.8739
day	-10.8739
▁arrivée	-10.8739
▁Green	-10.8742
▁conseil	-10.8744
▁chiffre	-10.8744
▁lie	-10.8748
▁Amazon	-10.8751
bar	-10.8753
dimensional	-10.8766
▁flag	-10.8773
▁switch	-10.8777
▁lesson	-10.8785
0	-10.8785
▁vaut	-10.8786
éro	-10.8788
▁Have	-10.8788
▁convaincre	-10.8788
▁Royaume	-10.8788
▁coast	-10.8788
▁However	-10.8791
▁instinct	-10.8795
▁reconnaître	-10.8796
▁victimes	-10.8798
▁desert	-10.8803
▁calls	-10.8814
▁dimension	-10.8822
▁emotions	-10.8824
▁II	-10.8827
▁ressembler	-10.8828
▁importantly	-10.883
▁Wi	-10.8833
▁normale	-10.8833
▁Japan	-10.8834
▁stuck	-10.8834
▁damage	-10.8834
▁1980	-10.8835
▁fier	-10.8836
▁poem	-10.8836
▁era	-10.8836
ule	-10.8837
▁tonnes	-10.8837
▁marine	-10.8838
▁inspiré	-10.8838
▁rappeler	-10.884
▁Obama	-10.8841
▁dirait	-10.8848
▁attendre	-10.8849
▁foreign	-10.885
▁sociales	-10.8851
▁deeply	-10.8853
▁leading	-10.8862
accès	-10.8865
This	-10.8865
▁possède	-10.8875
▁finish	-10.8875
▁cave	-10.8875
▁articles	-10.8876
▁retrouver	-10.8877
▁boulot	-10.8881
▁participer	-10.8886
▁motion	-10.8897
▁attempt	-10.89
▁dirais	-10.8907
▁aidé	-10.8908
▁beat	-10.891
▁laser	-10.8915
▁artists	-10.8921
▁fasse	-10.8922
▁universal	-10.8925
▁multiple	-10.8925
▁résolu	-10.8926
▁proportion	-10.8927
▁breast	-10.8927
▁convaincu	-10.8927
▁marriage	-10.8927
▁mécanique	-10.8927
▁voulions	-10.8927
▁obtenez	-10.8928
▁creation	-10.8928
▁planning	-10.8929
aurait	-10.8933
▁poche	-10.8934
▁gun	-10.8945
▁promise	-10.8954
▁muscles	-10.8955
▁opened	-10.8956
▁climb	-10.8959
avec	-10.8959
▁capacités	-10.8963
▁actuel	-10.8964
▁School	-10.8974
▁trillion	-10.8974
▁Sometimes	-10.8974
▁bubble	-10.8974
▁parlait	-10.8974
▁bright	-10.8974
▁blanche	-10.8975
▁jaune	-10.8975
▁everyday	-10.8977
▁honte	-10.8977
▁smile	-10.8978
▁mène	-10.898
▁debate	-10.898
▁bird	-10.8982
▁connections	-10.8982
▁Once	-10.8988
▁sommeil	-10.8989
▁Air	-10.899
▁tension	-10.8995
▁perform	-10.9001
▁téléphones	-10.9002
▁réelle	-10.9005
▁joué	-10.9007
▁bone	-10.901
▁classes	-10.9012
▁puissante	-10.9019
▁bouteille	-10.9021
▁Frank	-10.9021
▁réduit	-10.9021
▁morceaux	-10.9023
▁pluie	-10.9026
▁principalement	-10.9027
▁fi	-10.9033
▁lettres	-10.9049
ire	-10.905
▁fighting	-10.9052
▁élément	-10.9053
égalité	-10.9053
▁domaines	-10.906
▁na	-10.9061
▁émissions	-10.9064
▁scan	-10.9067
▁brilliant	-10.9068
▁volonté	-10.9068
▁globe	-10.9068
▁mettent	-10.9074
▁fairly	-10.9075
▁pollen	-10.9075
▁déterminer	-10.9075
▁connexion	-10.9078
▁frère	-10.9078
▁Will	-10.9079
▁importants	-10.9083
▁cure	-10.9085
▁creates	-10.9091
▁hell	-10.9096
▁queue	-10.9099
opportunité	-10.9101
intérêt	-10.9101
avions	-10.9101
▁fail	-10.9109
alité	-10.9114
▁bientôt	-10.9115
▁responsible	-10.9115
▁fresh	-10.9115
▁transparent	-10.9116
▁childhood	-10.9116
▁university	-10.9117
▁artistes	-10.9126
▁failed	-10.9126
▁prove	-10.913
▁grade	-10.9142
▁carré	-10.9142
work	-10.9147
▁limite	-10.9147
▁French	-10.9163
▁Microsoft	-10.9163
▁necessarily	-10.9163
▁vouloir	-10.9163
▁conservation	-10.9163
▁peinture	-10.9165
▁talent	-10.9166
▁forêts	-10.9167
▁insectes	-10.9168
▁allée	-10.9172
▁chart	-10.9177
▁semblent	-10.9185
▁compared	-10.9192
▁250	-10.9194
▁décrire	-10.9202
▁Did	-10.9208
▁necessary	-10.9211
▁strategy	-10.9211
▁studied	-10.9211
▁disaster	-10.9211
▁curve	-10.9211
▁magie	-10.9216
▁plaît	-10.9217
▁offer	-10.9222
▁particles	-10.9222
▁leçon	-10.9224
▁discovery	-10.9224
▁bleue	-10.9227
▁employés	-10.9233
ker	-10.9248
▁holding	-10.9254
▁bond	-10.9258
ingénierie	-10.9259
▁dialogue	-10.9259
▁financière	-10.9259
▁référence	-10.9259
▁mettez	-10.9259
▁entend	-10.926
▁elements	-10.926
▁assume	-10.9264
▁tape	-10.9271
▁belong	-10.9271
▁Grande	-10.9273
▁sculpture	-10.9274
▁edge	-10.9274
▁Sch	-10.9274
▁incroyables	-10.9274
▁héros	-10.9275
ât	-10.9281
▁figured	-10.9281
▁augmenter	-10.9304
▁acte	-10.9305
▁bear	-10.9305
▁hurt	-10.9307
▁sorry	-10.9307
▁concentration	-10.931
▁lunch	-10.9312
▁liens	-10.9314
▁tels	-10.9314
▁frais	-10.9318
▁conflits	-10.9318
ably	-10.9328
▁pounds	-10.9331
▁nourrir	-10.9334
▁documents	-10.9334
▁operate	-10.9335
▁events	-10.9335
arrête	-10.9347
écriture	-10.9349
▁connaissances	-10.9349
nna	-10.9353
▁précisément	-10.9356
▁meurent	-10.9356
▁link	-10.9356
▁polio	-10.9357
▁patent	-10.9359
▁interactions	-10.9359
mine	-10.9363
▁clinic	-10.9365
▁el	-10.9366
▁représentent	-10.9369
▁independent	-10.9373
▁personnelle	-10.9377
gt	-10.9378
▁enter	-10.9378
▁letter	-10.9378
▁tail	-10.9384
▁hate	-10.9387
▁phones	-10.9389
▁soin	-10.9391
▁inform	-10.94
▁tort	-10.9402
▁matters	-10.9404
▁exploit	-10.9404
▁Mexico	-10.9404
▁contient	-10.9404
▁professor	-10.9404
▁recevoir	-10.9405
▁revient	-10.9405
▁quitté	-10.9405
▁mouse	-10.9408
▁crucial	-10.941
▁implications	-10.9411
▁souhait	-10.9413
▁foi	-10.9427
▁options	-10.9428
Do	-10.9429
andis	-10.9439
▁viol	-10.9441
▁opinion	-10.9444
▁sexual	-10.9445
▁agir	-10.9446
▁comportements	-10.9446
za	-10.945
▁epidemic	-10.9453
▁suggère	-10.9453
▁faim	-10.9453
▁1960	-10.9454
▁battre	-10.9454
▁Pourtant	-10.9456
▁Ex	-10.9462
▁éc	-10.9465
▁professeurs	-10.9465
iller	-10.9472
▁wear	-10.9475
▁extrait	-10.9478
ory	-10.9479
▁trouvez	-10.9481
▁vendu	-10.9482
étend	-10.9484
cou	-10.9487
approche	-10.949
agriculture	-10.949
Vous	-10.9493
▁absorb	-10.9499
▁cents	-10.9499
ose	-10.95
▁diagnostic	-10.9503
▁newspaper	-10.9503
▁gift	-10.9503
▁2011	-10.9505
▁siège	-10.9506
ov	-10.9507
ult	-10.9507
▁fabrication	-10.9509
▁quitter	-10.9514
▁agriculture	-10.9515
érer	-10.9517
▁Quelqu	-10.9519
▁suffit	-10.952
▁pal	-10.952
▁tens	-10.9525
lot	-10.9526
▁lettre	-10.9529
▁venant	-10.953
▁generate	-10.9537
▁intérêt	-10.9537
▁verte	-10.9539
▁degree	-10.9539
▁pointe	-10.954
▁faith	-10.9544
écri	-10.9546
▁visuel	-10.9547
▁engagement	-10.9548
â	-10.9548
ek	-10.9551
▁Ghana	-10.9552
▁Public	-10.9552
▁locaux	-10.9552
▁tumeur	-10.9552
▁triste	-10.9553
▁erreur	-10.9557
▁poll	-10.9559
▁walls	-10.9563
▁créent	-10.9567
▁businesses	-10.9573
▁ferait	-10.9576
étique	-10.9577
cation	-10.9581
▁mention	-10.9584
▁foundation	-10.9585
emploi	-10.959
▁leaving	-10.9594
▁organisms	-10.9595
▁murs	-10.9595
▁profound	-10.9596
▁créée	-10.9596
▁appareils	-10.9598
cop	-10.96
▁Certaine	-10.9602
▁exercise	-10.9602
▁mathematical	-10.9602
▁mathematics	-10.9602
▁goût	-10.9602
▁dispositif	-10.9602
▁paysage	-10.9603
▁release	-10.9603
▁devrais	-10.9603
▁productive	-10.9605
▁theater	-10.9607
▁parlant	-10.9615
▁mener	-10.9618
▁managed	-10.9619
ung	-10.9623
▁profondeur	-10.9636
nov	-10.9636
▁plante	-10.9638
▁Human	-10.9641
▁tire	-10.9642
▁sudden	-10.9646
▁spirit	-10.9651
▁narrative	-10.9652
▁consequences	-10.9652
▁comprennent	-10.9653
Est	-10.9657
▁mené	-10.9657
▁historique	-10.9659
▁réussite	-10.9666
▁sister	-10.9666
▁tir	-10.9666
▁brings	-10.9668
▁préféré	-10.9668
ero	-10.9672
If	-10.9674
▁score	-10.9676
▁addition	-10.9682
▁traverser	-10.9685
▁Ko	-10.9685
▁watched	-10.9685
▁due	-10.9688
range	-10.9688
▁unit	-10.9695
▁emp	-10.9695
▁row	-10.9696
▁complet	-10.97
▁aperçu	-10.9702
▁chaos	-10.9702
▁mortalité	-10.9703
▁grain	-10.9707
▁adults	-10.9708
▁appear	-10.9715
▁intelligents	-10.9718
▁versus	-10.972
▁générale	-10.9721
▁passée	-10.9728
▁souvenir	-10.9728
▁limited	-10.9729
▁grown	-10.9729
▁wood	-10.9732
▁mail	-10.9734
nelle	-10.9735
▁fat	-10.9736
glo	-10.9741
▁amusant	-10.9743
▁lights	-10.9744
▁saving	-10.9745
▁Jo	-10.9748
▁poster	-10.9749
▁caught	-10.9753
▁Institute	-10.9753
lam	-10.9754
▁chute	-10.9755
▁majority	-10.9756
▁protest	-10.9759
▁management	-10.976
▁engineers	-10.9761
▁weapons	-10.9764
▁civile	-10.9769
lla	-10.9769
▁cardiaque	-10.978
▁topic	-10.9787
▁gra	-10.9787
▁frontières	-10.9791
exemple	-10.9793
▁related	-10.9793
▁telles	-10.9797
▁musical	-10.9799
▁president	-10.9803
▁Higgs	-10.9803
▁Stanford	-10.9803
▁sympa	-10.9803
▁display	-10.9804
▁typical	-10.9805
▁changent	-10.981
▁affaire	-10.9812
gie	-10.9812
tting	-10.9813
▁basée	-10.9814
▁permanent	-10.9816
▁serre	-10.9818
▁Fe	-10.9819
▁internationale	-10.9824
▁allaient	-10.9832
▁prop	-10.9833
▁leads	-10.9836
▁combine	-10.9837
▁drink	-10.984
expression	-10.9844
▁65	-10.9845
▁observé	-10.9849
▁session	-10.985
▁Manhattan	-10.9854
▁finished	-10.9867
▁hyper	-10.9871
▁billions	-10.9875
ham	-10.9877
▁followed	-10.9883
▁fenêtre	-10.9884
▁client	-10.9884
▁réussir	-10.9891
▁efficaces	-10.9892
▁sain	-10.9892
▁wearing	-10.9895
▁layer	-10.9896
▁concerned	-10.9898
▁identité	-10.9899
▁novel	-10.9907
ssons	-10.9911
▁apprennent	-10.9911
▁travailleurs	-10.9914
▁trained	-10.9925
▁ab	-10.9928
meter	-10.9929
rich	-10.993
▁sentence	-10.9936
▁amène	-10.9938
▁fondation	-10.9942
ites	-10.9946
▁oceans	-10.9953
▁Texas	-10.9957
▁kilometers	-10.9957
▁présence	-10.9957
▁réflexion	-10.9957
▁énormément	-10.9957
▁bataille	-10.9957
▁dépression	-10.9958
▁debout	-10.9958
▁découvertes	-10.9958
▁insects	-10.9959
▁unfortunately	-10.9959
▁parfaite	-10.9959
▁travaillant	-10.996
▁detail	-10.996
▁rose	-10.9962
▁géant	-10.9963
▁visuelle	-10.9963
▁appeler	-10.9965
▁reform	-10.9965
▁bees	-10.9965
ough	-10.9966
▁généralement	-10.9966
▁Apple	-10.9973
▁ring	-10.9975
▁disais	-10.9975
appelait	-10.9976
▁Mc	-10.998
▁coral	-10.999
so	-10.9996
▁sum	-11.0002
▁ideal	-11.0004
▁May	-11.0009
▁métaphore	-11.0009
▁dinner	-11.0009
▁signaux	-11.0011
▁warm	-11.0011
▁principles	-11.0012
▁launch	-11.0013
▁Joe	-11.0013
▁Very	-11.0021
▁shop	-11.0022
pin	-11.0024
▁closed	-11.0025
▁described	-11.0028
attend	-11.0028
▁soldats	-11.0042
▁fruit	-11.0043
▁thé	-11.0047
▁économiques	-11.005
▁cible	-11.0054
▁believed	-11.0059
▁engagé	-11.0061
▁description	-11.0061
▁odd	-11.0062
▁contribution	-11.0062
▁Bush	-11.0063
▁pourra	-11.0065
▁ga	-11.0067
▁bouge	-11.0073
▁connue	-11.0074
▁Rien	-11.0074
▁stupid	-11.0076
80	-11.0077
▁durée	-11.0077
▁mid	-11.0077
▁utilisée	-11.0081
▁counter	-11.0082
▁animation	-11.0083
▁Tr	-11.0091
▁drogue	-11.0096
▁propriété	-11.0096
.000	-11.0097
▁32	-11.0102
▁sélection	-11.011
▁bl	-11.0112
efficacité	-11.0114
▁constamment	-11.0114
▁married	-11.0114
▁caractère	-11.0114
▁bread	-11.0114
▁courte	-11.0114
▁otherwise	-11.0115
▁participants	-11.0116
▁horse	-11.0116
▁constantly	-11.012
▁Bang	-11.0123
intéresse	-11.0124
▁sert	-11.0124
top	-11.0125
▁toit	-11.0125
▁publicité	-11.0127
nez	-11.0127
▁disponibles	-11.0128
▁received	-11.0129
▁copy	-11.0133
nny	-11.0136
▁wide	-11.0138
▁lance	-11.0142
naire	-11.0146
▁circle	-11.015
▁clinique	-11.015
▁ballon	-11.0152
▁fera	-11.0155
▁clinical	-11.0156
obtenir	-11.0158
rat	-11.0164
▁mirror	-11.0166
▁wisdom	-11.0166
▁frame	-11.0166
▁arabe	-11.0167
▁partner	-11.0168
▁tent	-11.0168
▁pause	-11.0169
▁electric	-11.0173
▁doigts	-11.0174
▁jouent	-11.0178
▁Bob	-11.0179
▁slowly	-11.018
▁constant	-11.0181
▁souhaite	-11.0187
▁aviez	-11.0197
▁mi	-11.0203
▁disponible	-11.0204
▁angle	-11.0205
ify	-11.0207
avion	-11.021
▁fascinant	-11.0211
▁Ver	-11.0211
▁manières	-11.0215
nés	-11.0215
▁fourmis	-11.0218
▁fragile	-11.0219
▁septembre	-11.0219
▁suicide	-11.0219
▁joie	-11.0219
▁dirigeants	-11.022
▁Gates	-11.022
▁Nobel	-11.022
▁participation	-11.0221
▁poste	-11.0222
▁author	-11.0226
▁continué	-11.0227
▁Lab	-11.0228
ville	-11.0228
▁fell	-11.0229
▁seriously	-11.0232
jo	-11.0233
▁portables	-11.0235
▁sûrement	-11.0236
▁invited	-11.0238
▁insist	-11.0239
▁Arab	-11.024
▁depression	-11.0245
▁facteurs	-11.025
▁stupide	-11.0257
▁arrivés	-11.0258
▁disappear	-11.0261
ica	-11.0263
lant	-11.0271
▁artificial	-11.0272
▁spectacle	-11.0272
▁Moyen	-11.0272
▁neuroscience	-11.0272
▁Prenez	-11.0272
▁toxic	-11.0272
▁utilisés	-11.0273
▁exchange	-11.0273
▁curious	-11.0273
▁fellow	-11.0273
▁grippe	-11.0278
▁intervention	-11.028
▁tombé	-11.0282
▁heads	-11.0283
▁coll	-11.0286
don	-11.0287
▁principale	-11.0288
▁Super	-11.0297
▁Mac	-11.0309
▁dress	-11.031
▁secrets	-11.0311
auteur	-11.0313
▁arbre	-11.0316
▁harm	-11.0317
erie	-11.0321
pu	-11.0324
▁bag	-11.0324
▁Audience	-11.0326
▁trouvons	-11.0326
▁confirm	-11.0326
▁honnête	-11.0327
▁safety	-11.0328
▁limb	-11.0328
▁highest	-11.033
▁eau	-11.0331
ok	-11.0337
▁adapt	-11.0338
▁wave	-11.034
▁perfectly	-11.0342
▁implant	-11.0348
▁amie	-11.0348
▁bill	-11.0354
can	-11.0355
▁threat	-11.036
▁Star	-11.0364
▁protein	-11.0368
▁dynamic	-11.0368
▁bande	-11.0369
▁réfléchi	-11.0374
▁heureuse	-11.0377
▁citation	-11.038
▁survival	-11.0382
▁aient	-11.0383
▁coté	-11.0384
▁Rio	-11.0388
tech	-11.0389
▁metal	-11.0394
▁myth	-11.0395
▁trace	-11.0395
▁Ber	-11.0397
▁habitat	-11.04
▁round	-11.0402
▁majeure	-11.0406
▁signe	-11.0409
▁devaient	-11.0411
objet	-11.0417
▁Peu	-11.0421
▁soldiers	-11.0423
▁banque	-11.0424
▁spaces	-11.0425
▁arms	-11.0426
▁suggests	-11.0431
▁nommé	-11.0432
▁occur	-11.0433
▁démonstration	-11.0434
▁pouviez	-11.0434
▁wake	-11.0434
▁rational	-11.0434
▁1950	-11.0435
▁colors	-11.0435
isant	-11.0435
▁Wa	-11.0436
▁opportunité	-11.0438
▁Does	-11.0439
▁launched	-11.0445
▁terminer	-11.0453
Y	-11.0455
▁fold	-11.0455
▁considered	-11.0459
▁Jim	-11.0459
enne	-11.0462
▁regardent	-11.0467
▁belief	-11.0479
▁ajouter	-11.0479
30	-11.048
▁resource	-11.0482
▁surprised	-11.0484
▁matériau	-11.0487
▁Malheureusement	-11.0488
▁Central	-11.0488
▁protégé	-11.0488
▁venez	-11.0488
▁operating	-11.0488
▁hide	-11.0489
▁statistics	-11.05
▁offre	-11.0501
▁Sea	-11.0507
▁surpris	-11.0507
▁da	-11.051
▁séparé	-11.0511
arrière	-11.0511
▁stable	-11.0512
▁print	-11.0512
part	-11.0512
▁Sal	-11.0513
▁ph	-11.0514
▁accepté	-11.0514
▁générations	-11.0519
▁writer	-11.0519
▁helps	-11.0524
▁receive	-11.0527
▁pilot	-11.0527
▁doigt	-11.0535
▁remote	-11.0537
▁spoke	-11.0538
▁foie	-11.0541
▁Wikipedia	-11.0543
▁worried	-11.0543
▁Rwanda	-11.0543
▁handicap	-11.0543
▁Quelques	-11.0544
▁tient	-11.0548
▁1000	-11.0549
▁gang	-11.055
▁objectifs	-11.0558
▁mark	-11.0563
▁balle	-11.0564
ori	-11.0564
▁adult	-11.0568
▁normally	-11.057
▁erreurs	-11.0575
arriver	-11.058
▁graduate	-11.0582
▁testing	-11.0582
▁robotic	-11.0583
▁Australia	-11.0586
▁sac	-11.0589
▁satellites	-11.0591
▁puce	-11.0591
▁engineer	-11.0593
▁malade	-11.0594
▁dry	-11.0594
▁official	-11.0598
▁1970	-11.0598
▁soutenir	-11.0598
cus	-11.0598
▁malheureusement	-11.0598
û	-11.06
▁emploi	-11.0602
▁factory	-11.061
▁mentioned	-11.061
▁lifetime	-11.061
▁pair	-11.0614
▁échange	-11.0616
▁paying	-11.0618
ène	-11.0623
▁amour	-11.0624
▁Che	-11.0631
▁centrale	-11.0636
▁toward	-11.0636
▁avancer	-11.0637
▁portée	-11.0638
plan	-11.064
▁define	-11.064
▁protéines	-11.0643
uel	-11.0645
▁feuille	-11.0648
▁innovations	-11.0651
▁battle	-11.0653
▁représentation	-11.0653
▁semblait	-11.0653
▁magique	-11.0653
rions	-11.0653
▁toilettes	-11.0653
▁résolution	-11.0653
▁Celui	-11.0655
▁survey	-11.0655
▁error	-11.0655
▁salaire	-11.0655
▁perd	-11.0656
▁daily	-11.0657
▁wheel	-11.0664
▁currently	-11.0665
▁initiative	-11.0665
hal	-11.0666
▁shoes	-11.0668
▁hall	-11.067
ologue	-11.068
▁folks	-11.0682
▁recul	-11.0682
▁commune	-11.0686
▁intéressé	-11.0688
▁TEDx	-11.0693
▁conférences	-11.0696
▁transformé	-11.07
▁repas	-11.0704
▁augmenté	-11.0705
▁roof	-11.0708
▁compétition	-11.0708
▁sandwich	-11.0708
▁gestion	-11.0708
▁finger	-11.0709
▁healthcare	-11.0709
▁thème	-11.0709
▁polar	-11.0709
▁proposition	-11.071
▁quantum	-11.071
▁forced	-11.0712
▁mentor	-11.0715
▁fill	-11.0719
ième	-11.0729
▁vieille	-11.0731
Qu	-11.0732
fo	-11.0734
▁pen	-11.0742
▁Israel	-11.0743
▁orbit	-11.0745
▁harder	-11.0749
▁prime	-11.0749
▁photographie	-11.075
▁organic	-11.0755
▁names	-11.0756
▁activité	-11.0758
▁autism	-11.0761
▁technologique	-11.0761
▁principle	-11.0761
▁télescope	-11.0764
▁Brown	-11.0764
▁probabilité	-11.0764
▁Everybody	-11.0764
▁football	-11.0764
▁member	-11.0765
▁analysis	-11.0765
▁nervous	-11.0765
▁bias	-11.0766
▁passionate	-11.0767
Hey	-11.0767
assurer	-11.0768
▁réunion	-11.0769
▁automobile	-11.0774
▁fondamentale	-11.0776
▁Would	-11.0777
yez	-11.0778
ulation	-11.0778
▁avance	-11.0779
▁couverture	-11.0782
▁nulle	-11.0783
▁Juste	-11.0783
▁begins	-11.0788
▁surprenant	-11.0791
ieux	-11.0797
head	-11.0798
▁advance	-11.0805
▁sports	-11.0806
▁responsables	-11.0819
▁solid	-11.082
▁International	-11.082
▁personnalité	-11.082
▁Three	-11.082
▁chaise	-11.0821
▁hasn	-11.0822
▁2006	-11.0823
▁march	-11.0823
▁fla	-11.0828
▁orange	-11.083
▁researchers	-11.083
▁Ge	-11.0836
▁Steven	-11.0836
▁flat	-11.0841
▁usage	-11.0852
▁existent	-11.0854
▁tube	-11.0863
▁al	-11.0865
11	-11.0866
▁diet	-11.0873
▁steps	-11.0874
arbre	-11.0874
▁GDP	-11.0877
▁Mexique	-11.0877
▁poésie	-11.0877
▁Could	-11.0877
▁prévu	-11.0877
▁Smith	-11.0877
▁correctement	-11.0878
▁flash	-11.0878
ali	-11.0879
▁légèrement	-11.088
▁associated	-11.0881
▁meat	-11.0882
▁increasingly	-11.0882
▁DH	-11.0885
▁whom	-11.0887
▁inner	-11.0888
▁kit	-11.089
ima	-11.089
▁nécessaires	-11.0892
▁formé	-11.0895
▁Ki	-11.0903
ssez	-11.0904
▁killing	-11.0911
▁vertical	-11.0914
▁nano	-11.0915
▁pousse	-11.0916
▁symbol	-11.092
scale	-11.0922
pre	-11.0922
oubli	-11.0924
mate	-11.0927
▁cartoon	-11.0929
▁analyse	-11.0931
bus	-11.0931
▁faces	-11.0932
▁England	-11.0934
▁PIB	-11.0934
▁fausse	-11.0934
▁laptop	-11.0934
▁pensaient	-11.0934
▁weather	-11.0934
▁croient	-11.0934
▁personnage	-11.0935
▁molecule	-11.0935
▁comfortable	-11.0935
0,000	-11.0938
▁State	-11.0939
ude	-11.0941
▁Enfin	-11.0942
press	-11.0943
▁tons	-11.0946
▁mères	-11.0948
bel	-11.0948
▁impliqué	-11.0952
▁26	-11.0953
▁host	-11.0954
▁organized	-11.0955
▁venus	-11.0958
▁essaie	-11.0966
▁ren	-11.0966
▁langues	-11.0968
▁reflect	-11.0969
▁apporté	-11.0972
▁keeping	-11.0978
▁bal	-11.0985
▁retrouve	-11.0986
▁gold	-11.0987
▁conséquent	-11.0991
▁théâtre	-11.0991
▁dose	-11.0991
▁baseball	-11.0992
▁lentement	-11.0993
▁Tim	-11.0994
▁wire	-11.0996
▁Ouais	-11.1
▁suggest	-11.1001
▁op	-11.1006
▁inspire	-11.1007
▁Ré	-11.1007
▁monte	-11.1008
path	-11.1021
▁trous	-11.1024
▁ingénieurs	-11.1029
win	-11.1031
▁breath	-11.1031
▁exists	-11.1034
▁Va	-11.1034
▁routes	-11.104
▁ri	-11.1046
▁bibliothèque	-11.1048
▁equipment	-11.1048
▁scolaire	-11.1048
▁énergétique	-11.1048
▁viande	-11.1048
▁Jusqu	-11.1049
▁transmission	-11.1049
▁oublié	-11.1049
▁auxquel	-11.1051
▁soil	-11.1055
▁joke	-11.1056
▁dealing	-11.1057
▁degrés	-11.1061
▁agents	-11.1064
▁noms	-11.1064
▁warming	-11.1064
▁aimer	-11.1067
▁récit	-11.1067
▁payé	-11.1069
▁AIDS	-11.1069
▁van	-11.107
▁users	-11.1077
▁composé	-11.1081
▁picked	-11.1086
▁introduce	-11.109
▁determine	-11.109
▁driver	-11.1091
▁tip	-11.1095
▁liquide	-11.11
▁complète	-11.11
▁connecter	-11.1102
▁equivalent	-11.1106
▁cheveux	-11.1106
améliorer	-11.1106
▁demain	-11.1107
▁Eric	-11.1109
▁opening	-11.1109
▁method	-11.1111
▁molécule	-11.1111
▁dents	-11.1112
▁100,000	-11.1114
▁espoir	-11.1114
▁soyez	-11.112
▁essentiel	-11.1125
▁flip	-11.1127
▁fonctionnement	-11.1132
ption	-11.1133
▁char	-11.1141
▁emissions	-11.1142
uses	-11.1142
▁Their	-11.1142
▁connaît	-11.1144
rés	-11.1145
▁établi	-11.1146
ria	-11.1147
▁culturelle	-11.1148
▁ouvrir	-11.1148
▁souches	-11.1149
▁arguments	-11.1151
▁bouton	-11.1152
▁prises	-11.1153
abilité	-11.1154
▁souci	-11.1155
▁wi	-11.1155
▁employ	-11.1158
▁consumption	-11.1164
▁stood	-11.1164
▁hopefully	-11.1167
▁2,000	-11.1168
▁électriques	-11.1168
▁chi	-11.1169
bou	-11.117
▁censé	-11.1171
▁SIDA	-11.1172
▁mistake	-11.1173
▁artistique	-11.1174
▁Gra	-11.118
▁Latin	-11.118
Yes	-11.1184
▁setting	-11.1187
▁processes	-11.1188
▁taste	-11.1189
▁essais	-11.119
▁expected	-11.1192
▁covered	-11.1195
▁filled	-11.1195
▁treated	-11.1197
▁illusion	-11.1204
▁demandent	-11.1208
▁jail	-11.1211
▁saved	-11.1215
▁limit	-11.1219
échec	-11.1219
▁lessons	-11.122
▁intéressantes	-11.1222
▁pocket	-11.1223
▁Everything	-11.1223
▁mensonge	-11.1223
▁inequality	-11.1223
▁charbon	-11.1223
▁gène	-11.1223
▁essayant	-11.1225
matic	-11.1225
▁abuse	-11.1226
▁trait	-11.123
▁montagnes	-11.1232
▁120	-11.1234
▁intuition	-11.1237
▁generations	-11.1239
aille	-11.1239
▁chirurgien	-11.1242
imagine	-11.1242
rum	-11.1243
▁skill	-11.1245
artiste	-11.1246
▁pitch	-11.1246
▁terres	-11.1247
▁Boy	-11.1254
▁load	-11.1254
▁stone	-11.1256
▁directions	-11.1256
▁unless	-11.1256
▁maman	-11.1264
▁leg	-11.1265
▁hauteur	-11.1269
▁largement	-11.1272
▁technical	-11.1275
▁essential	-11.1275
▁neuro	-11.1281
▁ordinary	-11.1282
▁Ceux	-11.1282
▁pic	-11.1282
▁firm	-11.1282
▁devions	-11.1282
▁losing	-11.1282
▁excité	-11.1283
▁combination	-11.1285
▁season	-11.1285
ales	-11.129
▁Germany	-11.1291
▁pig	-11.1293
▁file	-11.1297
▁tech	-11.1298
▁vague	-11.1298
▁pilote	-11.1299
▁détecter	-11.1299
▁offrir	-11.1301
▁hang	-11.1304
▁serez	-11.1311
▁lié	-11.132
▁Six	-11.1322
▁transforme	-11.1323
▁exploration	-11.1324
▁vente	-11.1324
▁calling	-11.1327
▁arrived	-11.1327
▁pack	-11.1329
▁fu	-11.1331
Et	-11.1335
▁volant	-11.1336
essaie	-11.1336
▁Bur	-11.1337
analyse	-11.1338
▁collision	-11.1341
▁artiste	-11.1341
▁President	-11.1341
▁celebrate	-11.1341
▁génie	-11.1341
▁maintenir	-11.1341
▁travaux	-11.1341
ush	-11.1343
▁Bank	-11.1345
▁seat	-11.135
▁vehicle	-11.1351
▁décennie	-11.1352
▁signals	-11.1356
▁globale	-11.1357
▁précise	-11.1357
▁étonnant	-11.1361
▁dessiner	-11.1361
▁lies	-11.1364
▁vital	-11.1367
▁médical	-11.1368
ned	-11.1373
▁rassembler	-11.1374
▁revenue	-11.1376
▁cameras	-11.1379
▁x	-11.1384
▁chaussures	-11.1384
▁electrical	-11.1391
▁saut	-11.1393
▁nouvel	-11.1394
▁fréquence	-11.14
▁intellectual	-11.14
▁tunnel	-11.14
▁croyons	-11.14
▁string	-11.14
▁illness	-11.1401
▁boite	-11.1406
▁magasin	-11.1412
▁obstacles	-11.1413
▁toilet	-11.1413
▁anciens	-11.1415
▁fête	-11.1423
▁according	-11.1424
▁troubles	-11.1426
▁details	-11.1426
▁Mer	-11.1439
▁Hol	-11.1439
▁vêtements	-11.1441
▁blow	-11.1444
ya	-11.1453
ères	-11.1458
▁Nature	-11.1459
▁ayons	-11.146
enseignement	-11.146
▁flexible	-11.146
▁galaxy	-11.146
▁tweet	-11.146
▁judge	-11.146
▁sagesse	-11.146
▁evil	-11.146
▁grandmother	-11.1461
▁chicken	-11.1462
▁hier	-11.1462
▁Egypt	-11.1467
▁récente	-11.1467
▁emotion	-11.1469
▁ants	-11.1474
▁script	-11.1476
▁Sans	-11.1483
▁exception	-11.1484
▁fourth	-11.1488
▁Mary	-11.1489
▁eaux	-11.1498
▁voices	-11.1517
▁broke	-11.1518
▁Women	-11.152
▁quatrième	-11.152
▁experienced	-11.1525
▁vache	-11.1531
▁alien	-11.1532
▁éducation	-11.1534
pan	-11.1535
▁cup	-11.1535
▁frontière	-11.1537
ition	-11.1551
▁ép	-11.1559
▁cow	-11.1561
▁touché	-11.1562
▁caused	-11.1567
▁Health	-11.1579
▁Fi	-11.1579
occasion	-11.158
examin	-11.1581
▁Global	-11.1581
▁retard	-11.1581
▁poetry	-11.1582
▁procédé	-11.1583
▁réchauffement	-11.1583
▁Bible	-11.1587
▁utilisées	-11.1588
▁donnée	-11.1592
ifier	-11.1605
gy	-11.1606
▁fields	-11.1609
▁selling	-11.1612
▁vaccine	-11.1621
gle	-11.1622
ks	-11.1622
▁ira	-11.1622
▁emerge	-11.1626
▁compar	-11.1637
▁Fin	-11.1639
▁equation	-11.1642
▁maintain	-11.1642
▁obtient	-11.1642
▁awful	-11.1643
▁circulation	-11.1644
▁barre	-11.1644
▁worldwide	-11.1644
▁peak	-11.1645
▁quantique	-11.1646
▁essayez	-11.1647
▁Wall	-11.1649
▁peer	-11.165
▁autrement	-11.1659
▁média	-11.1661
▁quarter	-11.1662
▁remonte	-11.1664
▁physiques	-11.1667
▁2010	-11.1668
▁Gi	-11.167
▁participate	-11.1671
▁factors	-11.1672
agissait	-11.1676
▁coûts	-11.1676
imi	-11.1691
▁remain	-11.1698
▁journaux	-11.1703
▁tomorrow	-11.1703
▁Trois	-11.1703
▁property	-11.1704
▁éloigné	-11.1704
▁variety	-11.1704
▁baisse	-11.1704
existence	-11.1704
▁boom	-11.1705
▁avenir	-11.1705
▁précédent	-11.1706
ease	-11.1707
▁mothers	-11.1708
▁tag	-11.171
▁emplois	-11.1713
▁Jack	-11.1716
ifié	-11.172
▁moves	-11.1722
▁operation	-11.1726
▁pensées	-11.1727
▁placé	-11.1728
▁comparé	-11.1729
Les	-11.1732
▁artificielle	-11.1732
▁designing	-11.1732
▁App	-11.1733
▁wondering	-11.1736
▁plu	-11.1738
▁format	-11.1742
▁letters	-11.1747
▁burn	-11.1756
▁méthodes	-11.1756
▁regular	-11.1759
▁écran	-11.1761
▁emerging	-11.1765
▁miroir	-11.1765
▁heavy	-11.1765
▁properties	-11.1765
▁ultra	-11.1765
anglais	-11.1765
▁centres	-11.1765
▁Design	-11.1765
▁Christian	-11.1767
▁ressemblait	-11.1767
▁quad	-11.177
▁tâches	-11.177
▁persist	-11.1772
▁similaires	-11.1775
▁waves	-11.1779
▁convinced	-11.178
▁propriétés	-11.1785
▁sample	-11.1786
▁released	-11.1787
▁singes	-11.1797
▁700	-11.1806
▁journaliste	-11.1809
▁joueurs	-11.1812
écrire	-11.1812
nons	-11.1814
▁movements	-11.1817
ky	-11.1818
▁compagnies	-11.1819
▁douce	-11.1823
▁net	-11.1825
▁soudain	-11.1826
▁cependant	-11.1827
▁signature	-11.1827
▁sugar	-11.1828
That	-11.1828
▁economics	-11.1828
▁souvenez	-11.1828
▁sauce	-11.1829
▁shapes	-11.1835
▁800	-11.1837
▁opportunités	-11.184
▁Hans	-11.1845
▁poly	-11.1848
▁react	-11.1849
wo	-11.1851
▁28	-11.1852
▁détail	-11.1854
▁movies	-11.1863
point	-11.1866
▁développe	-11.1867
▁cul	-11.1867
▁pin	-11.1877
▁distinct	-11.1881
▁require	-11.1884
▁organisé	-11.1885
▁Project	-11.189
▁doubt	-11.189
▁embrace	-11.189
▁mile	-11.189
▁souffrance	-11.189
▁Japanese	-11.189
▁écologique	-11.189
▁surgeon	-11.189
▁specifically	-11.1891
▁prédire	-11.1891
▁Chacun	-11.1891
▁hadn	-11.1891
bb	-11.1892
▁cutting	-11.1893
▁ramener	-11.1893
gin	-11.1894
train	-11.1895
▁coal	-11.1896
▁quotidienne	-11.1896
▁ignore	-11.1899
entrée	-11.1902
▁Act	-11.1907
cide	-11.1909
▁tall	-11.1909
right	-11.191
tait	-11.1911
▁discipline	-11.1919
▁Rome	-11.1919
aine	-11.192
▁saison	-11.1921
▁wa	-11.1922
▁depend	-11.1924
▁rentré	-11.1924
▁défense	-11.1928
▁attitude	-11.1929
▁deeper	-11.1933
midi	-11.1933
▁estimate	-11.1938
▁players	-11.1939
▁traitements	-11.1945
▁Museum	-11.1953
▁underneath	-11.1953
▁title	-11.1953
▁souffle	-11.1953
ues	-11.1953
important	-11.1954
▁north	-11.1954
▁rapidly	-11.1956
▁carefully	-11.1958
▁esprits	-11.1958
▁industrielle	-11.1959
▁Dé	-11.1962
▁facing	-11.1964
▁courir	-11.197
▁considéré	-11.1978
▁galaxie	-11.1979
▁leaves	-11.1987
▁mini	-11.1988
▁relate	-11.1988
▁resté	-11.1988
▁supérieur	-11.1991
▁Mont	-11.1992
▁accidents	-11.1995
▁Andrew	-11.2004
▁entré	-11.2004
▁divers	-11.2004
▁retraite	-11.2004
▁états	-11.2009
▁élevée	-11.2011
▁Congrès	-11.2016
▁réparer	-11.2016
▁yesterday	-11.2016
▁ancêtres	-11.2016
▁métier	-11.2016
▁sucre	-11.2016
▁south	-11.2017
▁empty	-11.2017
▁croit	-11.2018
▁user	-11.2019
▁enable	-11.2019
▁pé	-11.2019
▁comprends	-11.202
board	-11.2021
▁installé	-11.2021
▁plain	-11.2021
▁profession	-11.2026
cule	-11.2032
▁advanced	-11.2034
▁Bas	-11.2042
▁véhicule	-11.2044
▁poème	-11.2045
▁replace	-11.2057
▁sauvé	-11.2062
etic	-11.2065
▁shoot	-11.2065
tend	-11.2068
▁bug	-11.2072
ency	-11.2073
ombre	-11.2076
empathie	-11.2079
▁explanation	-11.2079
▁médicaux	-11.2079
▁mystère	-11.208
▁nôtre	-11.208
▁sweet	-11.208
▁church	-11.208
▁swim	-11.208
▁White	-11.208
▁abandonné	-11.2081
▁mettons	-11.2082
▁USA	-11.2083
▁pill	-11.2084
▁implique	-11.2084
▁rocket	-11.2085
▁activités	-11.2086
▁manuel	-11.2087
▁psycho	-11.2088
▁homes	-11.2097
lage	-11.2106
▁requins	-11.2114
▁ordre	-11.2118
▁sûre	-11.213
▁characters	-11.213
▁frères	-11.2131
bit	-11.2132
▁sending	-11.2135
▁interne	-11.2139
▁Thanks	-11.214
▁individuelle	-11.2142
▁Congress	-11.2144
▁suspect	-11.2144
▁pleasure	-11.2144
▁unusual	-11.2144
▁clever	-11.2144
▁folle	-11.2144
▁grid	-11.2146
▁objective	-11.2147
opération	-11.215
▁fondamental	-11.215
▁Gore	-11.2152
▁director	-11.2167
▁gagne	-11.2176
▁requires	-11.2184
▁terminé	-11.2185
▁positif	-11.2187
▁locale	-11.2196
▁chasse	-11.2196
▁programmer	-11.2196
iff	-11.2202
▁rap	-11.2205
▁physicist	-11.2208
▁possibilities	-11.2208
▁reconnu	-11.2208
▁smartphone	-11.2208
▁investi	-11.2209
▁panneaux	-11.221
▁aurons	-11.221
▁interactive	-11.2211
▁player	-11.2211
envoyer	-11.2211
essence	-11.2212
▁victims	-11.2212
▁gla	-11.2218
▁déjeuner	-11.2219
▁cook	-11.2219
euses	-11.2223
▁Long	-11.2226
▁height	-11.2227
▁fusion	-11.2229
▁weak	-11.223
▁présenté	-11.223
▁Day	-11.2232
▁inclu	-11.2234
▁identifier	-11.2239
▁soft	-11.2239
back	-11.2239
▁holes	-11.2243
▁véhicules	-11.2245
▁shoulder	-11.2247
▁ressenti	-11.225
▁copie	-11.2251
▁extract	-11.2256
▁convince	-11.2257
▁grandir	-11.2259
▁signs	-11.2264
▁quotidien	-11.2266
▁status	-11.2266
équilibre	-11.2268
▁propriétaire	-11.2273
▁universitaire	-11.2273
▁déroule	-11.2273
▁garage	-11.2273
▁Britain	-11.2273
▁gentlemen	-11.2273
low	-11.2273
▁spring	-11.2274
▁inject	-11.2275
investissement	-11.2276
▁relativement	-11.2282
▁adulte	-11.2284
▁prouver	-11.2284
▁credit	-11.2285
▁évolution	-11.2286
▁effectively	-11.2288
▁tissus	-11.229
▁leçons	-11.2296
ète	-11.2296
▁presentation	-11.2297
ras	-11.23
▁explosion	-11.2301
▁caché	-11.2302
die	-11.2304
▁nez	-11.2305
▁crimes	-11.2307
▁pierre	-11.2307
▁champs	-11.231
▁graphic	-11.2311
▁cards	-11.2311
▁rates	-11.232
Il	-11.2323
issement	-11.2325
▁remplacer	-11.2328
▁broad	-11.2328
nique	-11.2333
▁créative	-11.2338
▁utilisateurs	-11.234
▁tenter	-11.2341
▁hôpitaux	-11.2341
▁aimons	-11.2343
▁button	-11.2344
▁filter	-11.2344
▁liquid	-11.2346
▁trials	-11.2346
▁2001	-11.2348
▁voisins	-11.2349
▁appropriate	-11.2349
nation	-11.2351
▁Pat	-11.2352
▁include	-11.2359
envers	-11.2362
▁majeur	-11.2372
▁root	-11.2374
▁risks	-11.2376
▁donnez	-11.2378
▁tourné	-11.2379
▁Last	-11.2385
▁talents	-11.2388
▁réfugiés	-11.2394
▁retrouvé	-11.2397
▁absolute	-11.2399
gel	-11.2402
utilisateur	-11.2403
▁Scott	-11.2404
▁illegal	-11.2404
▁ridicule	-11.2404
▁résistance	-11.2404
▁autonome	-11.2404
▁circuits	-11.2404
▁balloon	-11.2404
▁chemistry	-11.2405
▁battery	-11.2405
▁Ray	-11.2407
▁Yet	-11.2408
▁biais	-11.2408
▁vrais	-11.2409
▁normalement	-11.2418
▁dessins	-11.2419
▁sourire	-11.242
esse	-11.2421
▁required	-11.2421
expliquer	-11.2421
▁chimpanzés	-11.2423
▁entrepreneur	-11.243
▁dig	-11.243
▁mesures	-11.2432
▁essai	-11.2434
lus	-11.2434
▁longues	-11.2435
▁laugh	-11.2437
▁blancs	-11.2445
▁represents	-11.2446
▁exposition	-11.2446
▁augmentation	-11.2449
pper	-11.245
▁descendre	-11.2451
▁consumer	-11.2458
▁succeed	-11.2459
nais	-11.2462
ssaient	-11.2463
▁pareil	-11.2466
araignée	-11.247
▁composition	-11.247
▁snow	-11.247
▁remettre	-11.2471
▁fraction	-11.2471
▁pourcentage	-11.2472
▁auront	-11.2473
▁ticket	-11.2473
▁tiens	-11.2476
▁pairs	-11.2478
forme	-11.2478
▁relatively	-11.248
uk	-11.2481
▁raconté	-11.2487
▁totale	-11.2498
▁dinosaures	-11.251
▁mécanisme	-11.251
▁variation	-11.251
▁AB	-11.2513
long	-11.2515
▁feelings	-11.2515
room	-11.2516
écoute	-11.2519
▁facteur	-11.2525
▁extraordinaires	-11.2529
war	-11.253
face	-11.2531
▁Moi	-11.2534
▁beaux	-11.2534
▁spectaculaire	-11.2537
▁staff	-11.2537
▁cheval	-11.2537
▁medium	-11.2537
▁figures	-11.2537
▁decline	-11.2537
▁Moore	-11.2538
▁pump	-11.2538
▁compter	-11.2539
▁plot	-11.254
▁Four	-11.2542
père	-11.2542
▁quart	-11.2545
▁restent	-11.2548
▁suffisant	-11.255
ches	-11.2551
▁reli	-11.2559
▁cord	-11.256
▁essaye	-11.2562
hommes	-11.2566
▁architect	-11.2568
▁languages	-11.2569
▁tea	-11.2571
▁enfance	-11.2571
▁depends	-11.2575
▁i	-11.2579
▁modifier	-11.2581
ians	-11.2582
▁factor	-11.2592
fish	-11.2592
2.	-11.2596
▁allant	-11.2598
vor	-11.2602
▁bits	-11.2604
▁carburant	-11.2604
▁mosquito	-11.2604
▁spectrum	-11.2604
▁vulnerable	-11.2604
▁frappé	-11.2604
▁spiritual	-11.2605
▁entouré	-11.2606
▁excitant	-11.2609
▁tiré	-11.2609
▁Ke	-11.2611
▁intuitive	-11.2612
▁printing	-11.2622
mark	-11.2623
▁habitants	-11.2624
▁expansion	-11.2627
quer	-11.2628
▁mérite	-11.2634
ode	-11.2634
essaye	-11.2643
▁basse	-11.2646
lum	-11.2647
▁mathématique	-11.2648
▁adopt	-11.2651
▁videos	-11.2653
▁germ	-11.2656
▁dots	-11.2656
▁produis	-11.2663
60	-11.2663
▁Han	-11.2663
▁increasing	-11.2665
▁branch	-11.2672
▁FBI	-11.2672
▁diplôme	-11.2672
▁négatif	-11.2672
▁technological	-11.2672
▁avéré	-11.2672
▁réforme	-11.2673
▁côtés	-11.2675
▁chefs	-11.2675
▁roughly	-11.2676
▁hotel	-11.2676
animal	-11.2678
▁producing	-11.2679
▁KB	-11.2679
instant	-11.2679
▁roi	-11.2681
ew	-11.2685
ois	-11.2686
▁Since	-11.2688
▁étapes	-11.269
▁sight	-11.2691
▁cliniques	-11.2693
▁meaningful	-11.2694
▁cry	-11.2705
▁33	-11.2707
▁cache	-11.2708
▁corn	-11.271
▁ecosystem	-11.2717
▁feature	-11.2717
▁hé	-11.2724
entends	-11.273
▁communications	-11.273
▁fonctions	-11.2731
▁demo	-11.2735
▁buying	-11.2736
▁unexpected	-11.274
▁valuable	-11.274
▁robust	-11.274
▁montrant	-11.274
▁teeth	-11.274
▁length	-11.274
▁évènement	-11.274
▁blague	-11.274
▁Daniel	-11.2741
▁émergent	-11.2743
▁loud	-11.2748
▁alarm	-11.2752
ographie	-11.2755
▁spa	-11.2757
▁spatial	-11.276
▁funding	-11.2764
▁gel	-11.2765
▁assure	-11.2767
▁intention	-11.277
▁spécifique	-11.2781
▁records	-11.2785
▁hackers	-11.2785
▁substance	-11.2787
▁conséquence	-11.2787
▁asks	-11.2796
▁statement	-11.2799
▁toile	-11.2799
▁practical	-11.2802
▁transplant	-11.2802
▁personnages	-11.2807
▁Sam	-11.2808
▁kitchen	-11.2808
▁susceptible	-11.2808
▁restrict	-11.2809
▁shame	-11.2809
▁quartiers	-11.2809
▁2012	-11.281
▁optimiste	-11.2811
▁empêcher	-11.2812
▁précision	-11.2813
gh	-11.2816
▁plage	-11.2816
▁goals	-11.2824
gon	-11.2824
active	-11.2827
▁maps	-11.2828
radi	-11.2829
▁rendez	-11.283
▁organ	-11.2833
▁campus	-11.2839
▁stations	-11.2842
▁foule	-11.2842
▁sentiments	-11.2856
▁insight	-11.286
▁collapse	-11.2861
▁composants	-11.2862
▁lady	-11.2863
Non	-11.2874
▁comfort	-11.2875
▁recev	-11.2877
▁Silicon	-11.2877
▁SMS	-11.2877
▁français	-11.2877
▁sophistiqué	-11.2877
▁Finalement	-11.2877
▁primary	-11.2877
▁gravité	-11.2878
▁nerveux	-11.2878
▁underwater	-11.2878
▁strip	-11.2879
▁politicians	-11.288
Q	-11.288
▁severe	-11.2882
▁BF	-11.2884
▁traditions	-11.2886
▁enseigner	-11.289
▁Toute	-11.2895
▁fossiles	-11.2896
▁oeuvre	-11.2903
▁journalist	-11.2911
▁pourrons	-11.2915
entendre	-11.2916
▁85	-11.2917
▁colonies	-11.2917
▁individu	-11.2918
▁savaient	-11.2921
▁appreciate	-11.2921
▁épidémie	-11.2923
▁déplace	-11.2926
▁sing	-11.2927
▁tumor	-11.2928
gène	-11.2928
▁outcome	-11.2928
▁cop	-11.2931
▁monitor	-11.2932
▁review	-11.2933
▁visages	-11.2933
pers	-11.2934
ifie	-11.2934
▁ADN	-11.2937
▁standards	-11.2938
▁liés	-11.294
▁probable	-11.2942
och	-11.2944
ball	-11.2945
▁Stephen	-11.2947
▁chimie	-11.2947
▁minimum	-11.2947
▁Derek	-11.2947
▁ministre	-11.2947
▁steel	-11.2947
▁Brian	-11.2947
▁evolutionary	-11.2948
▁export	-11.2949
▁winter	-11.2951
▁guerres	-11.2951
▁sphère	-11.2956
▁Cor	-11.2956
▁apartment	-11.2966
▁internal	-11.2967
▁poet	-11.2968
oma	-11.2974
▁consommateurs	-11.2975
▁Red	-11.2978
▁engaged	-11.2979
▁Gen	-11.2982
▁juge	-11.2984
▁expand	-11.2991
▁construite	-11.2991
▁houses	-11.2992
▁mountains	-11.2992
eign	-11.2999
▁brutal	-11.2999
▁prépar	-11.3001
▁king	-11.3004
▁prisons	-11.3007
▁drones	-11.3009
▁previous	-11.301
▁organes	-11.301
émission	-11.3011
▁agent	-11.3015
▁Permettez	-11.3017
▁academic	-11.3017
▁détruire	-11.3017
▁relevant	-11.3017
▁LED	-11.3017
▁flies	-11.3017
▁psychologique	-11.3017
▁molecular	-11.3017
▁ancien	-11.3018
▁breathe	-11.302
▁Mondiale	-11.3022
▁Port	-11.3025
identité	-11.3025
atteindre	-11.3025
culture	-11.3025
imagination	-11.3025
▁Mike	-11.3027
▁naturellement	-11.3028
▁donnant	-11.3029
▁avocat	-11.3036
▁forests	-11.3037
▁équipement	-11.3037
▁potentially	-11.3037
▁terrorisme	-11.3039
▁Allez	-11.3041
▁fortune	-11.3041
▁fewer	-11.3043
▁Ten	-11.3043
▁commencez	-11.3045
▁reached	-11.3055
▁urbain	-11.3057
▁aimé	-11.3058
▁affected	-11.3063
▁attach	-11.3068
dom	-11.3069
▁créatif	-11.3072
▁trend	-11.3072
▁limité	-11.3072
▁degré	-11.3072
▁apparu	-11.3073
▁ravi	-11.3074
▁viruses	-11.3076
▁spin	-11.3084
▁Come	-11.3084
▁Cambridge	-11.3087
▁reproduction	-11.3087
▁awesome	-11.3087
▁spider	-11.3087
▁While	-11.3087
▁input	-11.3088
▁permission	-11.3089
▁Other	-11.3089
▁battu	-11.3089
▁comprenons	-11.309
▁sérieusement	-11.3091
▁forcément	-11.3091
▁modernes	-11.3094
▁tank	-11.3094
▁Hollywood	-11.3094
Homme	-11.3096
▁typically	-11.3096
American	-11.3096
Pourquoi	-11.3096
▁enregistré	-11.31
▁utilisez	-11.3103
▁beach	-11.3107
▁generally	-11.3107
▁savions	-11.3111
▁however	-11.3112
▁fruits	-11.3112
▁carrying	-11.3112
▁versions	-11.3114
▁variations	-11.3116
▁earn	-11.3118
▁thin	-11.312
rice	-11.3121
▁lo	-11.3122
▁dive	-11.3127
▁loop	-11.313
▁sexy	-11.313
▁motifs	-11.313
▁symptômes	-11.3134
hop	-11.3137
▁Q	-11.314
▁réserve	-11.3144
bon	-11.3149
jou	-11.3153
▁nourri	-11.3153
▁essence	-11.3155
▁retourné	-11.3155
▁effrayant	-11.3158
▁innovative	-11.3158
▁sophisticated	-11.3158
▁geek	-11.3158
▁reconnaissance	-11.3158
humour	-11.3158
▁plateforme	-11.3158
▁Anyway	-11.3158
▁combattre	-11.3159
▁faudrait	-11.3159
▁sheet	-11.3159
▁Deuxièmement	-11.316
▁awareness	-11.316
▁handle	-11.316
▁démocratique	-11.3164
▁conscious	-11.3166
▁disparaître	-11.3168
▁traditionnelle	-11.3174
▁trac	-11.3175
▁introduced	-11.3177
▁venaient	-11.3179
▁algorithm	-11.3181
▁longueur	-11.3183
▁formed	-11.3194
▁iron	-11.3196
▁existing	-11.3197
▁increased	-11.3199
▁parlez	-11.32
hum	-11.3204
▁reverse	-11.3207
▁intelligente	-11.3209
▁blocks	-11.321
▁chemicals	-11.3211
▁Ya	-11.3211
▁shut	-11.3214
pping	-11.3216
▁William	-11.3217
▁Muslim	-11.3217
▁chimique	-11.3217
▁German	-11.3219
▁panneau	-11.3229
▁ralenti	-11.3229
▁auprès	-11.3229
▁computing	-11.3229
▁manufacturing	-11.3229
▁moléculaire	-11.3229
▁humor	-11.3229
▁transmettre	-11.323
▁split	-11.323
▁cherché	-11.323
▁prétend	-11.323
▁infinite	-11.323
▁retourne	-11.3231
▁Premièrement	-11.3231
▁House	-11.3231
▁equality	-11.3232
▁ruin	-11.3232
▁mythe	-11.3233
atique	-11.3234
down	-11.3235
▁Ron	-11.3237
objectif	-11.3239
▁bike	-11.324
▁nécessite	-11.3241
Don	-11.3244
▁âgées	-11.3246
▁industries	-11.3249
▁excellent	-11.3252
▁supérieure	-11.3257
▁souvenirs	-11.3265
ié	-11.3266
▁quiet	-11.3268
lash	-11.3271
nent	-11.3271
▁cube	-11.3272
▁suffer	-11.3276
lis	-11.3277
▁organize	-11.3286
▁docteur	-11.3291
▁prête	-11.3291
▁vivants	-11.3293
▁nuage	-11.3294
▁solved	-11.3296
appel	-11.3297
▁utiles	-11.3298
making	-11.3298
▁advice	-11.3301
▁britannique	-11.3301
▁definitely	-11.3301
▁privacy	-11.3301
▁plaque	-11.3301
▁Black	-11.3302
▁High	-11.3302
▁prenant	-11.3303
▁bare	-11.3303
cour	-11.3303
ada	-11.3303
▁lève	-11.3304
▁sacrifice	-11.3304
▁permettant	-11.3304
▁applied	-11.3306
▁Fo	-11.3308
▁vivante	-11.3309
dedans	-11.3312
▁essentielle	-11.3313
▁servi	-11.3314
▁kilos	-11.3317
lier	-11.3319
▁partis	-11.3321
flu	-11.3322
life	-11.3322
▁physically	-11.3329
▁claire	-11.3337
▁protected	-11.3337
▁Pre	-11.3339
pose	-11.3341
▁adolescents	-11.3346
q	-11.3347
▁moteurs	-11.3347
▁voisin	-11.3354
marin	-11.3354
▁colon	-11.3356
▁photographe	-11.3364
▁batterie	-11.3365
▁publics	-11.3369
minal	-11.3371
▁symptoms	-11.3371
▁partenaires	-11.3373
▁district	-11.3374
▁harvest	-11.3374
▁physician	-11.3374
▁scénario	-11.3374
▁democratic	-11.3374
▁désolé	-11.3374
▁department	-11.3374
▁framework	-11.3374
▁Kevin	-11.3374
code	-11.3375
▁thanks	-11.3379
▁architectural	-11.3379
▁distant	-11.338
▁serais	-11.3381
▁rouges	-11.3383
▁prepared	-11.3383
▁neige	-11.3385
▁forment	-11.3387
▁médicale	-11.339
▁virtuelle	-11.3391
▁puissants	-11.3397
On	-11.3399
▁grab	-11.34
▁repair	-11.3401
▁pulled	-11.3405
ith	-11.3413
▁traveling	-11.3414
▁bases	-11.3415
class	-11.3422
▁conte	-11.3422
▁hospitals	-11.3424
▁cérébrale	-11.3425
▁confi	-11.3425
▁tomb	-11.3426
▁initial	-11.3427
2,	-11.343
Ha	-11.3432
▁déco	-11.3435
▁shark	-11.344
▁chiens	-11.344
▁contribute	-11.3442
Al	-11.3443
▁bulle	-11.3445
▁agréable	-11.3447
▁empathy	-11.3447
▁innocent	-11.3447
▁Guerre	-11.3447
▁psychological	-11.3447
▁réduction	-11.3447
▁remove	-11.345
▁blogs	-11.345
ison	-11.3451
▁sache	-11.3452
ancien	-11.3454
▁Mal	-11.3456
ération	-11.3456
▁compete	-11.3461
▁drives	-11.3462
▁entrain	-11.3462
isent	-11.3463
▁nage	-11.3464
▁événement	-11.3466
▁unknown	-11.3472
▁cacher	-11.3472
idées	-11.3474
▁fluid	-11.348
▁stronger	-11.3481
▁terroristes	-11.3484
▁recorded	-11.3486
ini	-11.3486
▁surfaces	-11.3488
▁fiber	-11.3488
▁95	-11.3489
▁jeter	-11.3492
▁photographs	-11.3493
▁voyager	-11.3493
▁tente	-11.3495
▁employees	-11.3497
usage	-11.3498
▁gratuit	-11.3502
▁Hé	-11.3502
▁avantage	-11.3502
▁translate	-11.3505
▁fleurs	-11.3512
lent	-11.3514
▁couvert	-11.3518
▁fauteuil	-11.352
▁idiot	-11.352
▁aléatoire	-11.352
▁escape	-11.3521
▁fake	-11.3521
▁milk	-11.3521
▁mortality	-11.3521
autisme	-11.3527
▁sharks	-11.3528
▁tribu	-11.3529
▁conducteur	-11.3529
▁algorithms	-11.3534
▁Jane	-11.3534
▁Ku	-11.3536
ote	-11.3541
▁organs	-11.3543
▁déf	-11.3545
vision	-11.3548
▁Gene	-11.3551
▁aident	-11.3555
ati	-11.3557
▁Bay	-11.3561
▁Ann	-11.3564
▁dure	-11.3566
▁discussions	-11.3567
ologique	-11.3572
mail	-11.3575
▁cast	-11.3579
▁virtuel	-11.3579
▁repeat	-11.3584
▁Shi	-11.3586
▁regions	-11.3587
▁peint	-11.3591
▁provient	-11.3594
▁spectre	-11.3594
▁predator	-11.3595
▁créons	-11.3595
▁collaborative	-11.3595
▁thérapie	-11.3595
▁division	-11.3595
▁auxquelles	-11.3595
▁Johnson	-11.3596
▁mechanical	-11.3596
chan	-11.3597
▁Fr	-11.3601
▁ras	-11.3601
tions	-11.3601
▁valid	-11.3602
▁attacks	-11.3604
influence	-11.3607
ager	-11.3613
our	-11.3615
▁Bra	-11.3617
▁représenter	-11.3618
▁instructions	-11.3621
▁border	-11.3622
▁définir	-11.3624
▁surf	-11.3626
▁usine	-11.3627
▁magnifiques	-11.3628
▁traite	-11.3628
ndi	-11.3631
▁added	-11.3632
▁pat	-11.3633
ily	-11.364
▁recording	-11.3644
▁apple	-11.3647
▁piste	-11.3648
▁chaude	-11.365
▁reveal	-11.3655
key	-11.3659
▁examine	-11.3662
▁centers	-11.3663
▁mechanism	-11.3666
▁catastrophe	-11.3666
▁jambe	-11.3667
▁element	-11.3669
▁intitulé	-11.3669
▁license	-11.3669
▁primitive	-11.3669
▁syndrome	-11.3669
▁triangle	-11.3669
▁Aussi	-11.3669
▁prize	-11.367
▁boucle	-11.367
▁nerve	-11.367
dding	-11.3671
▁occidentale	-11.3675
▁chanter	-11.3678
▁préparer	-11.368
▁poulet	-11.3686
▁fundamentally	-11.3688
▁étoile	-11.3691
▁Yorker	-11.3694
▁belles	-11.3698
▁champion	-11.3699
▁réalis	-11.37
▁grass	-11.3704
▁personally	-11.3706
▁passionné	-11.3711
▁driven	-11.3717
occuper	-11.3717
▁intéresse	-11.3721
voir	-11.3721
▁neighbors	-11.3726
▁evolve	-11.3728
▁rayons	-11.3729
niste	-11.3735
▁ultimate	-11.3738
▁ancestors	-11.3738
▁sexuel	-11.3741
▁aging	-11.3741
▁fishing	-11.3742
▁militaire	-11.3744
▁admit	-11.3744
▁activities	-11.3744
▁conviction	-11.3744
▁reproduire	-11.3744
▁reçoit	-11.3744
▁hydrogen	-11.3744
▁Philip	-11.3744
▁militaires	-11.3745
▁Soleil	-11.3745
▁ajouté	-11.3745
▁pratiques	-11.3745
▁Corée	-11.3747
▁Nick	-11.3747
▁rent	-11.3751
angle	-11.3756
▁Howard	-11.3758
foot	-11.3759
▁tenu	-11.3762
▁fermé	-11.3762
▁Oxford	-11.3763
▁singing	-11.3763
▁dominant	-11.3764
inspiration	-11.3764
▁assise	-11.3766
▁sentent	-11.3768
▁Met	-11.3769
gged	-11.3775
grade	-11.3777
▁components	-11.3778
▁restaurants	-11.3781
▁atoms	-11.3782
▁hip	-11.3783
▁naturally	-11.3784
▁aim	-11.3789
▁percentage	-11.3791
ières	-11.3791
▁eggs	-11.3795
▁mètre	-11.3795
▁écart	-11.3795
▁explains	-11.3797
ado	-11.3801
▁dogs	-11.3812
▁Hy	-11.3817
▁dramatic	-11.382
▁Foundation	-11.382
▁Perhaps	-11.382
▁false	-11.382
▁nutrition	-11.382
▁psychology	-11.382
▁knee	-11.382
▁silk	-11.3821
▁partenaire	-11.3821
▁publication	-11.3822
▁reference	-11.3822
▁Jones	-11.3822
▁Alex	-11.3823
fully	-11.3826
▁sensible	-11.3828
▁concrete	-11.383
▁Lu	-11.3843
▁blessé	-11.3844
▁explication	-11.3845
▁drogues	-11.3845
▁tro	-11.3845
▁Bell	-11.3846
isées	-11.3846
▁joined	-11.3846
▁calme	-11.3851
▁sec	-11.3855
éo	-11.3864
▁intérêts	-11.3866
ulaire	-11.3868
▁stimul	-11.3868
rk	-11.3868
So	-11.3877
▁mammifères	-11.3878
▁Russia	-11.3885
▁continents	-11.3885
▁transcend	-11.3896
▁promesse	-11.3896
▁providing	-11.3896
▁cinéma	-11.3896
▁dirigé	-11.3896
▁sphere	-11.3896
▁Pouvez	-11.3896
▁afternoon	-11.3896
▁goutte	-11.3896
▁behave	-11.3896
▁housing	-11.3896
▁primaire	-11.3897
▁murder	-11.3898
▁29	-11.3899
lock	-11.3899
sky	-11.3901
▁filtre	-11.3901
▁libérer	-11.3902
▁isolé	-11.3904
▁Ken	-11.3907
▁positions	-11.3907
▁liked	-11.3908
▁equally	-11.3909
▁vérifier	-11.3912
▁scared	-11.3913
▁camps	-11.3914
water	-11.3915
row	-11.3915
▁nombres	-11.3921
▁Sir	-11.3923
▁électronique	-11.3927
▁individuel	-11.3929
▁appellent	-11.3931
▁Lego	-11.3933
▁aurions	-11.3942
10	-11.3945
▁suck	-11.3948
box	-11.3953
▁finit	-11.3958
écoule	-11.396
▁Jeff	-11.3962
▁kick	-11.3962
▁extend	-11.3963
▁largely	-11.3964
▁lift	-11.3967
▁needle	-11.3969
▁drapeau	-11.3972
▁ratio	-11.3972
▁Benjamin	-11.3973
▁lendemain	-11.3973
▁membrane	-11.3973
▁maximum	-11.3974
▁logement	-11.3974
▁réalise	-11.3975
attaque	-11.3975
▁Hong	-11.3976
▁transportation	-11.3983
▁MT	-11.3985
cked	-11.3985
▁élevés	-11.3986
▁officer	-11.3987
▁solving	-11.399
▁statut	-11.399
Look	-11.399
▁demonstrate	-11.3991
state	-11.3994
acheter	-11.3995
▁porc	-11.3997
▁éthique	-11.3998
▁logiciels	-11.4
house	-11.4001
▁recover	-11.4006
▁combined	-11.4007
▁prends	-11.4007
▁collected	-11.401
fondamentalement	-11.4013
▁difficulté	-11.4015
▁réactions	-11.4018
▁2010,	-11.402
▁sale	-11.4025
▁chirurgie	-11.4026
▁remains	-11.4027
▁nose	-11.4032
lli	-11.4033
▁idéal	-11.4034
▁processing	-11.4035
olo	-11.4035
▁bombe	-11.4036
▁illustrate	-11.4037
▁custom	-11.4039
▁publiques	-11.4046
illant	-11.4048
▁Bonjour	-11.4051
▁centuries	-11.4051
▁memories	-11.4051
▁obligé	-11.4051
▁psychologie	-11.4051
▁tsunami	-11.4051
▁rentre	-11.4051
▁ought	-11.4051
▁gravity	-11.4051
▁Prize	-11.4052
▁monté	-11.4052
▁boring	-11.4052
▁authority	-11.4053
hydrogène	-11.4053
▁Quoi	-11.4053
▁récupérer	-11.4053
enregistrement	-11.4054
▁neural	-11.4055
▁émotionnelle	-11.4055
▁election	-11.4057
études	-11.4059
▁centaine	-11.4059
▁formule	-11.4059
▁eh	-11.4059
▁wine	-11.406
▁RB	-11.4061
▁hoping	-11.4061
▁Ram	-11.4062
▁religions	-11.4062
appareil	-11.4067
Asie	-11.4068
lad	-11.4068
Oui	-11.4071
▁logo	-11.4072
▁sortent	-11.4072
▁Newton	-11.4073
▁rang	-11.4075
▁portion	-11.4082
▁discuter	-11.4084
▁lumières	-11.4087
▁pli	-11.4088
▁estime	-11.4088
▁réuni	-11.4091
▁cachée	-11.4095
▁viv	-11.4105
▁soie	-11.4113
ying	-11.4114
▁clock	-11.4114
▁interests	-11.4115
▁étonnante	-11.4117
▁boule	-11.4117
▁terrorism	-11.4117
▁choc	-11.4119
atom	-11.4122
atoire	-11.4125
▁Union	-11.4126
▁lying	-11.4127
▁Bronx	-11.4129
▁Nelson	-11.4129
▁Russie	-11.4129
▁Voyons	-11.4129
▁challenging	-11.4129
▁efficiency	-11.4129
▁scenario	-11.4129
▁agenda	-11.4129
▁bicycle	-11.4129
▁débarrasser	-11.4129
▁viral	-11.4129
▁sustainability	-11.4129
▁investir	-11.4129
▁greenhouse	-11.4129
▁Nobody	-11.413
issons	-11.4131
▁espérons	-11.4131
▁clothes	-11.4132
▁vaccins	-11.4138
▁drone	-11.4138
▁fleur	-11.4138
▁prof	-11.4138
▁texture	-11.4139
▁avantages	-11.4141
▁42	-11.4144
▁origami	-11.4148
▁financement	-11.415
▁conclure	-11.4157
▁rats	-11.4158
▁défini	-11.4159
▁joli	-11.416
agir	-11.4161
▁physiquement	-11.4162
▁storm	-11.4162
▁alternatives	-11.4163
▁CD	-11.4163
▁observation	-11.4172
▁behaviors	-11.4174
▁Pri	-11.4175
▁génétiques	-11.4176
▁voire	-11.4177
▁shock	-11.4183
▁préférée	-11.4183
▁Wal	-11.4184
▁provenan	-11.4186
▁paradigm	-11.4189
▁vehicles	-11.4193
▁naturelles	-11.4195
▁mistakes	-11.4196
▁opération	-11.4196
▁sustain	-11.4197
▁dinosaurs	-11.4202
▁thon	-11.4203
▁vieilles	-11.4204
▁culturel	-11.4205
▁ressort	-11.4205
▁pensions	-11.4205
▁basket	-11.4208
▁complain	-11.4208
▁familier	-11.4208
▁policies	-11.4208
▁poursuivre	-11.4208
▁significative	-11.4208
▁stretch	-11.4208
▁quiconque	-11.4208
▁swimming	-11.4208
▁venons	-11.4208
▁variété	-11.4208
▁dropped	-11.4209
▁élections	-11.4209
▁Also	-11.4209
▁surrounded	-11.4214
▁3,000	-11.4214
égo	-11.4216
▁chère	-11.4217
▁foyer	-11.4218
▁extension	-11.4219
▁loan	-11.4219
▁dieu	-11.4222
▁rassemblé	-11.4225
cat	-11.4225
▁ordinaires	-11.4229
▁controlled	-11.4229
▁partners	-11.4232
▁suggestion	-11.424
▁diriger	-11.4241
▁agreed	-11.4242
▁environments	-11.4242
▁meal	-11.4242
▁flower	-11.4244
▁indicate	-11.4247
▁prefer	-11.4252
▁tracking	-11.4254
▁danse	-11.4258
haut	-11.4259
▁caméras	-11.426
▁serons	-11.4262
▁contrast	-11.4265
▁2000,	-11.4274
▁organism	-11.4274
▁Inter	-11.4275
▁aurez	-11.4278
▁Celle	-11.4282
▁Pacific	-11.4287
▁défaut	-11.4287
▁CEO	-11.4287
▁therapy	-11.4287
ampoule	-11.4287
▁vaisseaux	-11.4288
▁drill	-11.4288
▁poison	-11.4289
▁difficultés	-11.4291
aba	-11.4294
▁supplémentaires	-11.4295
▁Min	-11.4296
▁confidence	-11.4297
ties	-11.4297
▁nuages	-11.4299
▁wound	-11.43
▁dame	-11.4301
▁expliqué	-11.4303
stream	-11.4304
▁cooking	-11.4305
Occident	-11.4305
Orient	-11.4305
▁fac	-11.4305
♫	-11.4305
internet	-11.4306
▁dépenser	-11.4308
▁concentré	-11.4309
▁pool	-11.4309
▁placer	-11.431
▁pub	-11.4311
▁énormes	-11.4311
▁features	-11.4314
▁Five	-11.4316
Nous	-11.4317
▁aveugle	-11.432
▁brave	-11.4321
Bon	-11.4323
▁surprenante	-11.4329
ange	-11.4331
city	-11.4337
▁arrêt	-11.434
▁algorithmes	-11.4343
cée	-11.4343
▁partagé	-11.4348
▁Islam	-11.4354
▁songs	-11.4359
ku	-11.436
▁chansons	-11.4362
▁lens	-11.4362
▁Vietnam	-11.4367
▁cluster	-11.4367
▁presence	-11.4367
▁reçoivent	-11.4367
▁shadow	-11.4367
▁trajectoire	-11.4367
▁domestique	-11.4367
▁méchant	-11.4367
inquiète	-11.4367
Univers	-11.4368
▁sunlight	-11.4368
▁destination	-11.4371
▁deserve	-11.4372
▁commitment	-11.4373
▁feuilles	-11.4375
▁infected	-11.4375
▁exige	-11.4379
▁Ebola	-11.438
▁protéine	-11.4381
▁electronic	-11.4383
view	-11.4384
effort	-11.4386
▁bold	-11.4387
▁meme	-11.4392
▁Hill	-11.4392
ncé	-11.4402
▁Amy	-11.4403
▁seek	-11.4406
élé	-11.4408
▁explained	-11.441
▁circumstances	-11.4411
▁upper	-11.4414
▁scar	-11.4415
▁philosophe	-11.4424
▁Hey	-11.4424
▁mad	-11.4425
▁Quelque	-11.4426
▁supporter	-11.4427
aving	-11.4428
▁pattes	-11.4439
autorité	-11.4447
▁1998	-11.4448
▁Bangladesh	-11.4448
▁cigarette	-11.4448
▁famine	-11.4448
▁philosophie	-11.4448
▁résistant	-11.4448
▁symétrie	-11.4448
▁ritual	-11.4448
▁strict	-11.4448
▁résumé	-11.4448
énormes	-11.4448
▁bref	-11.4448
▁inutile	-11.4448
▁smoke	-11.4448
▁selection	-11.4449
▁amoureux	-11.4449
▁secure	-11.4449
▁apparemment	-11.4453
▁radicalement	-11.4454
▁contradiction	-11.4456
▁possibles	-11.4457
▁Dès	-11.4459
▁pourrez	-11.446
▁superbe	-11.4462
▁mate	-11.4462
▁véritablement	-11.4463
▁baleines	-11.4464
▁photographer	-11.4464
▁rayon	-11.4464
▁log	-11.4466
▁pratiquement	-11.4468
exploitation	-11.4468
▁économies	-11.4471
▁agit	-11.4472
▁ennemi	-11.4473
▁poussé	-11.4473
▁improvement	-11.4474
▁pardon	-11.4476
Re	-11.448
▁worker	-11.4481
aking	-11.4482
▁promote	-11.4485
espèce	-11.4485
being	-11.4487
▁gamin	-11.4489
▁Far	-11.4496
▁arc	-11.4496
▁sales	-11.4497
▁branches	-11.4498
▁offert	-11.45
▁disque	-11.4504
▁auriez	-11.4511
▁acting	-11.4511
▁gras	-11.4513
▁roman	-11.4515
▁abstract	-11.4517
▁diagram	-11.4525
▁measured	-11.4525
▁connecté	-11.4527
▁diminuer	-11.4528
▁banlieue	-11.4529
▁literature	-11.4529
▁September	-11.4529
▁occurred	-11.4529
▁angry	-11.4529
▁steal	-11.4529
▁dossier	-11.4529
▁clue	-11.4529
▁thick	-11.4529
▁resistance	-11.453
▁wireless	-11.453
▁depth	-11.453
▁tubes	-11.4532
▁profits	-11.4533
▁écoute	-11.4535
▁exhibition	-11.4536
tta	-11.4536
▁passive	-11.4537
▁moelle	-11.4538
▁distinction	-11.4539
▁accompli	-11.4543
▁phrases	-11.4545
▁apporte	-11.4546
▁graines	-11.4547
▁creature	-11.4547
▁sensitive	-11.4548
▁defined	-11.4553
▁weigh	-11.4559
▁Men	-11.4562
▁sauter	-11.4565
▁biologiques	-11.4565
▁functions	-11.4569
▁déclin	-11.4571
▁closely	-11.4572
▁Irak	-11.4572
▁professionnels	-11.4574
▁stayed	-11.4575
▁politiciens	-11.4579
▁trouverez	-11.458
▁ancienne	-11.4583
▁siècles	-11.4584
▁paraît	-11.4584
▁impos	-11.4585
▁convert	-11.4588
▁capitalism	-11.4589
▁Only	-11.4594
▁accurate	-11.4604
not	-11.4609
Bretagne	-11.4611
obligation	-11.4611
▁Gandhi	-11.4611
▁Square	-11.4611
▁Unfortunately	-11.4611
▁genius	-11.4611
▁japonais	-11.4611
▁parallèle	-11.4611
▁dîner	-11.4611
▁telephone	-11.4611
▁donnait	-11.4611
▁lointain	-11.4611
▁Sarah	-11.4612
▁gentil	-11.4612
acier	-11.4617
▁événements	-11.4619
▁obsession	-11.462
tel	-11.462
▁borders	-11.4621
ju	-11.4621
▁organique	-11.4622
▁fascinante	-11.4623
▁logic	-11.4624
▁couches	-11.4629
▁2002	-11.463
▁neighbor	-11.4631
animaux	-11.4632
wood	-11.4632
burg	-11.4635
Iran	-11.4639
▁tested	-11.4641
▁functional	-11.4642
▁younger	-11.4643
He	-11.4643
▁solide	-11.4646
▁dépassé	-11.4649
dia	-11.4649
▁evening	-11.4653
▁cro	-11.4653
▁diplomat	-11.4654
wan	-11.4656
era	-11.4658
▁quête	-11.466
▁transformed	-11.4663
▁falling	-11.4665
▁liée	-11.4671
▁levé	-11.4673
▁attaque	-11.4676
▁vagues	-11.4681
▁maîtrise	-11.4682
En	-11.4682
tres	-11.4686
bot	-11.4686
▁remarquer	-11.4687
▁hero	-11.4688
hou	-11.469
▁combustible	-11.4694
▁psychologist	-11.4694
▁religieuse	-11.4694
▁témoin	-11.4694
▁routine	-11.4694
▁senior	-11.4694
▁nowhere	-11.4694
▁dispose	-11.4695
▁préparé	-11.4698
▁amounts	-11.47
urgence	-11.4708
zo	-11.4709
▁épaule	-11.4712
▁armée	-11.4714
▁capteurs	-11.4714
Afghanistan	-11.4715
Comment	-11.4715
▁impacts	-11.4717
▁oreilles	-11.4718
▁portrait	-11.4718
▁traces	-11.4721
▁capitalisme	-11.4722
▁passons	-11.4724
gging	-11.4725
▁hôpital	-11.4725
▁joueur	-11.4727
▁ignorance	-11.4728
▁AK	-11.473
▁tonight	-11.4731
Si	-11.4734
▁busy	-11.4735
cap	-11.4739
▁55	-11.474
lab	-11.4742
awa	-11.4742
▁continuent	-11.4747
▁profondes	-11.4751
▁chip	-11.4757
▁accepter	-11.4762
▁adopté	-11.4766
▁distances	-11.4768
▁ear	-11.4769
▁conscient	-11.4771
▁équilibre	-11.4773
▁liées	-11.4775
▁incident	-11.4776
▁métal	-11.4776
ibility	-11.4777
▁dopamine	-11.4777
▁travaillait	-11.4777
▁domestic	-11.4777
▁météo	-11.4778
▁somewhat	-11.4778
▁occupé	-11.4778
Mo	-11.478
▁Tony	-11.4781
▁coach	-11.4788
▁Albert	-11.4789
▁assurer	-11.479
▁overall	-11.4795
▁burning	-11.4796
▁Simon	-11.4798
ppy	-11.4798
île	-11.4801
▁retirer	-11.4801
▁enquête	-11.4802
▁conçue	-11.4803
OK	-11.4805
▁infecté	-11.4805
çant	-11.4807
▁roads	-11.4808
▁5,000	-11.4809
▁robotique	-11.4809
▁coupe	-11.4811
▁hits	-11.4811
more	-11.4812
▁mice	-11.482
▁Ford	-11.4825
adapter	-11.4828
▁Tra	-11.4835
▁sensors	-11.4836
▁contain	-11.484
law	-11.4852
▁faibles	-11.4858
▁Before	-11.4861
▁Mandela	-11.4861
▁Taliban	-11.4861
▁agricole	-11.4861
▁curiosité	-11.4861
▁désastre	-11.4861
▁economies	-11.4861
▁frustration	-11.4861
▁imaginé	-11.4861
▁manufacture	-11.4861
▁pizza	-11.4861
▁paquet	-11.4861
▁parallel	-11.4861
▁reserve	-11.4861
▁Henry	-11.4861
▁Something	-11.4861
▁engaging	-11.4861
▁laboratory	-11.4861
▁puissiez	-11.4861
aéroport	-11.4861
▁cascade	-11.4862
▁générer	-11.4865
▁2020	-11.4866
▁fingers	-11.4867
▁causing	-11.4867
▁floating	-11.487
▁musicale	-11.487
▁gut	-11.4871
▁Time	-11.4877
▁brin	-11.4878
▁modifié	-11.4878
mettant	-11.4879
infrastructure	-11.4884
étape	-11.4885
▁sonne	-11.4885
▁spécifiques	-11.4887
▁aventure	-11.4894
▁sacré	-11.4897
▁acteurs	-11.4902
▁LT	-11.4905
▁runs	-11.4914
▁Matt	-11.4916
issez	-11.4917
▁fri	-11.4918
▁symbole	-11.4924
My	-11.4935
▁récent	-11.494
▁ressent	-11.4941
écouter	-11.4945
▁apparaît	-11.4945
▁Number	-11.4946
▁diplômé	-11.4946
▁masculin	-11.4946
▁parachute	-11.4946
▁strike	-11.4946
▁étrangère	-11.4946
▁attiré	-11.4946
▁corail	-11.4946
▁regime	-11.4947
▁trouvait	-11.4947
▁hill	-11.4948
oxyde	-11.4949
▁Hall	-11.4954
▁essayent	-11.4956
▁appartement	-11.4957
▁quantités	-11.496
▁Bl	-11.4962
▁emmener	-11.4965
▁wash	-11.4965
▁entrée	-11.4966
ajout	-11.4969
▁2005	-11.4972
▁ayez	-11.4972
▁entraîne	-11.4974
▁volontaire	-11.4974
▁testé	-11.4976
▁retire	-11.4977
▁vessels	-11.4978
inspir	-11.4978
▁urbaine	-11.4981
rap	-11.4982
aging	-11.4991
▁bénéfices	-11.4994
ugh	-11.4996
▁signes	-11.4998
▁ears	-11.5004
▁extinction	-11.5005
▁conclu	-11.5009
▁divide	-11.5015
▁whi	-11.5017
▁edit	-11.5017
▁ingénieur	-11.5023
▁ah	-11.5023
trap	-11.5027
▁froide	-11.503
▁sculpt	-11.503
▁Regardons	-11.5031
▁Seattle	-11.5031
▁bâton	-11.5031
▁flew	-11.5031
▁flood	-11.5031
▁medication	-11.5031
▁partenariat	-11.5031
▁privilège	-11.5031
▁trafic	-11.5031
▁incapable	-11.5031
▁barrier	-11.5031
▁densité	-11.5031
▁pensant	-11.5032
▁chapter	-11.5032
▁consist	-11.5032
asseoir	-11.5032
▁download	-11.5034
tract	-11.5035
▁revue	-11.5035
▁June	-11.5037
▁spéciale	-11.5038
▁passés	-11.5039
▁audio	-11.5042
▁batteries	-11.5042
▁colonne	-11.5042
▁consistent	-11.5048
▁proteins	-11.505
▁équipes	-11.505
▁nécessairement	-11.505
Yeah	-11.5056
▁partagent	-11.5058
book	-11.5061
▁minuscule	-11.5062
▁dozen	-11.5063
▁créature	-11.5063
exprimer	-11.5063
▁wondered	-11.5068
▁pushing	-11.5068
▁altitude	-11.5068
▁trompe	-11.5069
▁supposé	-11.5071
leur	-11.5071
▁attract	-11.5076
▁fixed	-11.508
ouvrir	-11.5084
ference	-11.5084
▁owner	-11.5088
entend	-11.5095
hin	-11.5095
▁rely	-11.5097
rick	-11.5097
▁compt	-11.5101
▁sensor	-11.5101
lac	-11.5101
▁croyances	-11.5112
▁conduis	-11.5112
▁cadeau	-11.5116
▁compliquée	-11.5117
▁couloir	-11.5117
▁jazz	-11.5117
▁littérature	-11.5117
▁trajet	-11.5117
▁Delhi	-11.5117
▁Space	-11.5117
▁external	-11.5118
▁Gold	-11.5118
▁narrow	-11.5118
aucun	-11.5118
toi	-11.5118
▁jeté	-11.5118
▁tentative	-11.5118
▁minister	-11.5118
▁Everyone	-11.5119
▁économistes	-11.5119
▁seuil	-11.5119
▁environnemental	-11.512
▁lifestyle	-11.512
▁multipli	-11.5122
▁dorm	-11.5123
attente	-11.5124
▁Nouvelle	-11.5127
▁rendement	-11.5127
▁empire	-11.5129
▁hydro	-11.513
▁anniversaire	-11.5132
▁jeunesse	-11.5133
▁mentionné	-11.5139
▁expressions	-11.514
▁mâles	-11.5142
échange	-11.5147
▁installations	-11.5147
▁sail	-11.515
▁fragment	-11.515
outil	-11.5151
aiguille	-11.5151
▁examen	-11.5152
▁horizon	-11.5154
▁Ham	-11.5155
▁faced	-11.5163
assemble	-11.5164
▁lions	-11.5165
▁transfer	-11.5167
▁educational	-11.5172
▁cousin	-11.5174
▁adolescent	-11.5174
▁cycles	-11.5175
hour	-11.5176
▁manifest	-11.5178
▁destroy	-11.5179
mal	-11.518
▁bra	-11.5198
▁née	-11.5201
▁tes	-11.5202
▁Bruno	-11.5204
▁dictionnaire	-11.5204
▁emergency	-11.5204
▁library	-11.5204
▁marathon	-11.5204
▁Christmas	-11.5204
▁curieux	-11.5204
▁General	-11.5205
▁birthday	-11.5205
▁poète	-11.5205
▁mines	-11.5206
▁maître	-11.5207
▁Law	-11.5215
▁cassé	-11.5215
▁respirer	-11.5215
▁destroyed	-11.5216
▁pit	-11.5235
▁grille	-11.5236
▁align	-11.5236
▁classic	-11.5239
▁traité	-11.524
▁brevet	-11.524
▁rappel	-11.5243
▁voter	-11.5245
▁motif	-11.5246
All	-11.5249
▁existed	-11.525
▁boxes	-11.525
▁portent	-11.5255
▁avancé	-11.5256
▁trauma	-11.5257
▁souri	-11.5258
But	-11.5261
▁samples	-11.5262
▁Abou	-11.5264
▁excuse	-11.5267
sens	-11.5268
▁signed	-11.5269
▁auteur	-11.5271
▁infection	-11.5273
axe	-11.5274
▁parcours	-11.5275
▁unlike	-11.5278
▁intellectuelle	-11.5278
espérance	-11.5279
▁spatiale	-11.528
▁limitée	-11.5286
▁intégré	-11.5288
ira	-11.5289
▁perce	-11.5291
▁fréquent	-11.5292
▁Voice	-11.5292
▁adventure	-11.5292
▁astronaut	-11.5292
▁fasciné	-11.5292
▁glamour	-11.5292
▁grandfather	-11.5292
▁quelconque	-11.5292
▁struck	-11.5292
▁trigger	-11.5292
▁Gulf	-11.5292
▁preserve	-11.5292
▁humanitaire	-11.5292
▁travaillais	-11.5292
▁Next	-11.5292
▁extent	-11.5292
▁créant	-11.5292
▁Saint	-11.5293
▁comprenez	-11.5294
▁ladies	-11.5296
▁bureaux	-11.5297
▁recette	-11.5297
▁icon	-11.5298
▁douzaine	-11.5298
cell	-11.5298
engager	-11.53
chu	-11.5307
▁évidente	-11.5309
nier	-11.5311
▁breathing	-11.5314
▁PC	-11.5315
ore	-11.5315
▁entoure	-11.5315
▁philosopher	-11.5318
Islam	-11.5319
interaction	-11.5319
émotion	-11.532
roll	-11.532
souris	-11.5321
▁écrivain	-11.5322
▁emmené	-11.5324
vage	-11.5325
▁profiter	-11.5326
called	-11.5326
▁sexuelle	-11.5327
élève	-11.5328
▁repli	-11.5329
tie	-11.5329
▁whale	-11.533
▁collègue	-11.533
▁colonie	-11.5332
▁feeding	-11.5336
▁monkey	-11.5337
▁calculs	-11.5338
▁consume	-11.5343
▁install	-11.5346
▁échantillon	-11.5349
▁Wh	-11.535
▁Brad	-11.5353
▁frappe	-11.5356
▁bull	-11.5356
▁réunir	-11.5356
▁destin	-11.5362
▁connexions	-11.5362
vable	-11.5363
▁privilege	-11.5365
▁diverse	-11.5365
▁existant	-11.5367
▁multiples	-11.5369
▁rebuild	-11.537
▁truck	-11.5373
▁typique	-11.5374
▁conseils	-11.5377
▁compromis	-11.5377
▁Voyez	-11.5381
▁chapitre	-11.5381
▁corporate	-11.5381
▁diapositive	-11.5381
▁measuring	-11.5381
▁procure	-11.5381
▁rejoindre	-11.5381
▁coraux	-11.5381
▁mystery	-11.5381
▁shake	-11.5381
▁Haiti	-11.5381
▁hook	-11.5382
▁Coca	-11.5382
▁hunger	-11.5384
▁apprenons	-11.5384
▁gratuitement	-11.5385
▁Part	-11.5385
▁étudie	-11.5386
▁professionnel	-11.5388
▁enceinte	-11.5388
▁neutral	-11.539
▁Carl	-11.5392
▁sentais	-11.5392
▁personnellement	-11.5392
▁chante	-11.5393
▁pond	-11.5398
▁rarement	-11.5398
▁database	-11.5399
▁Pole	-11.54
▁cheat	-11.54
▁offered	-11.5402
▁rares	-11.5403
▁outcomes	-11.5404
▁Gal	-11.5405
▁apprise	-11.5405
▁sinon	-11.5407
shirt	-11.5408
exploration	-11.5408
▁morte	-11.5409
avance	-11.5413
uvres	-11.5414
▁tropicale	-11.5416
▁conventional	-11.5416
▁exercice	-11.5418
▁channel	-11.5421
▁glacier	-11.5421
▁financier	-11.5421
▁requin	-11.5423
▁army	-11.5425
▁évoluer	-11.5428
▁indique	-11.5433
▁raw	-11.5435
▁presented	-11.5438
▁sculptures	-11.5443
▁provided	-11.5448
▁connait	-11.5449
▁extrême	-11.5449
▁Shar	-11.545
Eh	-11.5453
▁behavioral	-11.546
▁Korea	-11.546
▁relie	-11.5464
▁careful	-11.5469
▁stands	-11.547
aptitude	-11.547
▁Parkinson	-11.547
▁introduit	-11.547
▁transparence	-11.547
ONU	-11.547
▁Greek	-11.547
▁Research	-11.547
▁cricket	-11.547
▁heaven	-11.547
▁Remember	-11.547
▁guard	-11.547
▁paradis	-11.547
▁bourse	-11.547
▁pigeon	-11.547
▁Blue	-11.5471
▁horizontal	-11.5471
▁aliments	-11.5471
▁empêche	-11.5471
▁bombard	-11.5472
▁Stone	-11.5472
ouverture	-11.5473
▁automatiquement	-11.5475
▁docteurs	-11.5483
▁jouets	-11.5486
▁tombée	-11.5486
human	-11.5487
▁circonstances	-11.5488
▁keeps	-11.549
▁linked	-11.5491
▁conduct	-11.5494
▁wherever	-11.5495
▁rendue	-11.5501
ked	-11.5503
▁mises	-11.5506
▁avais	-11.5509
▁customers	-11.5512
▁mutation	-11.5513
▁bactérie	-11.5513
cker	-11.5514
▁proposé	-11.5515
▁analyser	-11.5516
▁utilisation	-11.5519
▁géniale	-11.5525
▁locales	-11.5526
▁flotte	-11.5528
▁label	-11.5532
▁pourront	-11.5533
▁remarque	-11.5537
Fi	-11.5542
▁encounter	-11.5549
▁limits	-11.5549
▁combin	-11.5549
▁puts	-11.5551
▁volé	-11.5552
▁Child	-11.556
digit	-11.556
▁Fellow	-11.556
▁Gabby	-11.556
▁suivent	-11.556
▁jungle	-11.556
▁navire	-11.556
▁soigner	-11.556
▁Basically	-11.556
▁Louis	-11.556
bla	-11.556
▁36	-11.556
artisan	-11.5561
▁sweat	-11.5561
▁disposition	-11.5561
▁discrimination	-11.5561
▁herself	-11.5562
▁provoque	-11.5563
▁situé	-11.5564
▁détruit	-11.5564
▁sides	-11.5568
hood	-11.5573
isons	-11.5574
▁sentez	-11.5575
▁charges	-11.5575
scope	-11.5584
▁drinking	-11.5585
▁lac	-11.5585
▁roulant	-11.5586
cité	-11.5588
mètre	-11.5589
▁fournit	-11.5594
▁electron	-11.5597
élément	-11.5603
▁disorder	-11.5605
▁contribuer	-11.5606
arrêt	-11.5608
▁chercheur	-11.5614
▁infections	-11.5615
▁consult	-11.5616
▁spreading	-11.5616
▁joint	-11.5617
▁montée	-11.5618
▁tue	-11.5633
▁nor	-11.5643
▁prostate	-11.565
▁Brooklyn	-11.5651
▁Shanghai	-11.5651
▁Voix	-11.5651
▁defense	-11.5651
▁identical	-11.5651
▁judgment	-11.5651
▁renewable	-11.5651
▁sponsor	-11.5651
▁territoire	-11.5651
▁comparaison	-11.5651
▁reconstruire	-11.5651
▁civique	-11.5651
▁lecteur	-11.5651
▁magnétique	-11.5651
▁rituel	-11.5651
▁Prenons	-11.5651
▁productivité	-11.5651
▁Media	-11.5651
▁overcome	-11.5652
▁Nike	-11.5652
▁expose	-11.5653
▁décès	-11.5653
▁compound	-11.5655
▁torture	-11.5655
▁diagramme	-11.5655
▁cage	-11.5655
▁precisely	-11.5655
▁autorisé	-11.5657
▁distributed	-11.5657
▁grandissant	-11.5658
▁exploring	-11.5658
▁attendez	-11.5658
▁temple	-11.5662
▁ambition	-11.5667
▁vraies	-11.567
▁Duran	-11.5672
intention	-11.568
ata	-11.5683
▁terrestre	-11.5684
▁voyant	-11.5685
▁équation	-11.5689
▁fatal	-11.5693
appeler	-11.5694
▁latest	-11.5698
▁telescope	-11.5698
iné	-11.5699
take	-11.5699
▁ère	-11.5699
▁deaths	-11.5701
▁facts	-11.5704
erreur	-11.5706
▁350	-11.5708
bling	-11.571
▁economists	-11.5714
▁anger	-11.5717
mus	-11.5728
▁flowers	-11.5735
▁égo	-11.5735
▁meurt	-11.5737
▁électroniques	-11.5739
▁acid	-11.5739
▁190	-11.574
Antarctique	-11.5743
▁Lincoln	-11.5743
▁Pacifique	-11.5743
▁Vraiment	-11.5743
▁automatically	-11.5743
▁faveur	-11.5743
▁frankly	-11.5743
▁spectacular	-11.5743
▁échoué	-11.5743
▁enseigné	-11.5743
▁welcome	-11.5743
autoroute	-11.5743
▁carried	-11.5743
▁footprint	-11.5743
▁léger	-11.5743
▁Avez	-11.5743
abeille	-11.5743
▁commission	-11.5744
▁franchement	-11.5744
▁potentiellement	-11.5746
▁defend	-11.5749
obscurité	-11.5749
▁50%	-11.5749
▁subjects	-11.5749
▁atomes	-11.575
▁détecteur	-11.5752
▁développent	-11.5754
▁coincé	-11.5757
place	-11.5757
gramme	-11.576
▁ends	-11.5762
▁révélé	-11.5763
▁wars	-11.5764
▁empreinte	-11.5765
1,	-11.5766
▁chocolat	-11.5766
laire	-11.5768
application	-11.5773
Okay	-11.5773
▁Cal	-11.5777
▁calculer	-11.5777
▁architects	-11.5778
ède	-11.5782
▁poumons	-11.5782
▁affecte	-11.5786
oid	-11.5788
▁enseigne	-11.5793
▁component	-11.5793
▁whales	-11.5795
▁clouds	-11.5796
▁cable	-11.5798
▁produite	-11.5799
ache	-11.5803
▁activist	-11.5804
▁accomplir	-11.5805
▁chips	-11.581
▁Aucun	-11.581
▁Any	-11.5811
éta	-11.5814
gram	-11.5817
Ne	-11.5818
▁journalistes	-11.5818
égal	-11.5819
unité	-11.5821
1.	-11.5821
12	-11.5822
▁painful	-11.5823
▁lune	-11.5824
▁développée	-11.5825
▁Tell	-11.5827
▁Christ	-11.5829
▁universel	-11.583
▁January	-11.5835
▁column	-11.5835
▁maternelle	-11.5835
▁philosophy	-11.5835
▁plafond	-11.5835
▁pregnant	-11.5835
▁principaux	-11.5835
▁recognition	-11.5835
▁relax	-11.5835
▁déclaré	-11.5835
▁survécu	-11.5835
▁grateful	-11.5835
▁inspiring	-11.5835
▁envahi	-11.5835
▁Temp	-11.5835
▁segment	-11.5836
▁shall	-11.5836
▁spark	-11.5836
▁Finally	-11.5836
▁honey	-11.5836
▁rappelez	-11.5838
▁conservateur	-11.5838
▁promotion	-11.5839
▁2030	-11.584
▁conclude	-11.584
▁sage	-11.5841
▁spinal	-11.5843
▁apport	-11.5845
grad	-11.5845
▁malades	-11.5847
▁calm	-11.5847
▁silent	-11.5852
▁couper	-11.5855
▁Please	-11.5861
▁represented	-11.5861
▁dépensé	-11.5862
▁leap	-11.5863
▁extérieur	-11.5865
▁salt	-11.5865
informatique	-11.5867
épidémie	-11.5867
▁interagir	-11.5869
▁professionnelle	-11.587
add	-11.5871
▁sembler	-11.5872
▁proven	-11.5872
▁achieved	-11.5874
▁rapides	-11.5878
unk	-11.588
▁mess	-11.5881
pending	-11.5883
▁énergies	-11.5895
▁connecting	-11.5898
▁lampe	-11.5899
▁zoo	-11.5899
ssé	-11.5899
▁Fer	-11.5899
▁éclair	-11.5905
▁attaques	-11.5906
▁projection	-11.5906
▁décor	-11.5907
corn	-11.5919
ssement	-11.592
▁poorest	-11.5921
▁envoie	-11.5923
▁industriel	-11.5923
▁encourager	-11.5926
▁killer	-11.5928
▁obsessed	-11.5929
▁strategies	-11.5929
▁thumb	-11.5929
▁vieillissement	-11.5929
▁gamme	-11.5929
▁squelette	-11.5929
▁Jordan	-11.5929
▁mondiaux	-11.5929
▁shelter	-11.5929
▁optimistic	-11.5929
▁Berlin	-11.5929
▁cellulaire	-11.5929
▁romantic	-11.593
▁reconnaissant	-11.593
▁décharge	-11.593
ouest	-11.5933
Institut	-11.5936
▁décide	-11.5937
▁lourd	-11.5939
▁neither	-11.5942
some	-11.5942
▁diable	-11.5943
▁pique	-11.5945
▁shooting	-11.595
huile	-11.5951
▁réagir	-11.5952
▁offers	-11.5952
▁partagée	-11.5953
▁élève	-11.5954
ola	-11.5957
▁fous	-11.596
▁calories	-11.596
▁branche	-11.5966
engagement	-11.5966
▁mor	-11.5967
▁traveled	-11.597
éviter	-11.5971
▁jusque	-11.5972
▁miss	-11.5974
▁candidate	-11.5978
▁serai	-11.5979
▁coins	-11.5982
Tu	-11.5982
▁Wow	-11.5983
▁colleague	-11.5985
And	-11.5987
▁remonter	-11.5991
▁continued	-11.5991
édit	-11.5992
▁déclenche	-11.6001
▁thoughts	-11.6005
▁37	-11.6006
▁traverse	-11.6006
▁rescue	-11.6007
images	-11.6009
▁pri	-11.601
▁traits	-11.601
▁observations	-11.6013
▁infrastructures	-11.6015
▁cordes	-11.6019
▁indien	-11.6022
▁Chinois	-11.6023
▁Heureusement	-11.6023
▁Watson	-11.6023
▁dancing	-11.6023
▁earthquake	-11.6023
▁identifié	-11.6023
▁knock	-11.6023
▁procès	-11.6023
▁recommand	-11.6023
▁éducatif	-11.6023
▁Clinton	-11.6023
▁exclusive	-11.6023
▁orchestra	-11.6023
▁hardware	-11.6023
▁marqué	-11.6023
▁liberal	-11.6023
▁Geographic	-11.6023
▁réfléchissez	-11.6023
▁Asie	-11.6023
▁Revolution	-11.6023
▁cochon	-11.6023
▁Lune	-11.6023
▁dramatically	-11.6024
▁procédure	-11.6024
▁Play	-11.6024
▁raising	-11.6024
ufs	-11.6027
▁patron	-11.6028
▁repose	-11.6029
▁chinoise	-11.6029
▁révéler	-11.603
▁stratégies	-11.6032
▁soyons	-11.6033
▁heureusement	-11.6034
▁iPod	-11.6034
▁génère	-11.6035
illumin	-11.6036
▁Pop	-11.604
aring	-11.6043
▁sacs	-11.6045
15	-11.6047
onné	-11.6049
écart	-11.6057
▁accepted	-11.6059
kar	-11.606
▁conduite	-11.6063
▁élu	-11.6063
pris	-11.6064
▁comparer	-11.6068
zar	-11.607
entraînement	-11.6075
étudier	-11.6075
▁pet	-11.6079
▁voies	-11.6085
person	-11.6089
lay	-11.6098
▁coupable	-11.6099
▁hormones	-11.6099
ît	-11.6102
▁methods	-11.611
▁lung	-11.6111
▁desk	-11.6112
▁Joseph	-11.6118
▁négative	-11.6118
▁réputation	-11.6118
▁immune	-11.6118
▁lunettes	-11.6118
▁copyright	-11.6118
▁productivity	-11.6119
tail	-11.6119
▁rising	-11.6119
▁drove	-11.6119
▁reduction	-11.612
▁90%	-11.6121
▁colline	-11.6121
▁80%	-11.6121
▁vivaient	-11.6121
▁migration	-11.6123
▁Rick	-11.6123
▁méga	-11.6128
▁rejoint	-11.613
oh	-11.6131
De	-11.6133
bilité	-11.6134
late	-11.6136
▁bones	-11.6137
40	-11.614
▁dauphins	-11.6148
▁Was	-11.6149
▁gagnant	-11.615
augmentation	-11.6152
▁brillante	-11.6153
▁Age	-11.6157
wn	-11.6157
▁fixe	-11.6158
▁saisir	-11.6158
gic	-11.6158
▁collecting	-11.6159
▁neuron	-11.616
▁shell	-11.6166
▁performing	-11.6166
▁disorders	-11.6166
▁Gar	-11.6167
▁facial	-11.6175
▁convention	-11.6177
▁citizen	-11.618
éno	-11.618
▁gather	-11.6186
▁architectes	-11.6187
read	-11.6188
▁pompe	-11.6193
▁cash	-11.6193
▁lock	-11.6195
▁Hum	-11.6195
▁moque	-11.6198
▁Pen	-11.6201
▁acts	-11.6206
▁favor	-11.6207
▁brief	-11.6208
▁révèle	-11.6208
▁précédente	-11.6211
videmment	-11.6212
▁Atlantic	-11.6214
▁Jupiter	-11.6214
▁Sweden	-11.6214
▁astonishing	-11.6214
▁enthousiaste	-11.6214
▁grenouille	-11.6214
▁procedure	-11.6214
▁satisfaction	-11.6214
▁simplicité	-11.6214
▁vibration	-11.6214
▁fulfill	-11.6214
▁sketch	-11.6214
▁NSA	-11.6214
▁simulate	-11.6214
▁appeal	-11.6214
▁divisé	-11.6215
▁frog	-11.6216
▁boire	-11.6216
▁weekend	-11.6218
▁elite	-11.6219
▁particip	-11.6219
▁représenté	-11.6222
imagerie	-11.6223
éditeur	-11.6225
▁donnons	-11.6225
▁lait	-11.6226
▁identiques	-11.6227
▁heroes	-11.6228
▁scary	-11.6228
▁servent	-11.6228
type	-11.6228
▁Rand	-11.6231
yo	-11.6232
play	-11.6235
▁rush	-11.6239
▁gray	-11.6239
▁urge	-11.6245
▁Give	-11.6246
century	-11.625
ulate	-11.625
▁pipe	-11.6252
▁Alzheimer	-11.6259
pas	-11.6265
▁tired	-11.6267
▁musiciens	-11.6267
▁intelligentes	-11.6271
offre	-11.6274
▁opinions	-11.6276
▁elephant	-11.6278
▁catégorie	-11.6278
▁sauvage	-11.6279
▁pingouins	-11.6281
▁discuss	-11.6283
▁remercie	-11.6284
▁diminue	-11.6286
▁2005,	-11.6287
▁lutter	-11.6287
▁imagined	-11.629
▁arme	-11.6291
▁surviv	-11.6292
▁youth	-11.6293
▁tours	-11.6294
▁attirer	-11.6295
▁48	-11.6299
urge	-11.6304
▁cruel	-11.6304
▁Get	-11.6304
▁inventor	-11.6305
▁tune	-11.6305
éléphant	-11.631
▁TEDTalk	-11.6311
▁comédie	-11.6311
▁contempl	-11.6311
▁enzyme	-11.6311
▁fluorescent	-11.6311
▁juridique	-11.6311
▁paludisme	-11.6311
▁permanence	-11.6311
▁religieux	-11.6311
▁insurance	-11.6311
▁Ocean	-11.6311
▁allemand	-11.6311
▁stroke	-11.6311
obésité	-11.6311
▁isolated	-11.6311
▁infantile	-11.6312
▁subtle	-11.6312
▁partnership	-11.6312
▁ralentir	-11.6312
▁committed	-11.6312
▁household	-11.6312
▁enemy	-11.6312
▁tremblement	-11.6312
▁installation	-11.6315
▁tribus	-11.6317
▁properly	-11.6317
▁Nu	-11.6318
▁controlling	-11.632
▁racont	-11.6321
▁thrown	-11.6324
▁intact	-11.6324
▁recovery	-11.6326
▁jugement	-11.6326
▁salles	-11.6328
▁demandant	-11.6331
▁fabric	-11.6332
ouvre	-11.6332
▁rhythm	-11.6335
▁annonce	-11.6336
clé	-11.6339
▁contrairement	-11.6339
▁increases	-11.6342
▁singe	-11.6347
architecte	-11.6347
dessous	-11.6348
exposition	-11.6348
▁craft	-11.6349
▁mammals	-11.6351
▁africaine	-11.6354
ways	-11.6357
wing	-11.6357
oxi	-11.636
▁savings	-11.636
▁présents	-11.6365
▁plongée	-11.6365
▁soirée	-11.6366
▁âme	-11.6369
▁personnelles	-11.6379
comb	-11.638
vy	-11.6381
▁seeds	-11.6382
▁transports	-11.6383
▁concentr	-11.6384
▁Lorsqu	-11.6385
▁bla	-11.639
▁computation	-11.6392
▁extinct	-11.6392
▁tie	-11.6393
▁imprimé	-11.6398
▁taxi	-11.6403
▁batte	-11.6405
▁brothers	-11.6407
ivité	-11.6409
▁vaccines	-11.6409
▁varie	-11.6409
▁Feynman	-11.6409
▁Grâce	-11.6409
▁PDG	-11.6409
▁curiosity	-11.6409
▁elsewhere	-11.6409
▁guarantee	-11.6409
▁poussière	-11.6409
▁Cuba	-11.6409
▁conservative	-11.641
▁mainly	-11.641
▁brown	-11.641
▁stack	-11.641
▁fascinated	-11.6411
évoque	-11.6412
▁ramène	-11.6413
▁salon	-11.6414
▁contest	-11.6415
affaire	-11.6418
▁métro	-11.6418
▁personality	-11.6419
▁pouce	-11.642
▁faisions	-11.6421
▁album	-11.6421
▁mangent	-11.6423
▁colony	-11.6425
▁beliefs	-11.6426
▁progression	-11.6429
▁appeared	-11.6431
▁cheaper	-11.6433
▁teams	-11.6435
▁crédit	-11.6435
gli	-11.6443
▁affiche	-11.6443
Angleterre	-11.6446
dollar	-11.6447
▁interacting	-11.6448
orse	-11.6448
ours	-11.6449
ridge	-11.6449
▁falls	-11.645
▁consumers	-11.6452
▁Eve	-11.6456
▁males	-11.6456
ality	-11.6457
habitants	-11.6458
▁archives	-11.6459
▁fo	-11.646
▁financiers	-11.6463
▁associé	-11.6464
pic	-11.6464
▁Rob	-11.6465
▁wage	-11.6467
▁organisme	-11.6469
▁prototypes	-11.6471
▁ban	-11.6472
▁fondé	-11.6474
Art	-11.6474
▁slides	-11.6477
▁mono	-11.6479
▁mâle	-11.648
▁ressource	-11.648
▁naturels	-11.6482
▁sanguin	-11.6484
rend	-11.6487
▁involves	-11.6487
▁défend	-11.6489
▁magnetic	-11.6498
▁Ses	-11.6499
▁saine	-11.6506
▁vues	-11.6506
▁Commençons	-11.6508
▁Ethiopia	-11.6508
▁configuration	-11.6508
▁déplacé	-11.6508
▁embedded	-11.6508
▁lucratif	-11.6508
▁prothèse	-11.6508
▁recommend	-11.6508
▁recruit	-11.6508
▁lobby	-11.6508
▁plenty	-11.6508
▁diapo	-11.6509
▁vallée	-11.6509
▁guitar	-11.6509
▁vice	-11.6509
▁diffusion	-11.6509
▁pèse	-11.6509
▁contrat	-11.6509
▁signification	-11.6509
▁dérange	-11.6511
▁wise	-11.6511
▁garanti	-11.6512
▁entertainment	-11.6512
▁River	-11.6512
▁intersection	-11.6513
▁construisent	-11.6513
▁secondaires	-11.6517
▁MK	-11.6519
▁clés	-11.652
▁axe	-11.6521
vaient	-11.6523
▁demandait	-11.6525
▁arriv	-11.6526
▁réserves	-11.6528
▁estimation	-11.6531
▁mandat	-11.6532
▁entered	-11.6532
▁profil	-11.6534
▁tuna	-11.6537
▁ignor	-11.6538
▁Ross	-11.6538
ua	-11.6539
▁assemble	-11.654
uer	-11.654
▁1900	-11.6542
▁numériques	-11.6542
▁racines	-11.6542
▁till	-11.6544
phone	-11.6545
▁descendu	-11.6547
field	-11.6547
▁dépasse	-11.655
▁ok	-11.655
▁neighborhoods	-11.655
istan	-11.6555
Let	-11.6556
▁laid	-11.6565
▁échantillons	-11.6565
▁constante	-11.6568
ched	-11.657
lose	-11.657
▁intime	-11.6571
▁practices	-11.6579
▁femelle	-11.6581
▁volunteer	-11.6582
▁diverses	-11.6582
▁refus	-11.6582
▁Make	-11.6583
▁chocolate	-11.6583
▁melt	-11.6589
applique	-11.6592
▁windows	-11.6592
▁détermine	-11.6593
▁fourni	-11.6594
phal	-11.6594
▁Chi	-11.6601
▁pyramide	-11.6602
▁préfère	-11.6603
▁ordinaire	-11.6603
CA	-11.6608
▁Shakespeare	-11.6608
▁cooperation	-11.6608
▁crâne	-11.6608
▁tragédie	-11.6608
▁vegetable	-11.6608
▁policier	-11.6608
▁module	-11.6608
▁programmation	-11.6608
▁permettez	-11.6609
Histoire	-11.6609
▁Alexander	-11.6609
▁commerciale	-11.6609
▁Suède	-11.6609
▁liver	-11.6609
▁secours	-11.6609
▁relié	-11.661
▁spill	-11.6611
▁demonstration	-11.6612
▁Kar	-11.6612
▁tempête	-11.6612
▁moustiques	-11.6612
▁papa	-11.6612
▁souffrent	-11.6614
▁tower	-11.6614
dit	-11.6614
▁îles	-11.6614
▁déclaration	-11.6614
▁paradox	-11.6615
▁potable	-11.6615
▁100%	-11.6616
▁demandais	-11.6616
▁bière	-11.6617
▁calculate	-11.6618
▁constaté	-11.6624
▁attached	-11.6625
▁missed	-11.6625
▁construis	-11.6626
▁norm	-11.6632
list	-11.6634
▁removed	-11.6634
iber	-11.6635
▁walks	-11.664
▁intentions	-11.6642
▁pushed	-11.6642
▁Ted	-11.6643
accident	-11.6647
▁tries	-11.6651
▁col	-11.6654
étranger	-11.6655
▁tar	-11.6656
free	-11.6658
▁appears	-11.6659
▁odeur	-11.666
▁profile	-11.6662
vienne	-11.6667
anti	-11.6668
▁recognized	-11.6669
▁recon	-11.667
▁lay	-11.6673
▁radicale	-11.6674
▁établir	-11.6676
▁réunis	-11.6676
▁Australie	-11.6676
▁tendances	-11.6677
sseur	-11.6678
▁reaching	-11.6678
▁compren	-11.668
▁portraits	-11.6682
▁dust	-11.6683
maker	-11.6683
▁Bal	-11.6684
▁camion	-11.6685
▁31	-11.6685
▁particle	-11.6687
▁designs	-11.6688
▁placed	-11.6692
version	-11.6693
▁opérations	-11.67
▁globally	-11.6701
arc	-11.6702
▁doctorat	-11.6703
▁fus	-11.6703
▁automatique	-11.6703
▁légère	-11.6703
▁rough	-11.6705
▁Titan	-11.6707
▁Jonathan	-11.6709
▁coordination	-11.6709
▁cosmos	-11.6709
▁dignité	-11.6709
▁déterminé	-11.6709
▁reflète	-11.6709
▁représentant	-11.6709
▁Arthur	-11.6709
▁asteroid	-11.6709
▁clavier	-11.6709
▁divorce	-11.6709
▁traduit	-11.6709
▁passenger	-11.6709
▁pursue	-11.671
▁vouliez	-11.671
▁Mountain	-11.671
▁sondage	-11.671
▁transaction	-11.671
▁pretend	-11.6711
▁blame	-11.6713
▁prisonniers	-11.6713
▁Turn	-11.6713
▁mesuré	-11.6713
▁restore	-11.6714
▁darkness	-11.6716
▁ceiling	-11.6717
▁usines	-11.6718
▁Russian	-11.6724
▁virtually	-11.6725
▁effectué	-11.6725
▁hypothèse	-11.6726
▁basique	-11.6726
▁divided	-11.6728
individus	-11.6749
▁crises	-11.6749
Australie	-11.6749
▁Kim	-11.6757
▁accent	-11.6758
▁épi	-11.6759
▁kilo	-11.6765
▁récolte	-11.6767
▁inverse	-11.677
▁sets	-11.6772
▁protecting	-11.6774
▁écrite	-11.6775
entrer	-11.6775
▁marchent	-11.6776
▁émotionnel	-11.6776
▁domain	-11.6776
▁mec	-11.6784
▁laboratoires	-11.6784
oop	-11.6785
▁cute	-11.6786
▁antibiotics	-11.6787
▁dépenses	-11.6787
aspir	-11.6788
▁lawyer	-11.6789
▁weapon	-11.679
▁africains	-11.679
▁breaking	-11.679
▁Rose	-11.6792
allons	-11.6793
▁graves	-11.6793
▁rein	-11.6793
▁ét	-11.6793
▁hey	-11.6794
▁ethical	-11.6796
venir	-11.6803
▁addict	-11.6805
▁mimic	-11.6807
▁cesse	-11.6808
▁Ali	-11.681
▁sensibles	-11.681
▁gigantesque	-11.6812
▁mushroom	-11.6812
▁obesity	-11.6812
▁scratch	-11.6812
▁traduire	-11.6812
▁écouté	-11.6812
▁surmonter	-11.6812
▁Larry	-11.6812
▁density	-11.6812
▁hungry	-11.6812
▁1999	-11.6812
▁underground	-11.6812
▁shopping	-11.6812
▁remix	-11.6812
▁constitution	-11.6812
▁universities	-11.6813
▁Wright	-11.6813
▁coopération	-11.6813
▁expectations	-11.6814
▁obstacle	-11.6816
▁réside	-11.6816
▁pyramid	-11.6818
▁Never	-11.6819
raw	-11.6819
▁réunions	-11.6822
▁cod	-11.6823
▁usual	-11.6823
▁sonore	-11.6823
▁Dis	-11.6828
▁crying	-11.6834
▁couples	-11.6836
▁industrie	-11.6836
▁reported	-11.684
▁assistant	-11.6842
▁lovely	-11.6846
▁corals	-11.685
▁paire	-11.6851
▁72	-11.6853
▁soutenu	-11.6853
▁captured	-11.6854
▁pad	-11.6856
▁cardiaques	-11.686
▁Quelles	-11.686
▁ouvre	-11.6861
▁influencé	-11.6861
▁printer	-11.6863
▁mutations	-11.6865
▁confront	-11.6865
▁crops	-11.6866
▁gris	-11.6867
▁monkeys	-11.687
ark	-11.687
ink	-11.6876
▁dispute	-11.688
▁roche	-11.6889
▁Win	-11.6889
▁baleine	-11.6894
▁producteur	-11.6895
▁analyze	-11.6899
▁remplir	-11.6899
▁universités	-11.6899
▁semi	-11.6901
▁god	-11.6906
▁deviendra	-11.6911
▁historical	-11.6911
▁Lee	-11.6914
▁transmit	-11.6914
▁DVD	-11.6915
▁Président	-11.6915
▁bidonville	-11.6915
▁dioxide	-11.6915
▁flèche	-11.6915
▁improbable	-11.6915
▁obsédé	-11.6915
▁pixel	-11.6915
▁rainforest	-11.6915
▁regulation	-11.6915
▁ridiculous	-11.6915
▁vôtre	-11.6915
▁confident	-11.6915
▁federal	-11.6915
▁raisonnable	-11.6915
▁Nothing	-11.6915
▁yield	-11.6915
▁request	-11.6915
▁textbook	-11.6915
imitation	-11.6915
▁senses	-11.6915
▁costume	-11.6915
▁palm	-11.6916
▁discoveries	-11.6916
▁Social	-11.6917
▁dot	-11.6917
▁paintings	-11.6917
▁Islamic	-11.6918
actu	-11.6918
▁démontré	-11.6918
▁highlight	-11.6919
▁dirty	-11.6921
▁sexes	-11.6921
▁Elizabeth	-11.6922
▁Rock	-11.6925
▁banal	-11.6926
▁lake	-11.6926
▁boil	-11.6926
▁fiable	-11.693
▁atteinte	-11.6931
▁representation	-11.6932
activ	-11.6933
▁resolution	-11.6934
▁grows	-11.6934
▁penguins	-11.6935
▁bain	-11.6936
▁opposition	-11.6936
issait	-11.6936
▁laughing	-11.6937
space	-11.6938
▁paradigme	-11.6939
▁affirm	-11.6939
▁efficacement	-11.6939
▁apparaître	-11.694
▁fusée	-11.694
▁émett	-11.6941
▁grosses	-11.6941
▁volunteers	-11.6942
▁maintien	-11.6947
▁oiseau	-11.6949
▁abus	-11.6949
▁SW	-11.695
▁forts	-11.6952
▁March	-11.6952
▁paraître	-11.6954
▁banks	-11.6955
▁Home	-11.6955
incroyable	-11.6957
▁coups	-11.6958
▁antibiotiques	-11.6961
▁arrivez	-11.6963
▁cub	-11.6963
apprécie	-11.6969
▁développés	-11.6971
▁achet	-11.6974
▁Van	-11.6975
▁rapid	-11.6976
▁attaché	-11.6977
▁performances	-11.6977
ander	-11.6977
iness	-11.6978
▁cancers	-11.6981
▁remet	-11.6982
▁mouche	-11.7002
▁units	-11.7003
▁unité	-11.7005
▁confrontés	-11.7007
▁Force	-11.7008
▁boss	-11.701
Ce	-11.7011
▁intérieur	-11.7012
▁aside	-11.7017
▁tricks	-11.7018
▁Charlie	-11.7019
▁Department	-11.7019
▁ONG	-11.7019
▁consensus	-11.7019
▁dignity	-11.7019
▁pioneer	-11.7019
▁printemps	-11.7019
▁chief	-11.7019
▁Girl	-11.7019
▁financé	-11.7019
▁worm	-11.7019
▁perçu	-11.7019
▁adjust	-11.7019
▁demographic	-11.7019
▁microphone	-11.7019
▁vieil	-11.702
▁borrow	-11.702
▁oublier	-11.702
▁soudainement	-11.702
▁apprécier	-11.702
ivity	-11.7021
▁dedicated	-11.7023
▁footage	-11.7024
▁revoir	-11.7026
▁kg	-11.7026
▁collectif	-11.7026
▁spoken	-11.7028
▁feront	-11.703
▁Back	-11.703
âme	-11.7032
▁évidence	-11.7033
▁debt	-11.7036
▁nid	-11.7037
▁bend	-11.7039
▁meetings	-11.704
▁partageons	-11.704
▁défendre	-11.704
fil	-11.7042
éclairage	-11.7043
▁département	-11.7048
▁promet	-11.7049
▁papers	-11.705
▁doué	-11.7052
aviez	-11.7053
Man	-11.7054
▁Africans	-11.7057
Ah	-11.706
▁seules	-11.7064
çons	-11.7066
but	-11.7074
▁acquis	-11.7075
▁transporter	-11.7079
▁brevets	-11.7081
▁Angleterre	-11.7084
▁pray	-11.7091
▁ondes	-11.7091
▁orbite	-11.7092
▁Comp	-11.7095
▁normes	-11.7095
▁amateurs	-11.71
attendre	-11.7104
▁infini	-11.7104
elect	-11.7108
▁connectés	-11.7109
ça	-11.7111
200	-11.7121
▁Woman	-11.7124
▁agencies	-11.7124
▁diabetes	-11.7124
▁diabète	-11.7124
▁festival	-11.7124
▁furniture	-11.7124
▁glucose	-11.7124
▁peindre	-11.7124
▁militant	-11.7124
▁disgust	-11.7124
▁slogan	-11.7124
▁enlevé	-11.7124
▁jouet	-11.7124
▁wrap	-11.7125
▁refugee	-11.7126
▁jolie	-11.7126
▁reconstruction	-11.7127
▁marée	-11.7127
▁airport	-11.7128
▁package	-11.7129
▁reprendre	-11.713
▁mangé	-11.7131
▁régler	-11.7131
▁unlikely	-11.7132
▁diagnosed	-11.7133
▁association	-11.7133
▁50,000	-11.7134
▁editor	-11.7134
▁indienne	-11.7136
There	-11.7136
▁Bali	-11.7137
▁Medica	-11.7138
▁20,000	-11.714
▁banques	-11.7145
▁brute	-11.7145
▁axis	-11.7145
▁découvre	-11.7146
▁créatifs	-11.7147
▁fortement	-11.7148
▁delivered	-11.7151
▁vole	-11.716
organisme	-11.7161
▁magical	-11.7163
pression	-11.7163
humain	-11.7164
▁mécanismes	-11.7167
▁McC	-11.7167
essentiel	-11.7168
empêcher	-11.7169
level	-11.7169
▁JH	-11.7173
▁oldest	-11.7179
▁dump	-11.7179
▁absence	-11.718
▁Aux	-11.7182
▁attraper	-11.7183
▁electro	-11.7184
▁searching	-11.7186
▁casse	-11.7191
▁gate	-11.7191
▁!"	-11.7192
▁forcé	-11.7197
herbe	-11.7208
▁mets	-11.7208
▁hire	-11.7217
▁citoyen	-11.7217
bran	-11.7219
▁chest	-11.7221
▁régul	-11.7221
oui	-11.7223
▁assign	-11.7225
▁issu	-11.7225
▁perdue	-11.7228
▁Stewart	-11.723
▁advertising	-11.723
▁anecdote	-11.723
▁bulb	-11.723
▁ennuyeux	-11.723
▁fantôme	-11.723
▁prouvé	-11.723
▁retenir	-11.723
▁skeleton	-11.723
▁tragedy	-11.723
▁output	-11.7231
▁parlais	-11.7231
▁gesture	-11.7231
▁prostitution	-11.7231
▁sharp	-11.7231
▁hostile	-11.7231
▁macro	-11.7232
▁tapir	-11.7234
▁arrivons	-11.7235
▁affordable	-11.7236
▁urgent	-11.7237
▁fame	-11.7237
▁déplacent	-11.7239
▁Santa	-11.724
▁sérieuse	-11.724
▁upset	-11.724
▁surrounding	-11.7241
fait	-11.7241
▁victime	-11.7241
▁locked	-11.7243
▁grimp	-11.7245
agé	-11.7245
▁10%	-11.7247
▁describes	-11.7247
▁autonomous	-11.7248
▁tranquille	-11.725
▁ensure	-11.725
▁essaient	-11.7251
▁printed	-11.7253
▁champignons	-11.7254
▁refugees	-11.7254
▁drag	-11.726
▁étendue	-11.726
évit	-11.7271
▁fuite	-11.7271
▁couch	-11.7272
▁quo	-11.7276
illusion	-11.7276
aspect	-11.7276
▁Indeed	-11.7282
▁hack	-11.7288
charge	-11.7288
▁repos	-11.7289
ouer	-11.7292
▁Julian	-11.7298
▁invisibles	-11.7299
▁priv	-11.7301
▁dise	-11.7304
affaires	-11.7308
▁étais	-11.731
▁prices	-11.7313
▁mobiles	-11.7314
▁activate	-11.7314
▁baisser	-11.7315
gro	-11.7316
▁augment	-11.7317
▁Up	-11.7321
élection	-11.7321
▁rond	-11.7322
▁éclat	-11.7323
▁capita	-11.7324
▁parasite	-11.7326
▁supplémentaire	-11.7327
▁entrent	-11.7329
▁Monde	-11.733
▁légale	-11.733
▁panel	-11.733
▁settle	-11.733
▁wings	-11.7333
▁destiné	-11.7333
▁terror	-11.7335
▁merveille	-11.7337
▁étrangers	-11.7337
immédiat	-11.7338
▁annoncé	-11.7338
▁breakthrough	-11.7338
▁licence	-11.7338
▁messieurs	-11.7338
▁transparency	-11.7338
▁vacances	-11.7338
▁resolve	-11.7338
▁ultime	-11.7338
▁replicate	-11.7338
▁sachant	-11.7338
▁array	-11.7339
▁animé	-11.7339
hang	-11.734
▁apparaissent	-11.734
▁inégalités	-11.7342
roy	-11.7343
▁confortable	-11.7343
▁vivait	-11.7344
▁apparently	-11.7344
▁tasks	-11.7346
▁tourist	-11.7348
▁publier	-11.7349
▁bête	-11.7351
▁illustration	-11.7353
Ouest	-11.7353
▁Homo	-11.7353
▁sheep	-11.7353
▁pace	-11.7355
▁38	-11.7356
▁geo	-11.7357
▁extraire	-11.7359
illion	-11.7364
▁expertise	-11.7365
▁entendez	-11.7368
▁combiné	-11.737
▁origines	-11.7371
erial	-11.7372
▁indépendant	-11.7373
▁investing	-11.7376
▁Out	-11.7376
▁incentives	-11.7377
▁actif	-11.7386
alimentation	-11.7387
inverse	-11.7387
▁generated	-11.739
▁donor	-11.739
▁principales	-11.7398
▁sexuelles	-11.7401
▁coupé	-11.7405
▁mega	-11.7405
▁minuscules	-11.7407
teen	-11.741
▁emails	-11.7413
▁contains	-11.7414
▁surely	-11.7415
▁proposer	-11.7417
▁océan	-11.7419
▁suffi	-11.7422
▁Bor	-11.7424
gypte	-11.7428
▁visited	-11.7428
eaux	-11.7431
▁construct	-11.7431
▁retiré	-11.7436
Can	-11.7439
▁nurse	-11.7441
▁déteste	-11.7442
tron	-11.7443
▁drivers	-11.7444
▁Environ	-11.7446
▁SETI	-11.7447
▁accelerate	-11.7447
▁biodiversité	-11.7447
▁boundaries	-11.7447
▁frozen	-11.7447
▁magnitude	-11.7447
▁pharmaceutique	-11.7447
▁significatif	-11.7447
▁smoking	-11.7447
▁tangible	-11.7447
alcool	-11.7447
▁legacy	-11.7447
▁skull	-11.7447
▁programming	-11.7447
▁freak	-11.7447
▁minimal	-11.7447
trol	-11.7448
▁vingt	-11.7448
▁physicien	-11.7448
▁diront	-11.7449
▁charity	-11.7449
▁Harry	-11.7449
essayais	-11.7449
▁Olympic	-11.745
▁ingredients	-11.7451
position	-11.7451
▁Data	-11.7453
▁analog	-11.7454
▁announced	-11.7456
▁opposed	-11.7457
▁exponentielle	-11.7458
▁nucléaires	-11.7459
▁fifth	-11.7459
▁parvenir	-11.7461
ête	-11.7462
▁attendent	-11.7464
▁aimez	-11.7464
▁exposed	-11.7466
▁Lors	-11.7469
ological	-11.7473
▁adapté	-11.7474
▁sanguins	-11.7474
éco	-11.7476
▁achievement	-11.7477
▁couvrir	-11.7479
▁perspectives	-11.748
▁proof	-11.7482
▁restait	-11.7485
▁dév	-11.7488
▁bound	-11.749
▁fenêtres	-11.7493
▁Us	-11.7493
ingénieur	-11.7494
▁roots	-11.7496
▁appliquer	-11.7499
▁traditionnel	-11.7504
▁pourcent	-11.7504
▁Allons	-11.7505
▁abri	-11.7505
▁paie	-11.7506
▁inventer	-11.7509
▁44	-11.751
▁victim	-11.7514
▁bosse	-11.7523
▁créateurs	-11.7525
▁employer	-11.7527
Union	-11.7528
▁ajoute	-11.753
armes	-11.7536
▁produces	-11.7538
invention	-11.7545
▁establish	-11.7545
▁causé	-11.7546
▁péri	-11.7547
▁laissent	-11.7551
accompagn	-11.7555
▁posée	-11.7556
▁favela	-11.7557
▁fédéral	-11.7557
▁précoce	-11.7557
▁serpent	-11.7557
▁simplicity	-11.7557
▁smooth	-11.7557
▁supermarché	-11.7557
▁transistor	-11.7557
▁twist	-11.7557
▁tackle	-11.7557
▁monnaie	-11.7557
▁acknowledge	-11.7557
▁Joshua	-11.7557
▁ugly	-11.7557
▁Disney	-11.7557
▁remède	-11.7557
▁fool	-11.7558
▁2013	-11.7558
▁nerf	-11.7558
▁reporter	-11.7559
▁Kong	-11.7561
▁brisé	-11.7562
▁parcourir	-11.7563
product	-11.7564
▁ramp	-11.7565
amis	-11.7565
▁perfection	-11.7565
▁intéressés	-11.7566
usine	-11.7567
▁survivor	-11.7568
▁lobe	-11.7569
▁20%	-11.757
▁méta	-11.757
▁possèdent	-11.7571
▁solaires	-11.7573
▁déplacement	-11.7575
venant	-11.7576
▁Unies	-11.7577
▁rooms	-11.7577
▁proper	-11.7577
▁bars	-11.7578
▁disappeared	-11.758
▁stupéfiant	-11.7586
▁farmer	-11.7589
▁painted	-11.7589
▁considérable	-11.7593
▁avancée	-11.7594
aura	-11.7599
▁dormir	-11.76
llowing	-11.7604
enseignant	-11.7605
avis	-11.7608
word	-11.7608
▁calculation	-11.7608
▁conflicts	-11.7609
▁lamp	-11.7611
▁Poli	-11.7616
▁temp	-11.7621
▁Bel	-11.7628
▁dolphins	-11.7628
▁indépendante	-11.7632
▁île	-11.7632
▁démontre	-11.7633
▁mold	-11.7639
▁carrés	-11.7649
▁Isra	-11.7651
▁Str	-11.7652
▁constitué	-11.7652
▁volcan	-11.7657
▁tapis	-11.7657
▁porté	-11.7659
▁bow	-11.7659
arri	-11.7662
▁statistique	-11.7666
▁util	-11.7667
▁Berkeley	-11.7668
▁Monterey	-11.7668
▁anonyme	-11.7668
▁anxiety	-11.7668
▁immunitaire	-11.7668
▁soulève	-11.7668
▁Church	-11.7668
▁tragic	-11.7668
▁mysterious	-11.7668
▁backwards	-11.7668
▁Children	-11.7668
▁ooh	-11.7668
▁recours	-11.7668
▁shore	-11.7668
▁slavery	-11.7668
▁theories	-11.7669
▁puisqu	-11.7669
▁civic	-11.7669
▁limitations	-11.767
▁twin	-11.7671
▁géo	-11.7672
bed	-11.7672
▁Antarctica	-11.7672
în	-11.7674
▁secondaire	-11.7674
▁vivez	-11.7674
▁tale	-11.7675
▁prévoir	-11.7675
▁manipulation	-11.7677
▁invitation	-11.7679
fold	-11.7679
▁fermiers	-11.768
▁plait	-11.7681
nière	-11.7682
▁Jean	-11.7685
ifying	-11.7685
▁attendant	-11.7686
▁2003,	-11.7691
grand	-11.7692
▁bulles	-11.7693
▁visiter	-11.7696
▁mienne	-11.7698
▁fabrique	-11.7698
▁bother	-11.7701
▁failing	-11.7701
▁constater	-11.7702
▁examiner	-11.7704
▁habits	-11.7705
▁interfaces	-11.7707
ppe	-11.7708
▁canal	-11.771
▁served	-11.771
made	-11.771
▁collabor	-11.7711
temps	-11.7716
Wow	-11.7721
▁écho	-11.7721
▁ill	-11.7722
▁trouvée	-11.7724
ister	-11.7725
article	-11.7725
▁JF	-11.7727
▁bloc	-11.7727
▁Jill	-11.7728
▁extrêmes	-11.7729
▁secteurs	-11.7729
▁comics	-11.7735
▁speaker	-11.7739
▁statue	-11.774
▁2004	-11.7745
▁affecté	-11.7745
▁marin	-11.7747
▁persuade	-11.7748
▁nager	-11.7749
▁inventions	-11.7749
cole	-11.7753
▁rapports	-11.7758
▁touched	-11.7763
▁posséd	-11.7764
tude	-11.7764
▁symboles	-11.7766
▁tenté	-11.7767
▁interrupt	-11.777
▁investissement	-11.7771
▁interpret	-11.7774
algré	-11.7775
intéressent	-11.7776
▁consequence	-11.7779
▁Mesdames	-11.778
▁Narrator	-11.778
▁Uganda	-11.778
▁autrefois	-11.778
▁divertissement	-11.778
▁patrimoine	-11.778
▁shrimp	-11.778
▁signifiait	-11.778
▁uncomfortable	-11.778
▁victoire	-11.778
▁August	-11.778
▁enhance	-11.778
▁Luther	-11.778
▁Edward	-11.7781
▁governance	-11.7781
▁fuels	-11.7781
▁viable	-11.7781
▁manifestation	-11.7782
▁attentes	-11.7782
▁Michel	-11.7783
▁dépendance	-11.7783
▁synthetic	-11.7784
▁infect	-11.7785
▁toys	-11.7785
▁Really	-11.7786
▁comparable	-11.7787
ending	-11.7788
▁integrated	-11.7789
▁allions	-11.7791
▁poussent	-11.7792
▁tableaux	-11.7793
uds	-11.7793
▁fassent	-11.7794
▁pink	-11.7795
▁rocks	-11.7797
▁Luc	-11.7799
▁constitu	-11.7799
▁tied	-11.78
rise	-11.7803
▁enlever	-11.7804
▁bin	-11.7804
élan	-11.7806
▁hanging	-11.7807
bes	-11.7808
▁menu	-11.7808
unclear	-11.7808
▁interventions	-11.781
▁insect	-11.781
▁ouverts	-11.7815
▁pleurer	-11.7816
▁soumis	-11.7816
▁dirigeant	-11.7816
▁Jay	-11.7817
▁permettra	-11.7819
▁transit	-11.7823
▁photography	-11.7823
▁conclusions	-11.7824
▁Cinq	-11.7825
▁bonus	-11.7826
▁étages	-11.7827
▁tiennent	-11.7831
▁plonge	-11.7831
égé	-11.7832
▁layers	-11.7832
individu	-11.7833
▁roul	-11.7833
25	-11.7835
▁devienne	-11.7836
▁46	-11.7836
▁grains	-11.784
▁wanting	-11.7845
▁intérieure	-11.7847
▁chapeau	-11.7847
▁leak	-11.7847
▁cultiv	-11.7848
▁appren	-11.7853
▁paysages	-11.7854
▁realm	-11.7856
▁spell	-11.7856
équipement	-11.7857
abri	-11.7859
▁guns	-11.7859
▁Maria	-11.7859
épargne	-11.7861
▁tasse	-11.7863
▁focusing	-11.7867
▁passager	-11.7871
bble	-11.7872
▁aveugles	-11.7876
▁tears	-11.7882
▁witness	-11.7882
▁réalisée	-11.7883
▁biologistes	-11.7883
▁gliss	-11.7885
▁characteristics	-11.7887
▁universelle	-11.7888
▁variables	-11.7893
enthousiasme	-11.7894
▁agricultural	-11.7894
▁compelling	-11.7894
▁decrease	-11.7894
▁garbage	-11.7894
▁reputation	-11.7894
▁traduction	-11.7894
▁Nathan	-11.7894
▁précieuse	-11.7894
▁tranche	-11.7894
▁qualifié	-11.7894
▁ethnic	-11.7894
▁agency	-11.7894
▁sacred	-11.7894
▁Sierra	-11.7894
▁connaissais	-11.7894
▁percevoir	-11.7894
▁naked	-11.7894
▁abordable	-11.7894
▁Laden	-11.7895
▁variable	-11.7895
▁130	-11.7895
▁conseiller	-11.7895
▁obtenons	-11.7896
▁millier	-11.7896
▁varié	-11.7897
▁passions	-11.7897
▁amongst	-11.7898
▁habitudes	-11.7899
▁hop	-11.7899
▁4,000	-11.7899
▁granted	-11.79
▁totalité	-11.79
ouver	-11.79
▁refuse	-11.7905
▁researcher	-11.7907
▁Put	-11.7908
▁démontrer	-11.7911
▁bel	-11.7911
▁drawn	-11.7914
▁mouches	-11.7914
▁avancées	-11.7914
▁cabinet	-11.7914
▁fourmi	-11.7918
▁Dave	-11.7921
▁taxes	-11.7923
▁pirate	-11.7923
▁accéder	-11.7924
▁bang	-11.7926
▁abandonner	-11.7927
▁légumes	-11.793
▁sauvages	-11.7933
▁théories	-11.7936
▁impressionnant	-11.7937
▁poli	-11.7939
▁devise	-11.794
▁rating	-11.7941
▁Allemagne	-11.7945
▁ailes	-11.7947
olds	-11.7948
▁guérir	-11.7949
oreille	-11.7956
touch	-11.796
zero	-11.7965
▁900	-11.7966
attaquer	-11.7967
▁verts	-11.7967
▁dozens	-11.7967
cade	-11.7969
▁brillant	-11.797
▁anciennes	-11.7984
égard	-11.7986
▁picking	-11.7989
▁terrorist	-11.7993
anda	-11.7994
▁critiques	-11.7994
▁accro	-11.7999
▁circul	-11.8002
▁exc	-11.8002
▁souffre	-11.8003
▁dial	-11.8008
▁Atlanta	-11.8009
▁démographique	-11.8009
▁explode	-11.8009
▁identified	-11.8009
▁multinational	-11.8009
▁struggling	-11.8009
▁subvention	-11.8009
▁étonnamment	-11.8009
▁Jersey	-11.8009
▁northern	-11.8009
▁broadcast	-11.8009
▁kiss	-11.8009
▁slice	-11.8009
▁Faites	-11.8009
▁aircraft	-11.8009
▁ingrédients	-11.8009
▁Things	-11.8009
▁interdit	-11.801
▁Susan	-11.801
▁régulièrement	-11.801
▁mood	-11.801
▁magn	-11.8011
▁laughter	-11.8011
▁tick	-11.8012
▁pou	-11.8012
▁barrière	-11.8013
▁punch	-11.8013
▁construisons	-11.8013
▁allumé	-11.8015
▁titres	-11.8017
cture	-11.8021
▁RM	-11.8025
intéresser	-11.8026
▁surprisingly	-11.8029
▁formula	-11.803
▁arrivait	-11.8032
▁passing	-11.8034
▁sink	-11.8035
▁trends	-11.8036
▁chosen	-11.8038
▁lighting	-11.804
▁gér	-11.8041
▁uncle	-11.8044
américain	-11.8046
▁LG	-11.8049
▁dish	-11.805
gate	-11.8052
load	-11.8053
▁fig	-11.8054
▁Kid	-11.8055
▁Court	-11.8058
▁opera	-11.8061
▁assistance	-11.8062
▁forum	-11.8063
explorer	-11.8063
interface	-11.8063
▁navigate	-11.8064
atory	-11.8064
▁connectée	-11.8065
▁tournée	-11.8069
▁Wood	-11.8071
▁experimental	-11.8072
▁environnements	-11.8072
▁160	-11.8076
▁Cour	-11.808
▁attire	-11.8081
engage	-11.8082
four	-11.8083
▁apparent	-11.8084
▁grad	-11.8091
▁libéré	-11.8093
▁compil	-11.8098
von	-11.8099
▁conserver	-11.8101
▁tribes	-11.8102
▁bénéfici	-11.8105
▁native	-11.8107
▁tables	-11.8107
▁2003	-11.8107
▁pires	-11.811
▁Pal	-11.811
▁actors	-11.8115
▁adore	-11.8119
▁sci	-11.8119
▁courante	-11.812
▁pole	-11.8123
essor	-11.8124
▁disagree	-11.8125
▁fractal	-11.8125
▁Brother	-11.8125
▁Tokyo	-11.8125
▁Video	-11.8125
▁cinquième	-11.8125
▁dévoile	-11.8125
▁mechanics	-11.8125
▁pandemic	-11.8125
▁province	-11.8125
▁symmetry	-11.8125
▁téléphonique	-11.8125
▁Bruce	-11.8125
▁Eastern	-11.8125
▁Craig	-11.8125
▁marry	-11.8125
▁convey	-11.8125
▁gear	-11.8125
▁bump	-11.8125
▁graisse	-11.8126
▁examiné	-11.8126
▁Mother	-11.8127
▁tournant	-11.8127
▁winner	-11.8128
▁ego	-11.8129
Etat	-11.813
▁leverage	-11.813
▁constitue	-11.8131
▁croyance	-11.8132
imagina	-11.8132
▁glad	-11.8132
▁optique	-11.8133
▁Fran	-11.8137
▁étranger	-11.8137
▁luck	-11.8138
▁laver	-11.8143
▁JS	-11.8145
▁gui	-11.8146
omi	-11.8147
▁apparue	-11.8148
▁resid	-11.815
▁mouton	-11.8152
▁élever	-11.8154
▁meter	-11.8155
▁Américain	-11.8156
▁nets	-11.816
▁cérébral	-11.8161
▁confronté	-11.8162
▁portes	-11.8166
▁Milo	-11.8168
▁affirme	-11.8173
▁maire	-11.8174
▁smarter	-11.8177
essai	-11.8177
amélioration	-11.818
absence	-11.818
Irak	-11.8181
Where	-11.8181
▁rot	-11.8185
second	-11.8185
▁amélioration	-11.819
▁dépasser	-11.8193
▁musicians	-11.8194
▁Plan	-11.8203
▁strangers	-11.8203
rated	-11.8214
▁dinosaur	-11.8216
▁exclu	-11.822
▁richer	-11.8222
▁marques	-11.8222
To	-11.8226
▁taper	-11.823
▁gangs	-11.8231
emporte	-11.8232
▁commit	-11.8233
▁confort	-11.8237
▁terrorists	-11.824
esclavage	-11.8243
▁McDonald	-11.8243
▁TEDGlobal	-11.8243
▁Voila	-11.8243
▁biodiversity	-11.8243
▁chronique	-11.8243
▁contemporain	-11.8243
▁fondamentaux	-11.8243
▁gouvernance	-11.8243
▁janvier	-11.8243
▁poitrine	-11.8243
▁pôle	-11.8243
▁voyait	-11.8243
▁Jewish	-11.8243
▁injury	-11.8243
▁stigma	-11.8243
▁concours	-11.8243
▁Soviet	-11.8243
▁cliff	-11.8243
▁irré	-11.8243
▁probability	-11.8243
▁égale	-11.8243
▁réacteur	-11.8243
▁crayon	-11.8243
▁capability	-11.8244
▁attractive	-11.8244
▁mince	-11.8244
▁comparison	-11.8244
amitié	-11.8245
stone	-11.8246
▁blah	-11.8247
▁catastrophes	-11.8247
▁inattendu	-11.8247
▁Egyptian	-11.8249
▁Alice	-11.8249
▁technologiques	-11.8249
▁contribué	-11.8251
édition	-11.8256
▁échec	-11.8256
▁gagnent	-11.8258
écris	-11.8258
quel	-11.8258
▁Lord	-11.8261
▁cuir	-11.8267
▁interviews	-11.8267
▁rarely	-11.8267
▁EM	-11.8268
▁originally	-11.827
▁informatiques	-11.827
apporter	-11.8272
▁wing	-11.8275
▁associée	-11.8277
▁pie	-11.8278
▁Pete	-11.828
000	-11.8281
▁analys	-11.8284
▁flot	-11.8285
▁2004,	-11.8286
▁focalis	-11.8286
▁fraud	-11.8287
▁theme	-11.8288
▁fortes	-11.8289
▁returned	-11.8289
▁dependent	-11.8292
allumer	-11.8293
envoi	-11.8296
▁hôtel	-11.8298
extinction	-11.83
third	-11.83
▁assumptions	-11.8305
▁artificiel	-11.8305
▁plug	-11.8306
▁predictions	-11.8307
▁démarrer	-11.8312
auraient	-11.8313
▁manager	-11.8313
▁bro	-11.832
▁volontaires	-11.8321
▁manipulate	-11.8323
▁répand	-11.8324
▁informé	-11.8326
alement	-11.8327
▁écrans	-11.8327
ching	-11.8328
▁Mel	-11.8329
anthrop	-11.8333
oeil	-11.8334
▁soeur	-11.8335
▁compose	-11.8338
▁electronics	-11.8341
▁rod	-11.8344
économiste	-11.8345
▁notation	-11.8346
change	-11.8347
▁chers	-11.8348
cost	-11.835
▁rail	-11.8352
▁oppos	-11.8354
▁traversé	-11.8355
▁émission	-11.8358
▁hat	-11.836
flex	-11.836
▁resist	-11.836
▁Afghan	-11.8361
▁October	-11.8362
▁anonymous	-11.8362
▁helicopter	-11.8362
▁humble	-11.8362
▁tragique	-11.8362
▁translation	-11.8362
▁prenait	-11.8362
▁Kelly	-11.8362
▁mignon	-11.8362
▁ethnique	-11.8362
▁pâte	-11.8362
▁underlying	-11.8362
▁directe	-11.8362
ampleur	-11.8362
▁nonprofit	-11.8364
▁Italy	-11.8365
érant	-11.8366
▁mechanisms	-11.8366
▁révélation	-11.8368
▁GG	-11.8371
▁nurses	-11.8372
▁démo	-11.8373
▁alimentaires	-11.8373
▁câble	-11.8374
▁linéaire	-11.8374
▁pathway	-11.8374
aimais	-11.8375
▁bath	-11.8377
▁Marine	-11.838
▁sensory	-11.8382
oto	-11.8382
▁Muslims	-11.8382
▁puissantes	-11.8384
▁admire	-11.8384
▁dynamics	-11.8388
▁diminué	-11.8389
▁magazines	-11.8391
▁habitats	-11.8392
▁actor	-11.8392
▁merveilleuses	-11.8395
▁ecosystems	-11.8402
amène	-11.8406
▁None	-11.8407
▁clic	-11.8408
actif	-11.8414
▁église	-11.8417
▁collaborate	-11.8418
amener	-11.842
administration	-11.842
enfance	-11.842
▁gases	-11.8424
▁doors	-11.8427
▁marginal	-11.8428
▁Pur	-11.8428
▁larmes	-11.8429
▁coule	-11.843
▁additional	-11.8431
▁import	-11.8433
▁peuples	-11.8433
▁disciplines	-11.8436
arme	-11.8442
▁artistic	-11.8442
▁remplace	-11.8442
▁safer	-11.8442
▁marker	-11.8445
▁vertu	-11.8446
▁emmène	-11.8446
▁treatments	-11.8451
▁passerait	-11.8453
▁robe	-11.8456
▁Saturn	-11.8457
quin	-11.8462
agence	-11.8468
▁optim	-11.8469
▁financer	-11.8476
▁commentaires	-11.8476
▁eff	-11.8477
▁impliqués	-11.848
abondance	-11.8482
hypertension	-11.8482
▁1984	-11.8482
▁1995	-11.8482
▁aesthetic	-11.8482
▁gadget	-11.8482
▁gratitude	-11.8482
▁hectare	-11.8482
▁omniprésent	-11.8482
▁wheelchair	-11.8482
▁fought	-11.8482
▁east	-11.8482
▁crystal	-11.8482
▁tribal	-11.8482
▁inquiet	-11.8482
▁afterwards	-11.8482
▁parlaient	-11.8482
▁juin	-11.8482
▁agriculteurs	-11.8483
▁Watch	-11.8483
▁voudrait	-11.8483
▁vaisseau	-11.8483
▁Banque	-11.8483
▁keyboard	-11.8483
▁spray	-11.8483
▁connectome	-11.8484
▁manifestations	-11.8484
▁détection	-11.8484
▁aimerions	-11.8485
▁merely	-11.8485
▁briefly	-11.849
▁rope	-11.8491
▁musulmans	-11.8492
▁récepteur	-11.8492
▁brut	-11.8493
archi	-11.8495
▁acceptable	-11.8497
▁pomme	-11.8497
▁wipe	-11.8497
▁cherchent	-11.8498
▁kilomètre	-11.8498
▁rapproche	-11.8499
▁magnet	-11.8499
▁intestin	-11.85
▁Abraham	-11.8501
▁Op	-11.8501
▁Map	-11.8501
▁lancement	-11.8503
▁seed	-11.8503
▁linear	-11.8507
appuie	-11.8507
▁expanding	-11.8507
▁suggesting	-11.8512
▁delivery	-11.8514
▁determined	-11.8515
▁héritage	-11.8517
▁collecte	-11.8517
body	-11.8526
▁tear	-11.8531
▁lungs	-11.8532
▁publish	-11.8533
▁reduced	-11.8538
▁balles	-11.8538
▁tele	-11.8538
related	-11.854
▁award	-11.8541
When	-11.8542
▁pulling	-11.8547
efface	-11.855
▁capitalist	-11.8558
▁immeubles	-11.856
▁reports	-11.856
odeur	-11.8562
▁watts	-11.8563
▁links	-11.8565
▁Bat	-11.8567
Un	-11.857
agent	-11.8571
▁jam	-11.8572
▁coat	-11.8573
Who	-11.8573
▁alert	-11.8574
▁reefs	-11.8574
petit	-11.8577
▁Ash	-11.8579
▁sois	-11.8579
▁Orient	-11.858
écu	-11.8584
▁filet	-11.8585
▁neck	-11.8586
Be	-11.8587
▁situe	-11.859
▁Love	-11.859
▁caves	-11.859
▁frontal	-11.8591
▁illusions	-11.8591
▁implement	-11.8594
▁elections	-11.8594
▁provoquer	-11.8595
▁landed	-11.8596
▁subi	-11.8597
▁faudra	-11.8602
hémisphère	-11.8604
inquiéter	-11.8604
▁expedition	-11.8604
▁happier	-11.8604
▁prescription	-11.8604
▁spectateur	-11.8604
▁recipe	-11.8604
▁trivial	-11.8604
▁Cyrus	-11.8604
▁impatient	-11.8604
▁bathroom	-11.8604
▁Keith	-11.8604
▁flottant	-11.8605
▁Lewis	-11.8605
▁prévision	-11.8605
▁normaux	-11.8605
▁découpe	-11.8605
▁mondialisation	-11.8606
▁MRI	-11.8606
▁nommée	-11.8607
▁globalization	-11.861
▁facility	-11.861
▁planche	-11.861
▁BJ	-11.8611
▁stimulation	-11.8612
▁frequency	-11.8612
▁intensif	-11.8612
▁cart	-11.8613
▁Vol	-11.8614
▁riz	-11.8614
▁cultiver	-11.8615
▁warning	-11.8616
▁southern	-11.8617
dan	-11.8618
hether	-11.8619
▁gathering	-11.8622
▁dangereuse	-11.8624
▁répondent	-11.8625
avantage	-11.8627
▁occuper	-11.8628
▁traditionnelles	-11.8628
▁hypothèses	-11.8634
▁Aucune	-11.8637
▁femelles	-11.8637
▁highway	-11.8638
▁educated	-11.8639
▁reminded	-11.864
▁dancer	-11.864
▁bac	-11.8644
Mon	-11.8644
▁Norden	-11.8645
▁Alan	-11.8645
▁fondateur	-11.8648
▁separated	-11.8648
▁comporte	-11.8649
▁farming	-11.8649
▁condamné	-11.865
▁unités	-11.8651
▁primates	-11.8651
▁publiée	-11.8653
▁chimpanzees	-11.8654
▁evaluat	-11.8655
▁TK	-11.8658
▁crossing	-11.8658
▁grottes	-11.866
▁pierres	-11.8663
worth	-11.8666
▁sisters	-11.8671
hold	-11.8673
▁improvise	-11.8675
▁brou	-11.8676
▁cousins	-11.8679
hiver	-11.868
▁attitudes	-11.868
▁étranges	-11.868
▁vagin	-11.8688
▁conscients	-11.8692
tell	-11.8695
just	-11.8696
▁Occident	-11.87
▁commença	-11.8701
▁soap	-11.8702
Co	-11.8703
▁prepare	-11.8712
▁govern	-11.8713
▁cité	-11.8724
▁commis	-11.8726
métrique	-11.8727
▁College	-11.8727
▁alcohol	-11.8727
▁commerciaux	-11.8727
▁crevette	-11.8727
▁diagnostiqué	-11.8727
▁entraîné	-11.8727
▁grandchildren	-11.8727
▁hamburger	-11.8727
▁internationaux	-11.8727
▁structural	-11.8727
▁vulnérabilité	-11.8727
apparition	-11.8727
horloge	-11.8727
▁Third	-11.8727
▁gâteau	-11.8727
▁Quatre	-11.8727
▁critère	-11.8728
▁connaissait	-11.8728
▁depressed	-11.8728
▁Linux	-11.8728
▁Montana	-11.8728
▁romantique	-11.8728
▁begun	-11.8728
▁missile	-11.8729
▁flou	-11.8729
▁frein	-11.8729
▁économis	-11.8731
▁cite	-11.8731
effondrement	-11.8731
▁feriez	-11.8732
▁investissements	-11.8732
▁Jesus	-11.8733
stein	-11.8733
▁sauve	-11.8735
▁mindset	-11.8735
▁intégr	-11.8736
▁résumer	-11.874
▁concerné	-11.874
▁passez	-11.8741
▁nés	-11.8742
▁gosse	-11.8743
▁reactor	-11.8743
▁speakers	-11.8744
▁fondée	-11.8745
▁colle	-11.8747
▁radically	-11.8747
▁imagery	-11.8747
▁semblable	-11.8749
▁suggested	-11.8752
▁aborder	-11.8753
▁translated	-11.8754
▁informed	-11.8756
▁Mur	-11.8757
▁agreement	-11.8758
▁noble	-11.8759
▁serions	-11.8761
▁remercier	-11.8762
▁fed	-11.8763
▁Free	-11.8763
▁évaluer	-11.8764
inégalité	-11.8767
▁terriblement	-11.8768
away	-11.8769
▁biologiste	-11.8773
crit	-11.8774
▁Israeli	-11.8776
acte	-11.8779
power	-11.878
▁récolter	-11.8782
▁dépi	-11.8782
▁adopter	-11.8782
▁MR	-11.8785
▁includes	-11.8785
▁survivant	-11.8786
▁funded	-11.8786
▁intégrer	-11.8786
▁généré	-11.8789
ules	-11.8791
▁guéri	-11.8791
▁favoris	-11.8792
band	-11.8793
open	-11.8794
▁démon	-11.8795
▁organiser	-11.8796
▁oppress	-11.8799
▁fragments	-11.8805
▁restée	-11.8808
aliment	-11.8809
▁strand	-11.8811
▁terminal	-11.8811
▁refusé	-11.8813
tien	-11.8823
▁Math	-11.8832
▁publi	-11.8835
▁Homme	-11.8837
échapp	-11.8844
étendre	-11.8844
▁precise	-11.8846
▁inévitable	-11.8846
▁compress	-11.885
▁infant	-11.885
▁Florida	-11.8852
▁Mozart	-11.8852
▁Spanish	-11.8852
▁cherchons	-11.8852
▁dégoût	-11.8852
▁fabulous	-11.8852
▁géographique	-11.8852
▁satisfait	-11.8852
▁athlete	-11.8852
▁relever	-11.8852
▁racial	-11.8852
▁travaillaient	-11.8852
▁Rosling	-11.8853
▁modification	-11.8853
▁épinière	-11.8853
▁Tesla	-11.8853
▁fossé	-11.8853
▁piège	-11.8853
▁vitamin	-11.8853
▁masses	-11.8853
▁ambigu	-11.8853
▁flee	-11.8853
▁genoux	-11.8853
▁peaceful	-11.8854
▁attentivement	-11.8854
évolu	-11.8855
▁fermer	-11.8855
▁bateaux	-11.8857
▁progressivement	-11.8858
▁contraintes	-11.886
▁marchait	-11.8862
▁attendu	-11.8862
▁shaped	-11.8862
▁Trade	-11.8863
▁continuons	-11.8865
▁imprimante	-11.8866
▁parasites	-11.8866
▁stores	-11.8867
▁ending	-11.8867
▁parcour	-11.8868
▁considér	-11.8869
ôme	-11.887
▁stake	-11.8874
▁remarquables	-11.8875
▁prédiction	-11.8877
▁chromosome	-11.8877
▁roue	-11.8877
▁bid	-11.8878
▁scandal	-11.8879
▁soldier	-11.8879
▁tribe	-11.888
Cola	-11.8886
▁Rover	-11.8888
▁climbing	-11.8891
▁circles	-11.8892
▁catégories	-11.8895
▁founded	-11.8901
▁hormone	-11.8901
▁adaptation	-11.8902
case	-11.8902
▁teenagers	-11.8908
▁commentaire	-11.891
▁pointed	-11.8913
▁Sahara	-11.8913
▁inconnue	-11.8913
▁université	-11.8914
▁vein	-11.8915
spiration	-11.8915
▁chop	-11.8918
▁scores	-11.8918
▁neat	-11.8918
minute	-11.892
▁sleeping	-11.8925
▁helpful	-11.8926
clock	-11.8927
insecte	-11.8928
▁écosystème	-11.8933
▁Dal	-11.8933
▁bullet	-11.8934
ajouter	-11.8936
▁commande	-11.8945
▁SS	-11.8946
▁durables	-11.8948
▁biologists	-11.8949
▁africain	-11.8951
powered	-11.8952
éloigne	-11.8955
▁Moon	-11.8957
▁supported	-11.8958
▁corde	-11.8958
▁deploy	-11.8968
▁exhibit	-11.8968
Mais	-11.8969
▁immediate	-11.8973
fat	-11.8975
▁congé	-11.8976
▁symbols	-11.8978
▁Beijing	-11.8979
▁cocktail	-11.8979
▁hypothesis	-11.8979
▁négociation	-11.8979
▁unbelievable	-11.8979
▁vacuum	-11.8979
▁variole	-11.8979
▁FDA	-11.8979
▁comète	-11.8979
▁drift	-11.8979
▁burst	-11.8979
▁Syrie	-11.8979
▁cliché	-11.8979
▁imaging	-11.8979
▁deviez	-11.898
▁révolutionnaire	-11.898
▁infirmières	-11.898
▁investors	-11.898
▁Norman	-11.898
▁gravi	-11.8981
▁agences	-11.8981
▁autorités	-11.8981
▁pride	-11.8981
▁activé	-11.8982
▁repenser	-11.8986
▁débats	-11.8987
▁espér	-11.8987
▁regardais	-11.8987
▁involve	-11.8991
▁astéro	-11.8994
▁actifs	-11.8994
▁prisoners	-11.8996
▁significantly	-11.9
▁addiction	-11.9001
▁élémentaire	-11.9002
▁rivers	-11.9002
▁tendre	-11.9003
▁amusante	-11.9004
▁atelier	-11.9005
▁ethic	-11.9009
coutez	-11.901
▁mixed	-11.9014
▁journalists	-11.9015
▁bip	-11.9016
▁reinvent	-11.9017
espèces	-11.9017
▁disconnect	-11.902
▁Vie	-11.902
▁spots	-11.9021
▁elephants	-11.9022
▁passwords	-11.9025
▁predicted	-11.9027
▁bombes	-11.9029
▁casque	-11.9032
▁43	-11.9038
orchestre	-11.9045
▁oeil	-11.9045
▁neurone	-11.9045
▁rape	-11.9048
étudiants	-11.9053
▁découvr	-11.9058
attache	-11.9059
▁operations	-11.9061
▁fibres	-11.9061
dale	-11.9065
objets	-11.9068
▁soup	-11.907
▁distribué	-11.9077
▁barbe	-11.9081
▁uniform	-11.9091
éloigner	-11.9094
▁restant	-11.9095
▁flows	-11.9102
▁biologist	-11.9103
▁réduite	-11.9106
▁noyau	-11.9106
▁trembl	-11.9106
extrémité	-11.9107
▁Floride	-11.9107
▁Obviously	-11.9107
▁Sylvia	-11.9107
▁choosing	-11.9107
▁communautaire	-11.9107
▁dictionary	-11.9107
▁fichier	-11.9107
▁inevitable	-11.9107
▁millénaire	-11.9107
▁poignée	-11.9107
▁primordial	-11.9107
▁précieux	-11.9107
▁purchase	-11.9107
▁rethink	-11.9107
▁régénér	-11.9107
▁threshold	-11.9107
▁voyais	-11.9107
▁algae	-11.9107
▁croyais	-11.9107
▁personnalisé	-11.9107
▁elected	-11.9107
▁lentille	-11.9108
▁béton	-11.9108
▁oncle	-11.9108
▁figuring	-11.9108
▁Caroline	-11.9108
▁annual	-11.9108
▁deviner	-11.9108
▁accéléré	-11.9109
▁verrons	-11.9109
▁Warren	-11.9109
▁Canyon	-11.9109
▁98	-11.9111
▁jouant	-11.9112
▁chauves	-11.9112
▁visité	-11.9114
amuser	-11.9114
▁coûteux	-11.9114
▁grandissent	-11.9115
uthern	-11.9115
▁JA	-11.9116
▁healthier	-11.9116
▁connectivité	-11.9117
▁transformée	-11.9117
▁réalisation	-11.9118
▁assignment	-11.9119
▁piles	-11.9123
▁abilities	-11.9125
An	-11.9127
▁récifs	-11.9127
raph	-11.913
▁anticipate	-11.9132
▁bats	-11.9134
▁daughters	-11.9134
▁threats	-11.9136
▁vulnérables	-11.9136
▁reef	-11.9139
▁camions	-11.9139
born	-11.9139
▁citer	-11.914
▁Young	-11.9142
▁invested	-11.9142
▁fastest	-11.9143
▁parcouru	-11.9144
▁insights	-11.9145
▁détenu	-11.9151
▁transmis	-11.9153
▁concepteurs	-11.9154
▁throwing	-11.9154
▁mask	-11.9157
▁brique	-11.916
▁puni	-11.9161
▁anticip	-11.9163
parents	-11.9172
oxy	-11.9173
Sahara	-11.9175
efficient	-11.9175
▁ferai	-11.9176
▁transmet	-11.9178
▁risqué	-11.9179
▁attribute	-11.918
▁briser	-11.9187
flow	-11.919
▁électro	-11.9192
▁digest	-11.9194
▁explaining	-11.9195
▁illustr	-11.9197
▁edges	-11.9199
▁conçus	-11.92
▁exceptions	-11.9207
▁écosystèmes	-11.9212
▁menaces	-11.9219
▁promis	-11.9222
▁recycle	-11.9222
▁mars	-11.9224
▁interestingly	-11.9225
uj	-11.9226
▁organe	-11.9226
▁graphiques	-11.9227
▁seats	-11.9228
▁managers	-11.9228
▁montrai	-11.9234
▁Mom	-11.9235
▁Francis	-11.9236
▁secrète	-11.9237
▁équipé	-11.9237
▁CRISPR	-11.9237
▁Jennifer	-11.9237
▁Kennedy	-11.9237
▁advocate	-11.9237
▁gradually	-11.9237
▁paralysé	-11.9237
▁promouvoir	-11.9237
▁smallpox	-11.9237
▁unprecedented	-11.9237
▁whistle	-11.9237
▁forgotten	-11.9237
▁fumée	-11.9237
▁notamment	-11.9237
▁Norway	-11.9237
▁connectivity	-11.9238
▁puits	-11.9238
▁réparti	-11.9238
▁kidney	-11.9239
▁slave	-11.9239
▁éléphants	-11.9239
▁serviette	-11.924
▁nécessité	-11.924
▁chéri	-11.9242
▁désespérément	-11.9242
▁aérienne	-11.9242
▁disability	-11.9242
▁Arabic	-11.9243
▁shine	-11.9243
▁manual	-11.9243
▁AT	-11.9243
▁adorent	-11.9244
▁Show	-11.9244
estime	-11.9245
humeur	-11.9246
▁commençait	-11.9246
own	-11.9246
▁improving	-11.9248
▁constructed	-11.9251
style	-11.9252
▁widely	-11.9253
▁arrivera	-11.9255
pile	-11.9256
▁shocked	-11.9256
▁extended	-11.9256
▁applaud	-11.9258
▁pertes	-11.9261
▁injection	-11.9265
▁manifeste	-11.9265
▁lawyers	-11.9266
ieuse	-11.9272
▁wider	-11.9272
▁priorité	-11.9273
▁portant	-11.9274
▁frapper	-11.9274
▁repris	-11.9275
▁bags	-11.9276
▁rip	-11.9276
▁associés	-11.9277
▁entering	-11.9277
▁DP	-11.9279
▁amateur	-11.9281
étudie	-11.9281
attendais	-11.9288
▁upside	-11.9291
▁éclairé	-11.9293
▁AG	-11.9295
ligne	-11.9303
ménage	-11.9304
▁impose	-11.9305
identifier	-11.9307
Isra	-11.9308
▁partly	-11.9309
▁demie	-11.9311
▁passionnant	-11.9316
▁marqueur	-11.9316
▁collecter	-11.9318
▁pratiqu	-11.9318
harmonie	-11.932
▁opt	-11.9322
▁piéton	-11.9325
▁vienne	-11.9326
▁forcer	-11.9328
ES	-11.9328
▁réfléchit	-11.9329
landais	-11.9329
▁survol	-11.9335
▁habitués	-11.9337
▁viendra	-11.9341
▁chromosomes	-11.9343
▁exam	-11.9344
▁centimètres	-11.9352
accumul	-11.9353
▁nerd	-11.9353
héro	-11.9357
▁échecs	-11.9361
▁comptent	-11.9363
▁Nor	-11.9363
hôtel	-11.9367
emprunt	-11.9368
▁refroidi	-11.9369
▁1994	-11.9369
▁December	-11.9369
▁category	-11.9369
▁competitive	-11.9369
▁eliminate	-11.9369
▁experiencing	-11.9369
▁indigenous	-11.9369
▁planétaire	-11.9369
▁sanitaire	-11.9369
▁shrink	-11.9369
▁Business	-11.9369
▁buried	-11.9369
▁cheese	-11.9369
▁reducing	-11.9369
▁thermique	-11.9369
▁timing	-11.9369
▁algues	-11.9369
▁pilule	-11.9369
▁voile	-11.9369
▁Wilson	-11.9369
▁vapeur	-11.9369
▁capabilities	-11.9369
▁morph	-11.9369
▁internationales	-11.9369
▁galerie	-11.9369
▁malheureux	-11.9369
▁beetle	-11.9369
▁prévenir	-11.9369
▁condom	-11.937
▁2014	-11.937
▁friendship	-11.9371
▁Trans	-11.9371
▁siffle	-11.9371
▁laissons	-11.9372
▁damn	-11.9373
▁Dites	-11.9378
aussi	-11.9378
▁intensive	-11.9378
▁Apollo	-11.9381
▁constituent	-11.9381
▁panels	-11.9383
▁couteau	-11.9384
▁perceived	-11.9384
duction	-11.9385
▁pulse	-11.9385
▁balls	-11.939
▁dépense	-11.939
▁fabricant	-11.9391
▁masque	-11.9392
organiser	-11.9392
▁slip	-11.9393
écologie	-11.9395
▁enlève	-11.9396
▁Cape	-11.9398
▁tombent	-11.9398
▁meurtre	-11.9399
▁included	-11.9401
▁emerged	-11.9403
▁provoqué	-11.9406
▁strongly	-11.9406
▁créateur	-11.9407
▁answered	-11.9411
▁surveiller	-11.9424
▁Dean	-11.9425
▁patch	-11.9425
▁paires	-11.9428
▁copies	-11.9428
étale	-11.943
▁bandes	-11.9432
▁menée	-11.9434
▁proposed	-11.9438
▁imprimer	-11.944
Alzheimer	-11.944
▁préjugés	-11.9442
▁crew	-11.9445
accent	-11.9446
▁solo	-11.9449
▁heal	-11.9451
▁survived	-11.9458
▁officielle	-11.946
étoiles	-11.9464
utilisa	-11.9467
▁optimism	-11.9475
▁Bio	-11.9476
▁gère	-11.9477
▁Bonne	-11.9481
admir	-11.9482
▁coucher	-11.9483
▁Italie	-11.9485
▁educate	-11.9486
▁arise	-11.9487
▁géante	-11.9487
▁perceive	-11.9488
▁corporations	-11.9488
▁résume	-11.9489
▁capturer	-11.949
▁reject	-11.9493
▁dessinée	-11.9495
fire	-11.9497
▁brillants	-11.9499
Amazonie	-11.95
▁rice	-11.9501
▁gagn	-11.9502
assembly	-11.9502
▁1997	-11.9502
▁Giussani	-11.9502
▁concurrence	-11.9502
▁dommage	-11.9502
▁elderly	-11.9502
▁génocide	-11.9502
▁investisseurs	-11.9502
▁maintenance	-11.9502
▁migraine	-11.9502
▁paralyzed	-11.9502
▁primarily	-11.9502
▁prospérité	-11.9502
▁proviennent	-11.9502
▁resilience	-11.9502
▁sulfur	-11.9502
▁synthèse	-11.9502
▁choqué	-11.9502
intimité	-11.9502
▁closing	-11.9502
▁ecological	-11.9502
▁intimate	-11.9502
▁trash	-11.9502
▁ressens	-11.9502
▁IBM	-11.9502
▁confusion	-11.9503
▁Sunday	-11.9503
▁bribe	-11.9503
generating	-11.9503
▁Pays	-11.9504
▁'70	-11.9504
▁overwhelming	-11.9504
▁séparation	-11.9505
▁fate	-11.9505
▁levier	-11.9506
▁34	-11.9508
▁Seven	-11.9508
▁Roman	-11.9509
▁interpretation	-11.9509
▁participé	-11.9511
pré	-11.9511
▁threatened	-11.9511
▁réelles	-11.9515
▁140	-11.9515
▁30,000	-11.9517
▁civilian	-11.952
▁regardait	-11.952
▁posture	-11.9521
▁adopted	-11.9524
▁fondamentales	-11.9525
▁Williams	-11.9526
▁initiale	-11.9526
▁shocking	-11.9526
▁apparence	-11.9534
▁exploiter	-11.9536
▁wired	-11.9539
▁partant	-11.9542
▁instantly	-11.9542
▁economist	-11.9544
▁guider	-11.9545
▁Lake	-11.9546
arro	-11.955
▁vagina	-11.9552
ford	-11.9554
▁prie	-11.9562
▁hacker	-11.9563
▁rêver	-11.9569
▁rotate	-11.9573
assurance	-11.9575
intéressant	-11.9575
▁trucks	-11.9579
église	-11.9579
encre	-11.958
▁gestes	-11.958
▁organis	-11.9581
▁violon	-11.9581
▁Bono	-11.9582
augmenter	-11.9582
▁caring	-11.9582
▁massif	-11.9583
▁Pan	-11.9583
▁spécialistes	-11.959
▁légal	-11.959
trans	-11.9593
utilisent	-11.9596
référ	-11.9597
▁violente	-11.9597
▁rappelé	-11.9598
▁JC	-11.9598
alors	-11.9601
cum	-11.9605
▁Centre	-11.9606
▁SP	-11.9608
▁logical	-11.9608
▁gamins	-11.961
▁bears	-11.9611
▁monument	-11.9614
▁illégale	-11.9615
▁subir	-11.9618
enseigner	-11.962
▁pommes	-11.962
▁cruciale	-11.9621
70	-11.9625
▁incite	-11.9629
▁adéquat	-11.9631
▁rig	-11.9636
doc	-11.9637
▁sévère	-11.9637
▁temporaire	-11.9637
▁Should	-11.9637
▁aggressive	-11.9637
▁curriculum	-11.9637
▁déforestation	-11.9637
▁elegant	-11.9637
▁exhaust	-11.9637
▁frustrated	-11.9637
▁nettoyer	-11.9637
▁pandémie	-11.9637
▁problématique	-11.9637
▁silencieux	-11.9637
▁synthétique	-11.9637
▁voyagé	-11.9637
Atlantique	-11.9637
▁externe	-11.9637
▁croyait	-11.9637
▁solitaire	-11.9637
▁snake	-11.9637
▁valley	-11.9637
▁Italian	-11.9637
▁motivé	-11.9637
▁préservatif	-11.9637
▁stunt	-11.9637
▁Hubble	-11.9637
▁woke	-11.9638
▁hallucinations	-11.9638
▁neutre	-11.9638
▁crawl	-11.9638
section	-11.9638
▁Full	-11.9638
▁'90	-11.9639
▁winning	-11.9639
▁conform	-11.9639
▁1930	-11.9639
▁tongue	-11.9639
▁Danny	-11.9639
▁silly	-11.9641
▁rank	-11.9641
▁respiration	-11.9642
▁subjective	-11.9642
cast	-11.9643
▁insult	-11.9645
▁Révolution	-11.9645
▁triple	-11.9646
▁possession	-11.9646
▁préserver	-11.9647
▁arrested	-11.9647
▁espérer	-11.9648
▁fiche	-11.9648
▁diviser	-11.9649
▁réaliste	-11.965
▁perdent	-11.965
▁partisan	-11.9653
▁openness	-11.9658
▁gallon	-11.966
▁burned	-11.9662
▁introduction	-11.9668
▁successfully	-11.9669
▁cuisiner	-11.967
▁quitte	-11.9673
▁épouse	-11.9675
ttent	-11.9675
▁Abed	-11.968
▁jumped	-11.968
▁egg	-11.9683
▁MS	-11.9686
▁sentences	-11.9692
▁Stein	-11.9695
▁mathématiciens	-11.9696
opéra	-11.9697
▁serveur	-11.9698
▁verb	-11.97
▁habitant	-11.97
half	-11.9701
▁installer	-11.9701
▁reine	-11.9702
▁inférieur	-11.9705
▁bol	-11.9707
▁Asian	-11.9709
Allemagne	-11.9712
assistance	-11.9712
opinion	-11.9712
▁inconnus	-11.9714
▁hiver	-11.9714
▁poèmes	-11.9715
étions	-11.9716
tiennent	-11.9718
▁motive	-11.9718
▁drum	-11.9719
▁Queen	-11.974
▁rejet	-11.9747
▁contrôlé	-11.9747
▁prédictions	-11.9747
▁modifie	-11.9758
▁ramené	-11.976
▁câbles	-11.976
▁exprimer	-11.9762
mph	-11.9764
star	-11.9768
new	-11.9772
▁opposé	-11.9773
assemblage	-11.9774
ocytocine	-11.9774
▁Nairobi	-11.9774
▁Revenons	-11.9774
▁Society	-11.9774
▁Technology	-11.9774
▁arrangement	-11.9774
▁criminels	-11.9774
▁diagnosis	-11.9774
▁dégâts	-11.9774
▁faculté	-11.9774
▁humanitarian	-11.9774
▁pharmaceutical	-11.9774
▁prairie	-11.9774
▁prosperity	-11.9774
▁prévention	-11.9774
▁réservé	-11.9774
▁sécheresse	-11.9774
▁whatsoever	-11.9774
▁Snowden	-11.9774
▁fonctionnait	-11.9774
▁microbial	-11.9774
▁oxytocin	-11.9774
▁venais	-11.9774
▁victor	-11.9774
▁Musée	-11.9774
▁creator	-11.9774
▁Simple	-11.9775
▁trap	-11.9775
▁friction	-11.9775
▁locomotion	-11.9775
▁Somebody	-11.9775
▁photographié	-11.9775
▁gentleman	-11.9775
▁authorities	-11.9775
▁representative	-11.9775
▁Roger	-11.9777
▁cake	-11.9777
▁mining	-11.9777
▁shout	-11.9777
▁bancaire	-11.9778
▁entité	-11.9778
▁bored	-11.9779
▁reveals	-11.978
▁éliminer	-11.978
▁confused	-11.9782
,500	-11.9783
▁Open	-11.9783
▁chanceux	-11.9784
▁30%	-11.9785
▁mapping	-11.9786
▁detection	-11.9787
▁emit	-11.9787
▁endless	-11.9793
▁réveillé	-11.9796
▁blend	-11.9799
▁travaillez	-11.981
▁posent	-11.9813
▁propage	-11.9814
▁angles	-11.9817
▁renouvelables	-11.9818
▁wealthy	-11.9822
allez	-11.9823
▁dolphin	-11.9824
▁fibre	-11.9824
▁spécialiste	-11.9825
▁résister	-11.9826
aîné	-11.9826
▁soldat	-11.9828
▁évolue	-11.9833
abandon	-11.9835
▁définit	-11.9837
▁billets	-11.9838
▁dépendant	-11.984
hoo	-11.984
asser	-11.9844
▁empêch	-11.9844
▁administration	-11.9845
▁grasp	-11.9849
affect	-11.9851
adulte	-11.9851
▁relier	-11.9855
▁projections	-11.9855
▁fluide	-11.9856
▁excuses	-11.9857
▁hunt	-11.9859
▁bless	-11.9862
▁malin	-11.9866
▁grandeur	-11.9866
bag	-11.9868
million	-11.9869
ulu	-11.9869
▁migrants	-11.9873
▁combiner	-11.9874
▁immeuble	-11.9876
▁formal	-11.988
▁magasins	-11.9885
▁inspirer	-11.9887
▁stranger	-11.989
▁difficulty	-11.9892
▁float	-11.9899
▁optimal	-11.9901
▁gal	-11.9901
▁fortunate	-11.9907
▁certificat	-11.9908
élite	-11.9912
pprovisionnement	-11.9913
▁Arctic	-11.9913
▁Detroit	-11.9913
▁February	-11.9913
▁Margaret	-11.9913
▁avatar	-11.9913
▁trajectory	-11.9913
▁attaqué	-11.9913
▁Cameron	-11.9913
▁apparait	-11.9913
▁hausse	-11.9913
▁screw	-11.9913
▁excitement	-11.9913
▁Dallas	-11.9913
▁Droit	-11.9913
▁harness	-11.9913
▁Christophe	-11.9913
▁stabilité	-11.9913
▁russe	-11.9913
▁Turkey	-11.9913
▁joindre	-11.9913
▁supermarket	-11.9913
▁charmant	-11.9914
▁royal	-11.9914
▁Princeton	-11.9914
▁marketplace	-11.9914
▁cloche	-11.9914
▁courageux	-11.9915
▁luxe	-11.9915
▁fonctionné	-11.9915
▁fierté	-11.9916
▁leaf	-11.9918
▁Beach	-11.9918
▁remarquerez	-11.9918
▁rotation	-11.992
▁supporting	-11.9921
▁marins	-11.9921
▁autiste	-11.9921
▁remarquez	-11.9921
▁Juan	-11.9922
▁chauffeur	-11.9923
▁manipuler	-11.9923
▁nuts	-11.9923
▁compassionate	-11.9923
▁impulsion	-11.9925
▁physiciens	-11.9925
▁initially	-11.9925
▁inches	-11.9926
▁haine	-11.9928
▁âgé	-11.993
▁180	-11.993
far	-11.993
▁profoundly	-11.9931
▁capitale	-11.9932
▁dumb	-11.9932
▁suffered	-11.9935
▁fixé	-11.9937
▁violation	-11.9941
▁créez	-11.9943
▁detailed	-11.9944
▁Way	-11.9945
▁analogie	-11.9953
▁volent	-11.9953
aurai	-11.9955
fond	-11.9956
ounce	-11.996
19	-11.9965
▁metric	-11.9965
▁sync	-11.9967
▁blessure	-11.9967
vian	-11.9977
yons	-11.9984
▁positifs	-11.9987
élev	-11.9989
▁approaches	-11.9989
éral	-11.9989
▁channels	-11.999
▁glaciers	-11.999
écosystème	-11.9992
changing	-11.9992
▁Lot	-11.9995
▁blessures	-12
mènent	-12.0001
▁norme	-12.0003
chose	-12.0004
▁armed	-12.0005
▁coordinate	-12.0008
▁solides	-12.0008
100	-12.0009
humains	-12.0011
▁exister	-12.0019
adresse	-12.0029
▁répandue	-12.003
town	-12.0031
▁géré	-12.0035
▁foyers	-12.0036
▁répété	-12.0044
▁mortel	-12.0045
achat	-12.005
accueil	-12.0053
▁marié	-12.0054
imbabwe	-12.0054
intègre	-12.0054
▁1993	-12.0054
▁Kiribati	-12.0054
▁ambitious	-12.0054
▁cancéreuse	-12.0054
▁ceinture	-12.0054
▁cognitif	-12.0054
▁currency	-12.0054
▁genocide	-12.0054
▁nutrients	-12.0054
▁nutriments	-12.0054
▁patience	-12.0054
▁register	-12.0054
▁stratégique	-12.0054
▁thylacine	-12.0054
▁generous	-12.0054
▁sèche	-12.0054
enveloppe	-12.0054
▁Peace	-12.0054
▁Hawaii	-12.0054
▁Minister	-12.0054
licious	-12.0054
▁2050,	-12.0054
▁pipeline	-12.0055
▁contiennent	-12.0055
▁serving	-12.0055
▁carton	-12.0055
▁factories	-12.0055
▁inscrit	-12.0056
▁filmmaker	-12.0056
▁Lagos	-12.0056
▁désespoir	-12.0056
▁nearby	-12.0056
▁dingue	-12.0056
▁appearance	-12.0056
▁Johnny	-12.0057
▁genetically	-12.0057
▁70%	-12.0057
▁relief	-12.0058
▁interagissent	-12.0058
▁consommer	-12.0058
▁ventre	-12.0059
▁hitting	-12.0059
▁porn	-12.006
▁perdez	-12.0061
▁Coran	-12.0061
▁ressentent	-12.0062
▁Africains	-12.0064
▁homo	-12.0065
▁3000	-12.0067
▁laissant	-12.0067
▁coton	-12.0068
▁established	-12.0068
▁documentaire	-12.0072
▁golden	-12.0073
▁barrel	-12.0078
▁headed	-12.008
▁tumors	-12.0092
▁rencontr	-12.0095
▁montant	-12.0096
▁institutional	-12.0096
▁connecte	-12.0096
▁médicales	-12.0098
▁substances	-12.0099
▁Mère	-12.0101
appliquer	-12.0101
▁mathematicians	-12.0106
RA	-12.0107
▁Julia	-12.0107
▁ham	-12.0111
▁essay	-12.0114
▁96	-12.0114
▁transfert	-12.0115
▁covering	-12.0116
▁vocal	-12.0116
▁mortelle	-12.0116
▁grossi	-12.0122
oney	-12.0123
page	-12.0128
▁improved	-12.013
allait	-12.0131
altitude	-12.0135
horizon	-12.0135
explosion	-12.0135
▁arch	-12.0136
▁Mall	-12.0138
▁photographed	-12.0139
▁Eco	-12.0143
▁forming	-12.015
▁éprouv	-12.0153
▁changeant	-12.0155
▁staying	-12.0156
Without	-12.0161
▁verbal	-12.0164
▁MA	-12.0164
▁mayor	-12.0166
ito	-12.017
posant	-12.0172
▁retrouv	-12.0173
▁brûlé	-12.0176
▁durer	-12.0177
▁souple	-12.0188
▁historic	-12.0192
▁enseignant	-12.0192
amplifi	-12.0195
▁Kepler	-12.0197
▁Taylor	-12.0197
Empire	-12.0197
anxiété	-12.0197
expérimentation	-12.0197
▁1945	-12.0197
▁Carnegie	-12.0197
▁Golfe	-12.0197
▁Michigan	-12.0197
▁Norvège	-12.0197
▁Pouvons	-12.0197
▁Turquie	-12.0197
▁acoustic	-12.0197
▁camarade	-12.0197
▁chèvre	-12.0197
▁contemporary	-12.0197
▁drought	-12.0197
▁féministe	-12.0197
▁monsieur	-12.0197
▁precious	-12.0197
▁proximité	-12.0197
▁pursuit	-12.0197
▁rectangle	-12.0197
▁répète	-12.0197
▁spaghetti	-12.0197
▁supernova	-12.0197
▁terrifying	-12.0197
▁Saudi	-12.0197
▁Northern	-12.0197
▁pensiez	-12.0197
▁Telescope	-12.0197
▁astronomer	-12.0197
▁intended	-12.0197
▁expectancy	-12.0197
▁wildlife	-12.0197
▁polaire	-12.0197
▁silver	-12.0197
▁prédit	-12.0198
▁Turk	-12.0198
▁classical	-12.0198
▁renseignement	-12.0199
▁Until	-12.0199
▁Nicole	-12.0199
▁glow	-12.0199
▁dépose	-12.02
▁aspirations	-12.02
▁86	-12.0201
▁blocs	-12.0201
▁Building	-12.0201
▁homework	-12.0201
▁bassin	-12.0201
▁Republican	-12.0203
▁approprié	-12.0203
▁selfish	-12.0204
▁select	-12.0204
▁manipul	-12.0205
▁écoutez	-12.0205
▁clothing	-12.0205
▁fière	-12.0207
▁morality	-12.0208
MA	-12.0209
▁cherchez	-12.021
▁spécialement	-12.021
▁interactif	-12.021
▁rejeté	-12.0211
▁devil	-12.0211
▁UN	-12.0212
▁souligner	-12.0213
▁émerge	-12.0219
▁matrice	-12.0222
Me	-12.0222
▁contrôlée	-12.0225
▁gratuite	-12.0225
▁achète	-12.0225
▁clay	-12.0234
▁prédateurs	-12.0239
égi	-12.024
▁offering	-12.0241
▁Journal	-12.0246
▁rete	-12.0246
▁64	-12.0248
▁remis	-12.025
▁bénéfice	-12.0259
▁geste	-12.026
▁modeste	-12.0262
▁gods	-12.0264
ciel	-12.0265
▁telescopes	-12.0266
▁musician	-12.0267
attraction	-12.027
▁consomme	-12.0272
▁réveille	-12.0273
▁boutique	-12.0274
ographic	-12.0274
▁appuy	-12.0276
observation	-12.028
investir	-12.0281
invest	-12.0285
Hé	-12.0286
▁absolue	-12.0287
▁friendly	-12.0288
▁bâti	-12.0289
actualité	-12.0294
▁rentr	-12.0295
▁duck	-12.0297
interest	-12.0298
▁mortes	-12.0305
▁appliqué	-12.0305
observer	-12.0308
storm	-12.031
▁remplie	-12.031
▁apparten	-12.0311
volt	-12.0312
tier	-12.0315
▁socio	-12.0319
aucune	-12.0322
▁rechercher	-12.0325
▁assets	-12.0328
▁surround	-12.0329
arian	-12.0329
▁exponential	-12.0335
▁sacrifi	-12.0336
▁ombre	-12.0337
▁barrières	-12.0337
duire	-12.034
▁Mumbai	-12.0342
▁Plutôt	-12.0342
▁burden	-12.0342
▁bénéfique	-12.0342
▁marijuana	-12.0342
▁méthane	-12.0342
▁souffrir	-12.0342
▁souterrain	-12.0342
▁storytelling	-12.0342
▁strategic	-12.0342
▁utilisaient	-12.0342
▁vulnerability	-12.0342
▁diamètre	-12.0342
▁methane	-12.0342
▁antenna	-12.0342
▁seringue	-12.0342
▁prospère	-12.0342
▁discuté	-12.0342
▁marge	-12.0342
▁forgive	-12.0342
▁rebond	-12.0342
▁1991	-12.0342
▁facilities	-12.0342
▁dédié	-12.0342
▁collaborator	-12.0342
▁binary	-12.0342
▁disparaissent	-12.0343
▁simultaneously	-12.0343
▁tendency	-12.0343
▁redesign	-12.0344
▁variant	-12.0344
▁essayait	-12.0346
▁Evan	-12.0348
▁Chile	-12.0348
▁binaire	-12.0348
oubliez	-12.0349
▁workplace	-12.0349
▁Change	-12.0349
loca	-12.035
▁realizing	-12.0351
▁Iranian	-12.0352
▁drain	-12.0353
▁supprimer	-12.0353
▁processeur	-12.036
▁mill	-12.036
▁distinguer	-12.0362
▁spécialisé	-12.0363
▁someday	-12.0363
▁associations	-12.0365
▁washing	-12.0367
▁unconscious	-12.0368
▁manquer	-12.0368
▁remained	-12.0368
▁dirai	-12.037
▁plier	-12.0376
▁remembered	-12.0378
▁bowl	-12.0379
known	-12.0379
▁interviewed	-12.0379
▁Rem	-12.038
▁économiser	-12.0382
▁bind	-12.0383
▁socially	-12.0385
▁vendeur	-12.0389
▁inconnu	-12.0391
▁450	-12.0392
ssey	-12.0394
▁atmosphère	-12.0399
▁stimulate	-12.0403
▁53	-12.0404
▁viewer	-12.0404
▁cibl	-12.0404
▁intégrée	-12.0405
▁activists	-12.0405
▁réagi	-12.0411
animate	-12.0412
▁savon	-12.0414
▁psychologues	-12.0419
agisse	-12.042
▁tromper	-12.0424
honneur	-12.0427
expert	-12.0427
exercice	-12.0427
world	-12.0427
oiseaux	-12.0428
actic	-12.0431
▁traités	-12.0433
▁1,2	-12.0441
▁idéale	-12.0443
▁shirt	-12.0444
▁stimulant	-12.0444
▁intellectuel	-12.0449
▁refuge	-12.0453
▁inhabituel	-12.0455
▁badly	-12.0457
institution	-12.0457
▁attaquer	-12.0459
▁roues	-12.046
▁pén	-12.046
▁semblables	-12.0464
▁critic	-12.0464
▁présentée	-12.0467
▁dangereuses	-12.0468
▁disparaît	-12.0468
oke	-12.0474
▁Yu	-12.0477
▁camel	-12.0478
▁hallucin	-12.0488
▁concrète	-12.0489
▁1996	-12.0489
▁Chuck	-12.0489
▁Gordon	-12.0489
▁Phoenix	-12.0489
▁Pittsburgh	-12.0489
▁Suisse	-12.0489
▁beneath	-12.0489
▁chamber	-12.0489
▁deforestation	-12.0489
▁executive	-12.0489
▁indirect	-12.0489
▁pathogène	-12.0489
▁prospect	-12.0489
▁préférence	-12.0489
▁sensibilité	-12.0489
▁télécharger	-12.0489
▁indigène	-12.0489
▁striking	-12.0489
▁voila	-12.0489
▁Power	-12.0489
▁qualities	-12.0489
▁vierge	-12.0489
▁troupes	-12.0489
▁Blanche	-12.0489
▁ownership	-12.0489
▁ongoing	-12.0489
▁choisissent	-12.049
▁accompagné	-12.0491
▁fence	-12.0491
▁fancy	-12.0491
▁mineral	-12.0491
▁textile	-12.0492
▁flaw	-12.0492
▁challenged	-12.0493
▁Water	-12.0493
▁fournissent	-12.0493
▁atomique	-12.0495
▁52	-12.0496
▁algorithme	-12.0496
▁architecte	-12.0497
▁Point	-12.0497
inquiétude	-12.0498
infiltr	-12.0499
▁venture	-12.05
▁Music	-12.05
▁tutor	-12.0503
▁plume	-12.0507
▁enregistrer	-12.0508
▁Paulo	-12.0509
gal	-12.051
▁manner	-12.0511
▁onstage	-12.0512
▁Tour	-12.0514
▁Beck	-12.0515
▁effectuer	-12.0518
uber	-12.0522
▁collectively	-12.0524
▁transforment	-12.0527
▁bush	-12.0527
▁glasses	-12.0529
▁épargn	-12.0531
uous	-12.0531
▁indices	-12.0532
▁orientation	-12.0538
▁distinguish	-12.0545
▁humili	-12.0546
▁envoyée	-12.0548
▁tenant	-12.0548
▁gouvernementale	-12.0553
▁extérieure	-12.0557
▁Same	-12.0557
▁psychologue	-12.0559
▁assumption	-12.0559
▁folk	-12.056
▁envisager	-12.056
▁exacte	-12.0561
▁étendre	-12.0562
▁rendait	-12.0563
entrepreneur	-12.0576
animation	-12.0576
pêche	-12.0577
▁Ban	-12.0578
▁jou	-12.0579
▁aimant	-12.058
▁Ve	-12.0581
▁embrass	-12.0581
équation	-12.0582
▁dira	-12.0586
▁beautifully	-12.0587
▁arrest	-12.0589
allume	-12.0592
tories	-12.0595
▁rationnel	-12.0596
▁amélioré	-12.0599
▁empower	-12.0606
▁vérifi	-12.0611
▁inspect	-12.0613
▁rassemble	-12.0614
▁ferais	-12.0617
▁homeless	-12.0621
▁motivate	-12.0622
Au	-12.0623
▁traversent	-12.0631
▁dare	-12.0633
▁pirates	-12.0636
▁fusionn	-12.0636
Espagne	-12.0638
accélère	-12.0638
indépendance	-12.0638
▁Although	-12.0638
▁LGBT	-12.0638
▁Roosevelt	-12.0638
▁Skype	-12.0638
▁System	-12.0638
▁Tibet	-12.0638
▁categories	-12.0638
▁cherchant	-12.0638
▁cohérent	-12.0638
▁cosmic	-12.0638
▁céréales	-12.0638
▁disparition	-12.0638
▁décembre	-12.0638
▁fassiez	-12.0638
▁glimpse	-12.0638
▁malnutrition	-12.0638
▁moustiquaire	-12.0638
▁regulate	-12.0638
▁reproduce	-12.0638
excellence	-12.0638
▁Emily	-12.0638
▁hiding	-12.0638
▁specula	-12.0638
▁Julie	-12.0638
▁tennis	-12.0638
▁servant	-12.0638
▁pivot	-12.0638
▁marchandise	-12.0638
▁investigate	-12.0638
▁uncertainty	-12.0638
▁devenez	-12.0638
▁célébrité	-12.0639
▁singer	-12.0639
▁dawn	-12.0639
▁index	-12.0639
▁navigation	-12.0639
▁progressive	-12.064
▁Fondation	-12.064
▁chameau	-12.064
▁besides	-12.0641
▁apprenez	-12.0642
▁subway	-12.0643
▁ressentez	-12.0643
▁coca	-12.0643
▁finale	-12.0644
hhh	-12.0644
had	-12.0644
▁naviguer	-12.0645
▁couvre	-12.0645
▁commandes	-12.0645
▁Neil	-12.0647
▁closest	-12.0649
▁traditionnels	-12.0649
[...]
