<pad>	0
<unk>	0
<s>	0
</s>	0
▁t	-0
es	-1
▁a	-2
▁d	-3
en	-4
on	-5
ou	-6
▁p	-7
in	-8
▁c	-9
er	-10
▁l	-11
▁s	-12
▁th	-13
re	-14
is	-15
an	-16
it	-17
▁m	-18
at	-19
qu	-20
▁w	-21
ent	-22
▁the	-23
▁f	-24
▁de	-25
or	-26
▁n	-27
▁b	-28
ll	-29
et	-30
ar	-31
▁qu	-32
▁v	-33
nd	-34
▁o	-35
om	-36
▁h	-37
un	-38
as	-39
ing	-40
le	-41
ion	-42
▁to	-43
ous	-44
▁in	-45
ve	-46
us	-47
▁I	-48
▁g	-49
ic	-50
ur	-51
▁of	-52
our	-53
est	-54
al	-55
il	-56
▁un	-57
ut	-58
▁and	-59
ro	-60
▁la	-61
▁le	-62
▁y	-63
te	-64
▁e	-65
ai	-66
▁r	-67
▁que	-68
▁j	-69
▁et	-70
ce	-71
ment	-72
▁that	-73
▁en	-74
ed	-75
▁A	-76
ant	-77
ir	-78
ot	-79
▁les	-80
me	-81
ch	-82
os	-83
▁à	-84
▁on	-85
▁T	-86
ct	-87
▁des	-88
▁re	-89
ais	-90
▁com	-91
▁wh	-92
ait	-93
ons	-94
▁be	-95
ie	-96
ans	-97
▁is	-98
im	-99
out	-100
ow	-101
▁you	-102
id	-103
▁we	-104
▁ch	-105
▁it	-106
▁S	-107
ont	-108
ol	-109
▁ce	-110
ig	-111
▁C	-112
▁E	-113
▁tr	-114
▁se	-115
ers	-116
▁par	-117
ay	-118
if	-119
ation	-120
ere	-121
▁pl	-122
▁é	-123
ag	-124
▁ha	-125
lle	-126
▁pro	-127
▁pas	-128
▁pour	-129
▁ne	-130
▁nous	-131
que	-132
▁an	-133
ain	-134
▁une	-135
se	-136
ux	-137
all	-138
▁qui	-139
▁vous	-140
ri	-141
and	-142
▁Th	-143
▁M	-144
ver	-145
▁And	-146
▁-	-147
pp	-148
▁for	-149
▁dans	-150
▁st	-151
ul	-152
▁pe	-153
▁this	-154
am	-155
res	-156
▁L	-157
ne	-158
▁--	-159
▁est	-160
ld	-161
op	-162
ci	-163
▁mo	-164
ble	-165
ad	-166
ke	-167
▁je	-168
▁ex	-169
▁do	-170
ter	-171
ill	-172
▁N	-173
▁B	-174
ly	-175
▁J	-176
end	-177
▁W	-178
iv	-179
▁me	-180
ac	-181
▁Et	-182
au	-183
▁dé	-184
ens	-185
▁il	-186
▁was	-187
av	-188
▁as	-189
ure	-190
▁so	-191
▁sur	-192
és	-193
ond	-194
ith	-195
▁av	-196
▁su	-197
▁not	-198
ist	-199
ort	-200
▁du	-201
▁are	-202
▁plus	-203
▁D	-204
ally	-205
ap	-206
ér	-207
▁pr	-208
▁P	-209
▁"	-210
el	-211
ess	-212
▁with	-213
▁at	-214
▁can	-215
▁k	-216
▁ab	-217
▁have	-218
▁go	-219
▁ét	-220
▁te	-221
ions	-222
th	-223
▁they	-224
ire	-225
▁au	-226
▁all	-227
um	-228
▁don	-229
ée	-230
imp	-231
ate	-232
ien	-233
▁comp	-234
ive	-235
▁som	-236
ht	-237
aire	-238
use	-239
ang	-240
▁con	-241
▁ré	-242
od	-243
st	-244
og	-245
▁ave	-246
▁wor	-247
▁1	-248
▁So	-249
▁or	-250
ust	-251
bl	-252
▁he	-253
tre	-254
ard	-255
▁sh	-256
ét	-257
ique	-258
▁fr	-259
ould	-260
▁what	-261
▁about	-262
▁ar	-263
oir	-264
▁O	-265
age	-266
▁ma	-267
ose	-268
▁li	-269
ère	-270
▁Il	-271
▁gr	-272
▁al	-273
ès	-274
ine	-275
up	-276
▁sont	-277
▁The	-278
mp	-279
ue	-280
ies	-281
▁part	-282
▁fait	-283
▁avec	-284
ette	-285
ite	-286
▁H	-287
▁si	-288
ight	-289
▁lo	-290
ité	-291
ence	-292
▁my	-293
urs	-294
si	-295
▁fa	-296
ide	-297
mes	-298
pe	-299
ind	-300
▁there	-301
ff	-302
▁V	-303
ors	-304
ople	-305
ok	-306
▁tout	-307
ese	-308
ouv	-309
ca	-310
▁We	-311
ity	-312
tr	-313
▁sa	-314
▁Je	-315
▁ces	-316
▁like	-317
ici	-318
▁:	-319
▁It	-320
▁people	-321
iff	-322
▁one	-323
ées	-324
▁from	-325
▁?	-326
able	-327
▁comme	-328
▁but	-329
▁mais	-330
aient	-331
▁comm	-332
▁out	-333
être	-334
▁us	-335
▁ou	-336
▁cette	-337
▁our	-338
▁per	-339
▁app	-340
ça	-341
ars	-342
ques	-343
▁ça	-344
▁vo	-345
▁ver	-346
ace	-347
00	-348
ich	-349
▁int	-350
▁diff	-351
ale	-352
ouve	-353
now	-354
art	-355
ab	-356
▁dis	-357
ink	-358
▁faire	-359
▁just	-360
oug	-361
▁imp	-362
ore	-363
▁fe	-364
▁2	-365
▁ont	-366
▁cont	-367
pt	-368
ance	-369
ud	-370
du	-371
ign	-372
▁cr	-373
▁cons	-374
▁know	-375
▁G	-376
▁act	-377
her	-378
oup	-379
iss	-380
▁exp	-381
▁ent	-382
▁quel	-383
▁R	-384
▁pers	-385
pr	-386
."	-387
ven	-388
ong	-389
ez	-390
▁thing	-391
▁pu	-392
▁Y	-393
cause	-394
lo	-395
act	-396
olog	-397
▁co	-398
▁man	-399
▁But	-400
▁them	-401
ier	-402
▁see	-403
orm	-404
▁Mais	-405
▁avons	-406
▁these	-407
▁ye	-408
▁up	-409
▁if	-410
les	-411
alk	-412
▁think	-413
▁very	-414
▁Nous	-415
▁aut	-416
une	-417
▁po	-418
▁who	-419
▁cl	-420
ound	-421
▁get	-422
▁person	-423
onde	-424
ations	-425
▁by	-426
ost	-427
aut	-428
ui	-429
int	-430
one	-431
ge	-432
ert	-433
▁F	-434
ays	-435
ted	-436
▁pre	-437
enc	-438
ants	-439
▁going	-440
ême	-441
lles	-442
▁some	-443
▁when	-444
▁more	-445
▁peut	-446
ime	-447
ière	-448
▁très	-449
▁ph	-450
ult	-451
▁had	-452
ord	-453
▁your	-454
▁fo	-455
▁because	-456
ack	-457
▁ils	-458
la	-459
che	-460
rai	-461
▁chang	-462
ten	-463
▁sp	-464
aux	-465
ents	-466
▁ever	-467
▁am	-468
▁U	-469
▁bien	-470
éc	-471
▁would	-472
oi	-473
ils	-474
▁monde	-475
▁sy	-476
▁how	-477
én	-478
cc	-479
▁their	-480
ast	-481
▁were	-482
▁Wh	-483
▁work	-484
ction	-485
▁which	-486
▁br	-487
ins	-488
▁look	-489
iz	-490
▁dev	-491
ress	-492
ille	-493
ense	-494
▁gens	-495
ice	-496
▁trav	-497
▁really	-498
ually	-499
ème	-500
reat	-501
hing	-502
▁ag	-503
are	-504
ach	-505
▁vrai	-506
▁inter	-507
▁world	-508
ect	-509
▁has	-510
ours	-511
▁In	-512
▁hum	-513
▁ser	-514
▁dit	-515
▁mar	-516
ak	-517
▁chose	-518
▁im	-519
iques	-520
▁mon	-521
ass	-522
▁être	-523
▁grand	-524
▁time	-525
vent	-526
▁res	-527
ments	-528
form	-529
▁leur	-530
ise	-531
▁peu	-532
endre	-533
▁♫	-534
ther	-535
▁dire	-536
▁même	-537
ough	-538
▁vie	-539
▁here	-540
▁Le	-541
▁then	-542
app	-543
▁notre	-544
▁pouv	-545
▁pos	-546
▁«	-547
▁ro	-548
und	-549
▁En	-550
ussi	-551
▁every	-552
▁mill	-553
▁You	-554
▁Ce	-555
▁car	-556
▁aux	-557
▁This	-558
▁cela	-559
chn	-560
▁into	-561
▁ans	-562
ild	-563
▁La	-564
▁no	-565
▁could	-566
aid	-567
auc	-568
▁»	-569
▁actually	-570
éd	-571
▁will	-572
itt	-573
nes	-574
ical	-575
▁déc	-576
▁way	-577
▁pass	-578
▁suis	-579
▁où	-580
▁quand	-581
▁techn	-582
▁mat	-583
util	-584
▁where	-585
ck	-586
he	-587
▁tous	-588
▁était	-589
▁inc	-590
▁years	-591
ip	-592
▁ob	-593
▁été	-594
▁now	-595
▁other	-596
ia	-597
▁Q	-598
ner	-599
aucoup	-600
▁things	-601
ient	-602
▁son	-603
▁ad	-604
▁did	-605
onc	-606
ome	-607
▁deux	-608
▁quest	-609
▁aussi	-610
so	-611
▁tou	-612
cent	-613
ule	-614
▁Vous	-615
ub	-616
oun	-617
▁Ch	-618
▁want	-619
▁fin	-620
▁ter	-621
▁somet	-622
▁Now	-623
ures	-624
ED	-625
▁Les	-626
▁vraiment	-627
lé	-628
▁mont	-629
gr	-630
▁import	-631
▁beaucoup	-632
▁make	-633
▁been	-634
ition	-635
its	-636
nées	-637
▁They	-638
ces	-639
▁soci	-640
oses	-641
▁any	-642
ains	-643
▁TED	-644
▁donc	-645
▁parce	-646
▁than	-647
▁temp	-648
orte	-649
wo	-650
▁happ	-651
▁reg	-652
▁éc	-653
▁On	-654
▁need	-655
mer	-656
était	-657
ouver	-658
▁produ	-659
▁bu	-660
otre	-661
êt	-662
li	-663
▁3	-664
▁Donc	-665
▁dem	-666
▁ve	-667
▁trans	-668
▁choses	-669
▁ca	-670
▁right	-671
ber	-672
▁simp	-673
ree	-674
ric	-675
▁say	-676
ory	-677
irst	-678
▁technolog	-679
utilis	-680
▁bas	-681
ade	-682
▁jus	-683
éri	-684
▁sol	-685
amp	-686
▁over	-687
ainten	-688
▁nos	-689
▁said	-690
▁K	-691
▁Al	-692
bre	-693
ution	-694
ys	-695
ets	-696
▁prop	-697
▁elle	-698
▁something	-699
ife	-700
uch	-701
▁long	-702
ake	-703
▁litt	-704
ivers	-705
ms	-706
▁gen	-707
▁back	-708
▁mod	-709
▁rec	-710
▁ind	-711
▁cro	-712
▁nouve	-713
ex	-714
▁pet	-715
ante	-716
▁vou	-717
▁env	-718
▁sci	-719
▁voir	-720
▁those	-721
▁new	-722
ile	-723
▁two	-724
▁cré	-725
aintenant	-726
ern	-727
000	-728
▁là	-729
▁call	-730
▁much	-731
ob	-732
▁prem	-733
bles	-734
elle	-735
▁Ils	-736
▁differ	-737
▁first	-738
▁talk	-739
▁sec	-740
▁quelque	-741
▁point	-742
▁got	-743
ail	-744
▁commun	-745
▁votre	-746
▁enc	-747
ru	-748
ict	-749
cri	-750
▁tro	-751
▁pens	-752
▁also	-753
▁cap	-754
▁kind	-755
▁pol	-756
▁cent	-757
▁change	-758
ial	-759
▁cour	-760
sel	-761
ick	-762
vez	-763
▁enf	-764
▁bo	-765
▁lot	-766
▁spe	-767
ra	-768
▁she	-769
own	-770
be	-771
▁cert	-772
▁eff	-773
ph	-774
esp	-775
▁his	-776
▁little	-777
▁gu	-778
ages	-779
uis	-780
▁entre	-781
▁important	-782
▁plan	-783
▁acc	-784
aine	-785
▁und	-786
▁cor	-787
ler	-788
▁comment	-789
▁mom	-790
tit	-791
▁most	-792
gan	-793
onom	-794
▁temps	-795
ep	-796
▁sav	-797
▁bon	-798
▁bet	-799
iron	-800
▁mes	-801
▁Tr	-802
▁jour	-803
▁id	-804
oire	-805
ouvez	-806
▁fois	-807
vol	-808
oc	-809
ody	-810
▁vis	-811
▁end	-812
▁off	-813
▁That	-814
vel	-815
▁probl	-816
▁met	-817
▁Qu	-818
ated	-819
▁life	-820
▁différ	-821
▁question	-822
▁only	-823
▁ins	-824
▁pense	-825
▁rel	-826
ues	-827
▁utilis	-828
▁avait	-829
cher	-830
▁even	-831
▁sc	-832
▁moi	-833
▁bl	-834
▁voy	-835
▁sort	-836
▁regard	-837
ros	-838
ats	-839
rit	-840
▁liv	-841
▁ici	-842
ase	-843
▁her	-844
ater	-845
▁pourr	-846
ject	-847
ature	-848
ôt	-849
▁He	-850
▁Un	-851
▁ess	-852
▁pouvez	-853
▁nom	-854
▁af	-855
çon	-856
▁20	-857
▁mot	-858
▁conf	-859
▁pat	-860
▁many	-861
ank	-862
cript	-863
ish	-864
▁fam	-865
ren	-866
▁att	-867
▁simple	-868
▁Vo	-869
rough	-870
▁5	-871
▁take	-872
▁mal	-873
ves	-874
▁19	-875
ib	-876
▁different	-877
tru	-878
▁arri	-879
iez	-880
wn	-881
erve	-882
▁min	-883
▁hist	-884
aires	-885
pl	-886
▁real	-887
alement	-888
▁good	-889
▁seule	-890
▁bi	-891
emp	-892
▁Si	-893
sem	-894
▁personnes	-895
ég	-896
▁non	-897
▁through	-898
▁around	-899
cept	-900
▁does	-901
▁ide	-902
▁What	-903
▁sommes	-904
▁show	-905
▁moment	-906
ry	-907
per	-908
ères	-909
▁publ	-910
oin	-911
endant	-912
▁down	-913
▁10	-914
alis	-915
▁rest	-916
▁leurs	-917
▁rép	-918
urn	-919
▁fem	-920
▁demand	-921
ary	-922
▁Alors	-923
▁There	-924
▁encore	-925
▁rem	-926
▁commenc	-927
▁dont	-928
▁put	-929
▁coun	-930
rer	-931
▁rés	-932
aines	-933
▁ac	-934
▁Talk	-935
▁pays	-936
▁4	-937
▁fais	-938
▁prof	-939
▁Trans	-940
▁gén	-941
▁possi	-942
▁Par	-943
tern	-944
▁tell	-945
aph	-946
▁autre	-947
▁design	-948
▁inst	-949
▁fl	-950
▁art	-951
arn	-952
▁being	-953
llement	-954
▁Sub	-955
▁use	-956
quoi	-957
air	-958
▁sign	-959
▁façon	-960
▁cha	-961
titles	-962
ourd	-963
arg	-964
ting	-965
ute	-966
▁Subtitles	-967
▁Transcript	-968
ém	-969
we	-970
ower	-971
▁bes	-972
az	-973
ual	-974
▁avoir	-975
ought	-976
ré	-977
▁human	-978
▁travai	-979
érie	-980
ether	-981
▁mus	-982
sez	-983
ste	-984
▁jam	-985
▁place	-986
▁proble	-987
ful	-988
▁happen	-989
▁Com	-990
▁same	-991
▁fact	-992
xt	-993
▁environ	-994
erci	-995
oy	-996
anc	-997
ésent	-998
▁vers	-999
▁dep	-1000
iers	-1001
▁try	-1002
▁va	-1003
▁lui	-1004
old	-1005
▁vais	-1006
imes	-1007
jet	-1008
hui	-1009
▁sans	-1010
▁avez	-1011
lect	-1012
ris	-1013
▁juste	-1014
igh	-1015
▁personne	-1016
red	-1017
▁alors	-1018
day	-1019
ope	-1020
▁toutes	-1021
ics	-1022
▁fut	-1023
▁Af	-1024
▁come	-1025
iste	-1026
par	-1027
▁phot	-1028
icul	-1029
▁Be	-1030
▁may	-1031
▁maintenant	-1032
▁big	-1033
em	-1034
▁inf	-1035
ines	-1036
jourd	-1037
▁sm	-1038
nement	-1039
▁Pour	-1040
nent	-1041
ible	-1042
▁find	-1043
▁voul	-1044
▁let	-1045
▁cell	-1046
ites	-1047
près	-1048
▁doing	-1049
ates	-1050
cess	-1051
▁great	-1052
▁syst	-1053
▁start	-1054
▁di	-1055
▁Ne	-1056
▁puis	-1057
ences	-1058
▁besoin	-1059
▁three	-1060
row	-1061
onn	-1062
▁day	-1063
▁inv	-1064
▁stud	-1065
▁quelques	-1066
..	-1067
▁rep	-1068
ically	-1069
erg	-1070
met	-1071
▁inform	-1072
▁doll	-1073
▁anim	-1074
ving	-1075
▁syste	-1076
▁dec	-1077
▁percent	-1078
▁ask	-1079
▁compl	-1080
▁build	-1081
▁jamais	-1082
▁If	-1083
ois	-1084
?"	-1085
▁méd	-1086
other	-1087
▁organ	-1088
▁trois	-1089
ieu	-1090
▁années	-1091
▁sens	-1092
▁well	-1093
▁sem	-1094
att	-1095
▁star	-1096
▁enfants	-1097
uc	-1098
ète	-1099
▁conn	-1100
▁disc	-1101
thing	-1102
▁ty	-1103
ave	-1104
ah	-1105
▁hom	-1106
tes	-1107
▁called	-1108
alité	-1109
ork	-1110
▁again	-1111
pect	-1112
▁num	-1113
▁expl	-1114
▁em	-1115
ath	-1116
▁child	-1117
illes	-1118
ities	-1119
▁ses	-1120
erst	-1121
▁rais	-1122
ating	-1123
ative	-1124
autres	-1125
▁four	-1126
▁bel	-1127
self	-1128
▁wom	-1129
iment	-1130
▁pouvons	-1131
▁problème	-1132
▁learn	-1133
▁pres	-1134
▁made	-1135
▁moins	-1136
body	-1137
ident	-1138
fore	-1139
rendre	-1140
▁pri	-1141
▁veux	-1142
▁mak	-1143
ious	-1144
▁dern	-1145
▁fil	-1146
▁emp	-1147
▁Well	-1148
▁why	-1149
...	-1150
agn	-1151
▁viv	-1152
ole	-1153
jours	-1154
▁own	-1155
▁contin	-1156
▁exemp	-1157
▁hel	-1158
▁imag	-1159
▁peuvent	-1160
way	-1161
als	-1162
lex	-1163
▁nature	-1164
ft	-1165
ific	-1166
▁prob	-1167
▁toujours	-1168
ec	-1169
▁should	-1170
uit	-1171
acc	-1172
auv	-1173
ved	-1174
née	-1175
▁cas	-1176
▁dro	-1177
entre	-1178
▁ord	-1179
ogr	-1180
▁seulement	-1181
▁eu	-1182
▁particul	-1183
▁dollars	-1184
ement	-1185
▁constru	-1186
erre	-1187
▁chaque	-1188
▁supp	-1189
▁sch	-1190
ty	-1191
▁extr	-1192
ards	-1193
▁parler	-1194
▁underst	-1195
▁turn	-1196
ieux	-1197
▁polit	-1198
▁travaill	-1199
▁sou	-1200
ool	-1201
▁pré	-1202
▁year	-1203
▁Elle	-1204
▁cond	-1205
arch	-1206
vous	-1207
rent	-1208
ls	-1209
▁op	-1210
▁form	-1211
ables	-1212
▁creat	-1213
▁feel	-1214
▁contr	-1215
ands	-1216
ps	-1217
▁St	-1218
▁after	-1219
▁progr	-1220
▁pendant	-1221
lopp	-1222
ian	-1223
▁exper	-1224
êtes	-1225
èmes	-1226
▁didn	-1227
quer	-1228
▁Voici	-1229
velopp	-1230
ame	-1231
cer	-1232
▁today	-1233
▁cult	-1234
▁étud	-1235
▁thought	-1236
▁soit	-1237
▁its	-1238
▁partie	-1239
su	-1240
▁200	-1241
▁après	-1242
▁sub	-1243
aiss	-1244
▁idea	-1245
ives	-1246
▁sû	-1247
▁mean	-1248
▁nombre	-1249
▁tu	-1250
▁pris	-1251
▁started	-1252
ales	-1253
cture	-1254
▁scient	-1255
oth	-1256
▁travail	-1257
ateur	-1258
▁ven	-1259
▁déf	-1260
aces	-1261
▁dép	-1262
▁autres	-1263
ités	-1264
▁second	-1265
▁dist	-1266
▁Thank	-1267
▁course	-1268
▁him	-1269
▁pop	-1270
,000	-1271
▁Merci	-1272
▁savez	-1273
▁vi	-1274
ts	-1275
▁elles	-1276
cul	-1277
▁coup	-1278
▁last	-1279
▁power	-1280
ches	-1281
cle	-1282
▁process	-1283
ied	-1284
▁conne	-1285
vers	-1286
ning	-1287
idé	-1288
▁might	-1289
▁interest	-1290
▁better	-1291
▁développ	-1292
duc	-1293
▁aff	-1294
▁différent	-1295
▁dur	-1296
▁colle	-1297
ience	-1298
▁étaient	-1299
▁cet	-1300
▁deven	-1301
▁avant	-1302
ists	-1303
▁before	-1304
▁millions	-1305
▁meille	-1306
▁play	-1307
▁quoi	-1308
▁première	-1309
étais	-1310
▁ke	-1311
▁understand	-1312
▁essay	-1313
ête	-1314
▁train	-1315
▁système	-1316
▁men	-1317
▁public	-1318
▁resp	-1319
▁story	-1320
▁went	-1321
▁aujourd	-1322
▁ret	-1323
▁z	-1324
▁problem	-1325
uses	-1326
▁help	-1327
volution	-1328
autre	-1329
ility	-1330
▁exemple	-1331
▁str	-1332
▁tak	-1333
▁6	-1334
▁system	-1335
▁sent	-1336
ug	-1337
▁another	-1338
▁possible	-1339
▁give	-1340
▁never	-1341
▁comb	-1342
iles	-1343
▁commencé	-1344
▁inté	-1345
▁rob	-1346
▁found	-1347
▁science	-1348
ières	-1349
▁lors	-1350
▁voit	-1351
,"	-1352
▁bec	-1353
vé	-1354
▁program	-1355
▁trouv	-1356
ider	-1357
▁toute	-1358
▁cerve	-1359
semble	-1360
▁examp	-1361
ène	-1362
▁able	-1363
alth	-1364
ily	-1365
▁voyez	-1366
▁ass	-1367
ata	-1368
ids	-1369
▁De	-1370
▁belie	-1371
uel	-1372
▁live	-1373
▁still	-1374
ational	-1375
iter	-1376
atique	-1377
▁popul	-1378
▁few	-1379
▁jou	-1380
▁tog	-1381
▁Dans	-1382
ograph	-1383
▁vol	-1384
ather	-1385
ression	-1386
▁together	-1387
ends	-1388
▁esp	-1389
eau	-1390
▁fon	-1391
ov	-1392
▁brain	-1393
▁cre	-1394
▁manière	-1395
br	-1396
man	-1397
ention	-1398
▁mor	-1399
▁sûr	-1400
▁conc	-1401
ix	-1402
▁ec	-1403
▁high	-1404
▁An	-1405
ié	-1406
▁bit	-1407
▁next	-1408
▁New	-1409
ange	-1410
▁phys	-1411
▁lang	-1412
velop	-1413
▁tant	-1414
▁pourquoi	-1415
▁came	-1416
▁mach	-1417
▁dou	-1418
▁univers	-1419
▁test	-1420
▁souv	-1421
insi	-1422
▁million	-1423
ween	-1424
▁ago	-1425
ings	-1426
▁appel	-1427
▁stru	-1428
ital	-1429
cte	-1430
arge	-1431
▁school	-1432
▁travers	-1433
▁eng	-1434
antes	-1435
▁How	-1436
arm	-1437
ited	-1438
él	-1439
▁sl	-1440
ark	-1441
ones	-1442
meric	-1443
▁grande	-1444
équ	-1445
ules	-1446
uss	-1447
lob	-1448
▁Cel	-1449
▁Ind	-1450
▁Une	-1451
ices	-1452
▁med	-1453
iner	-1454
▁sous	-1455
▁water	-1456
ull	-1457
▁robot	-1458
▁coll	-1459
▁jusqu	-1460
io	-1461
▁aur	-1462
▁col	-1463
read	-1464
▁femmes	-1465
▁depuis	-1466
▁7	-1467
avais	-1468
▁used	-1469
▁between	-1470
▁êtes	-1471
▁develop	-1472
▁When	-1473
utes	-1474
▁technology	-1475
▁each	-1476
▁data	-1477
▁présent	-1478
▁trouver	-1479
▁face	-1480
iness	-1481
▁8	-1482
▁cerveau	-1483
Un	-1484
élé	-1485
▁fonction	-1486
▁Quand	-1487
▁données	-1488
▁déb	-1489
▁ple	-1490
▁pourrait	-1491
ivid	-1492
▁rien	-1493
▁rend	-1494
▁women	-1495
▁too	-1496
suite	-1497
▁sit	-1498
▁dr	-1499
▁font	-1500
ateurs	-1501
▁prin	-1502
né	-1503
anted	-1504
▁lead	-1505
▁devr	-1506
rib	-1507
▁Americ	-1508
▁bus	-1509
▁fond	-1510
▁9	-1511
▁cher	-1512
led	-1513
▁small	-1514
ret	-1515
▁group	-1516
arly	-1517
▁petit	-1518
▁sais	-1519
hist	-1520
ized	-1521
▁100	-1522
▁15	-1523
▁che	-1524
été	-1525
▁quelqu	-1526
▁vu	-1527
▁love	-1528
▁grow	-1529
▁ref	-1530
ances	-1531
▁dém	-1532
▁serv	-1533
ilà	-1534
▁30	-1535
▁dés	-1536
ways	-1537
▁génér	-1538
ood	-1539
▁moy	-1540
▁réf	-1541
▁prot	-1542
▁looking	-1543
▁technologie	-1544
ds	-1545
roy	-1546
▁50	-1547
▁care	-1548
▁passe	-1549
▁comput	-1550
ode	-1551
▁old	-1552
ize	-1553
▁wr	-1554
▁assez	-1555
ision	-1556
▁opp	-1557
ries	-1558
▁créer	-1559
▁rapp	-1560
▁questions	-1561
▁Cela	-1562
▁example	-1563
▁main	-1564
▁Maintenant	-1565
▁pouvoir	-1566
▁faut	-1567
asse	-1568
▁ris	-1569
▁inte	-1570
▁march	-1571
over	-1572
ger	-1573
▁vir	-1574
▁social	-1575
▁doesn	-1576
▁suiv	-1577
ness	-1578
ternet	-1579
▁déj	-1580
ustr	-1581
▁move	-1582
▁done	-1583
▁prendre	-1584
▁cou	-1585
▁permet	-1586
ser	-1587
rique	-1588
de	-1589
ye	-1590
▁wanted	-1591
ager	-1592
▁sorte	-1593
▁rap	-1594
▁Au	-1595
aî	-1596
▁intéress	-1597
ene	-1598
ably	-1599
▁read	-1600
ude	-1601
▁six	-1602
ép	-1603
hip	-1604
▁hard	-1605
▁light	-1606
▁Because	-1607
▁beh	-1608
gl	-1609
▁gl	-1610
▁complex	-1611
▁Afric	-1612
▁port	-1613
oney	-1614
▁lab	-1615
▁sk	-1616
atch	-1617
ural	-1618
arr	-1619
▁sing	-1620
▁devons	-1621
ablement	-1622
▁sour	-1623
▁reas	-1624
▁exc	-1625
▁vos	-1626
▁sel	-1627
▁tour	-1628
▁eux	-1629
▁imm	-1630
▁glob	-1631
ortun	-1632
▁comprendre	-1633
▁under	-1634
▁appro	-1635
ducation	-1636
▁whole	-1637
ape	-1638
cip	-1639
▁Ar	-1640
▁es	-1641
igne	-1642
▁fer	-1643
▁less	-1644
▁information	-1645
▁genre	-1646
ième	-1647
▁dess	-1648
▁econom	-1649
try	-1650
▁nouveau	-1651
selves	-1652
▁trait	-1653
▁mis	-1654
▁working	-1655
▁effect	-1656
▁idée	-1657
▁cancer	-1658
ek	-1659
ifs	-1660
▁sex	-1661
▁As	-1662
▁mic	-1663
▁trying	-1664
ories	-1665
▁mem	-1666
cial	-1667
anger	-1668
▁mort	-1669
ari	-1670
▁el	-1671
▁dir	-1672
ients	-1673
▁always	-1674
▁recher	-1675
oud	-1676
▁away	-1677
▁open	-1678
▁health	-1679
▁premier	-1680
istes	-1681
iel	-1682
ilité	-1683
▁children	-1684
▁gener	-1685
pris	-1686
▁cur	-1687
▁Re	-1688
ordin	-1689
▁clim	-1690
▁respons	-1691
▁cal	-1692
uer	-1693
▁peux	-1694
▁viol	-1695
▁minutes	-1696
▁gros	-1697
▁hand	-1698
▁passé	-1699
▁country	-1700
▁dom	-1701
▁culture	-1702
▁déjà	-1703
utôt	-1704
▁trop	-1705
ell	-1706
▁Is	-1707
▁believe	-1708
▁individ	-1709
▁fri	-1710
▁donner	-1711
action	-1712
▁puiss	-1713
▁chez	-1714
isse	-1715
iens	-1716
▁beaut	-1717
▁terr	-1718
▁ép	-1719
▁using	-1720
▁mess	-1721
nov	-1722
▁abs	-1723
▁év	-1724
bit	-1725
arth	-1726
uff	-1727
▁mil	-1728
sy	-1729
▁crois	-1730
face	-1731
ouse	-1732
▁trad	-1733
▁certain	-1734
▁histoire	-1735
ron	-1736
▁bill	-1737
▁Pe	-1738
▁home	-1739
▁book	-1740
gg	-1741
▁Tout	-1742
wh	-1743
▁Parce	-1744
▁ceux	-1745
▁côt	-1746
▁ste	-1747
▁loc	-1748
▁ress	-1749
▁savoir	-1750
oute	-1751
▁project	-1752
▁neur	-1753
▁000	-1754
▁contre	-1755
▁plutôt	-1756
▁lim	-1757
aur	-1758
▁future	-1759
▁thinking	-1760
▁transform	-1761
▁télé	-1762
ete	-1763
▁count	-1764
isme	-1765
nous	-1766
▁rég	-1767
▁space	-1768
▁means	-1769
bo	-1770
▁pict	-1771
▁money	-1772
▁problèmes	-1773
▁simplement	-1774
▁rad	-1775
▁create	-1776
▁run	-1777
▁pay	-1778
ocr	-1779
exp	-1780
▁endro	-1781
▁biolog	-1782
upart	-1783
▁plupart	-1784
▁expéri	-1785
▁jours	-1786
▁super	-1787
▁auc	-1788
▁pot	-1789
▁mark	-1790
▁took	-1791
utions	-1792
▁bonne	-1793
ince	-1794
ount	-1795
tres	-1796
▁contro	-1797
▁type	-1798
llig	-1799
▁My	-1800
▁five	-1801
qué	-1802
anté	-1803
▁raison	-1804
▁become	-1805
▁montrer	-1806
cted	-1807
ôle	-1808
▁kids	-1809
▁situ	-1810
▁val	-1811
▁!	-1812
▁ceci	-1813
▁maybe	-1814
orn	-1815
▁Fr	-1816
▁fun	-1817
▁compan	-1818
▁économ	-1819
lez	-1820
▁mag	-1821
mber	-1822
▁mind	-1823
▁nouvelle	-1824
▁teach	-1825
▁mettre	-1826
▁number	-1827
ax	-1828
▁sim	-1829
▁everything	-1830
▁large	-1831
èg	-1832
▁pap	-1833
▁parf	-1834
▁corps	-1835
gin	-1836
▁She	-1837
▁mois	-1838
oh	-1839
▁ég	-1840
ament	-1841
▁changer	-1842
▁cause	-1843
teur	-1844
▁One	-1845
▁moyen	-1846
rir	-1847
▁ai	-1848
▁réalis	-1849
▁repr	-1850
▁For	-1851
▁best	-1852
iennent	-1853
▁gouver	-1854
▁cle	-1855
▁bre	-1856
min	-1857
omb	-1858
lic	-1859
▁succ	-1860
▁projet	-1861
ides	-1862
onne	-1863
▁aller	-1864
▁head	-1865
ente	-1866
▁mieux	-1867
▁walk	-1868
▁left	-1869
▁Comment	-1870
▁propos	-1871
▁invest	-1872
vern	-1873
▁energ	-1874
alf	-1875
ieurs	-1876
▁image	-1877
▁malad	-1878
aps	-1879
érieur	-1880
itions	-1881
quelle	-1882
▁rac	-1883
reen	-1884
▁concept	-1885
ze	-1886
▁dri	-1887
▁food	-1888
enir	-1889
▁getting	-1890
▁Internet	-1891
▁govern	-1892
ument	-1893
▁York	-1894
sembl	-1895
els	-1896
▁modè	-1897
▁ainsi	-1898
▁laquelle	-1899
▁class	-1900
▁ordin	-1901
▁voici	-1902
▁cours	-1903
érer	-1904
histoire	-1905
eng	-1906
▁mond	-1907
▁prov	-1908
▁enough	-1909
ety	-1910
▁ensuite	-1911
lu	-1912
▁lum	-1913
▁tot	-1914
hs	-1915
▁population	-1916
▁surv	-1917
▁connect	-1918
▁says	-1919
▁front	-1920
▁stand	-1921
▁préc	-1922
▁serait	-1923
▁communaut	-1924
temp	-1925
▁set	-1926
tant	-1927
▁answ	-1928
▁sense	-1929
▁quite	-1930
▁norm	-1931
▁doit	-1932
▁interesting	-1933
▁comes	-1934
▁seul	-1935
▁making	-1936
▁blo	-1937
aille	-1938
▁fas	-1939
▁times	-1940
eter	-1941
▁équ	-1942
▁energy	-1943
▁business	-1944
▁cir	-1945
▁far	-1946
▁petite	-1947
▁job	-1948
▁OK	-1949
llow	-1950
là	-1951
omm	-1952
▁milli	-1953
▁prote	-1954
▁princip	-1955
▁Que	-1956
▁These	-1957
▁passer	-1958
sych	-1959
▁global	-1960
▁happened	-1961
ote	-1962
mment	-1963
ton	-1964
▁pren	-1965
▁veut	-1966
▁répons	-1967
▁lieu	-1968
ross	-1969
▁pret	-1970
▁countries	-1971
▁fig	-1972
▁add	-1973
▁nive	-1974
▁invent	-1975
orme	-1976
ission	-1977
▁avaient	-1978
▁experience	-1979
ism	-1980
▁maj	-1981
▁air	-1982
Unis	-1983
▁occ	-1984
▁incroy	-1985
idd	-1986
oupe	-1987
ward	-1988
elles	-1989
▁film	-1990
atre	-1991
agit	-1992
▁parents	-1993
▁without	-1994
▁Am	-1995
éric	-1996
▁body	-1997
oires	-1998
isation	-1999
▁santé	-2000
▁talking	-2001
même	-2002
▁def	-2003
oles	-2004
▁ach	-2005
▁log	-2006
▁All	-2007
▁lives	-2008
ying	-2009
▁week	-2010
▁ident	-2011
▁building	-2012
jets	-2013
▁force	-2014
omp	-2015
llez	-2016
ane	-2017
▁typ	-2018
▁youn	-2019
▁penser	-2020
▁machine	-2021
▁top	-2022
▁vont	-2023
onder	-2024
▁reven	-2025
▁ville	-2026
▁réc	-2027
▁probably	-2028
ately	-2029
▁cho	-2030
▁scientif	-2031
▁Sh	-2032
▁object	-2033
ina	-2034
▁keep	-2035
uge	-2036
quel	-2037
ird	-2038
▁told	-2039
iquement	-2040
▁compte	-2041
▁certains	-2042
itive	-2043
▁intern	-2044
▁cam	-2045
▁rese	-2046
pir	-2047
▁18	-2048
▁femme	-2049
▁quant	-2050
▁utiliser	-2051
▁stuff	-2052
▁Des	-2053
▁côté	-2054
▁makes	-2055
imin	-2056
endu	-2057
▁imagine	-2058
▁12	-2059
▁hy	-2060
▁allow	-2061
work	-2062
▁psych	-2063
▁Here	-2064
êmes	-2065
▁ant	-2066
▁vide	-2067
▁extra	-2068
rop	-2069
▁représent	-2070
aug	-2071
▁tra	-2072
▁capac	-2073
▁diffic	-2074
encont	-2075
▁parle	-2076
lus	-2077
gs	-2078
▁reason	-2079
▁cin	-2080
▁près	-2081
éré	-2082
▁room	-2083
ality	-2084
▁disp	-2085
▁coming	-2086
era	-2087
▁activ	-2088
▁propre	-2089
▁No	-2090
▁découver	-2091
avoir	-2092
▁arch	-2093
▁side	-2094
▁else	-2095
▁rich	-2096
▁forme	-2097
▁chem	-2098
▁pie	-2099
orth	-2100
▁lorsque	-2101
▁such	-2102
tement	-2103
▁hommes	-2104
icile	-2105
▁chance	-2106
lui	-2107
▁pain	-2108
cies	-2109
land	-2110
çons	-2111
enn	-2112
▁bad	-2113
▁product	-2114
▁fall	-2115
▁anything	-2116
idée	-2117
▁arr	-2118
▁half	-2119
▁across	-2120
esse	-2121
▁civ	-2122
▁fab	-2123
▁elect	-2124
▁Let	-2125
▁Pourquoi	-2126
▁pretty	-2127
env	-2128
▁ill	-2129
ott	-2130
▁trouve	-2131
ream	-2132
▁nour	-2133
▁images	-2134
most	-2135
▁sound	-2136
rodu	-2137
▁bro	-2138
▁rencont	-2139
0,	-2140
▁wonder	-2141
▁souvent	-2142
▁Go	-2143
kay	-2144
rière	-2145
▁case	-2146
▁bring	-2147
▁Cette	-2148
▁celui	-2149
▁laiss	-2150
▁family	-2151
▁pi	-2152
▁donne	-2153
▁connaiss	-2154
▁ways	-2155
▁relations	-2156
▁Ces	-2157
▁répond	-2158
▁parl	-2159
argent	-2160
▁différentes	-2161
ock	-2162
▁cy	-2163
▁sera	-2164
énerg	-2165
ension	-2166
▁saw	-2167
▁photo	-2168
▁Africa	-2169
▁young	-2170
▁net	-2171
oque	-2172
▁eas	-2173
▁camp	-2174
▁giv	-2175
▁tard	-2176
▁living	-2177
▁ensemble	-2178
▁surface	-2179
iser	-2180
urope	-2181
ames	-2182
▁prom	-2183
▁seen	-2184
▁réalité	-2185
▁dise	-2186
▁consci	-2187
▁difficile	-2188
▁40	-2189
▁exist	-2190
énergie	-2191
member	-2192
▁intellig	-2193
▁possib	-2194
▁'	-2195
èce	-2196
▁later	-2197
▁résult	-2198
▁sé	-2199
▁base	-2200
▁signif	-2201
aw	-2202
ran	-2203
▁share	-2204
ization	-2205
▁autour	-2206
▁vér	-2207
▁hope	-2208
▁micro	-2209
▁rapide	-2210
▁;	-2211
▁technologies	-2212
".	-2213
auvais	-2214
▁trouvé	-2215
▁quatre	-2216
bres	-2217
▁solution	-2218
avons	-2219
▁allons	-2220
▁...	-2221
▁tend	-2222
▁asked	-2223
eur	-2224
uck	-2225
▁Or	-2226
▁bou	-2227
▁days	-2228
▁At	-2229
▁ment	-2230
where	-2231
▁research	-2232
iale	-2233
▁mult	-2234
▁happens	-2235
tent	-2236
▁innov	-2237
▁mauvais	-2238
▁having	-2239
rais	-2240
ession	-2241
▁equ	-2242
▁sure	-2243
▁begin	-2244
▁maison	-2245
▁opportun	-2246
▁société	-2247
▁computer	-2248
vie	-2249
▁opt	-2250
inc	-2251
▁niveau	-2252
▁conv	-2253
▁goes	-2254
▁absol	-2255
▁answer	-2256
▁list	-2257
▁Earth	-2258
▁complete	-2259
▁vision	-2260
▁heure	-2261
▁mass	-2262
▁structure	-2263
▁celle	-2264
▁city	-2265
▁groupe	-2266
ots	-2267
▁début	-2268
▁changement	-2269
▁iss	-2270
▁famille	-2271
▁25	-2272
rait	-2273
▁problems	-2274
▁planète	-2275
▁planet	-2276
ready	-2277
▁priv	-2278
urb	-2279
unes	-2280
▁vidé	-2281
▁while	-2282
▁single	-2283
▁patients	-2284
orer	-2285
▁thous	-2286
▁nouvelles	-2287
ienne	-2288
han	-2289
▁CA	-2290
▁amaz	-2291
▁suff	-2292
▁inside	-2293
oss	-2294
▁picture	-2295
▁community	-2296
▁music	-2297
▁collect	-2298
▁exact	-2299
▁Why	-2300
▁char	-2301
lev	-2302
indre	-2303
▁faisons	-2304
hy	-2305
very	-2306
▁potent	-2307
acy	-2308
ilt	-2309
ément	-2310
▁environment	-2311
orter	-2312
prise	-2313
importe	-2314
▁almost	-2315
ipe	-2316
ury	-2317
léch	-2318
▁gir	-2319
ètres	-2320
▁cit	-2321
▁both	-2322
▁reste	-2323
▁obten	-2324
▁situation	-2325
▁yet	-2326
▁level	-2327
▁essent	-2328
ield	-2329
▁fac	-2330
agne	-2331
▁pauv	-2332
ination	-2333
▁arg	-2334
inter	-2335
▁stat	-2336
érique	-2337
iction	-2338
▁watch	-2339
▁savons	-2340
▁cost	-2341
▁milliards	-2342
teurs	-2343
▁chall	-2344
▁langu	-2345
▁travailler	-2346
til	-2347
rez	-2348
▁lumière	-2349
▁communic	-2350
▁haut	-2351
▁already	-2352
mat	-2353
▁remember	-2354
▁partir	-2355
ash	-2356
ided	-2357
▁bar	-2358
▁également	-2359
issent	-2360
▁Se	-2361
▁thé	-2362
▁billion	-2363
▁hear	-2364
▁sujet	-2365
▁presque	-2366
▁anal	-2367
▁ideas	-2368
▁faites	-2369
▁saying	-2370
aud	-2371
oll	-2372
▁commence	-2373
outh	-2374
prit	-2375
▁dét	-2376
▁marché	-2377
gment	-2378
lement	-2379
▁aud	-2380
▁red	-2381
▁én	-2382
icip	-2383
▁idées	-2384
▁often	-2385
▁relig	-2386
▁ev	-2387
iant	-2388
▁siè	-2389
▁dest	-2390
less	-2391
▁habit	-2392
▁réponse	-2393
▁matter	-2394
otion	-2395
▁discover	-2396
inform	-2397
▁élect	-2398
▁once	-2399
▁bat	-2400
▁rée	-2401
▁whether	-2402
avi	-2403
enf	-2404
unch	-2405
▁mater	-2406
▁table	-2407
▁construire	-2408
▁ém	-2409
erv	-2410
▁voulez	-2411
▁complète	-2412
▁tellement	-2413
▁plusieurs	-2414
▁looks	-2415
ogn	-2416
▁wrong	-2417
urg	-2418
▁faci	-2419
▁Elles	-2420
▁looked	-2421
▁someone	-2422
▁within	-2423
appelle	-2424
▁history	-2425
▁nothing	-2426
▁attention	-2427
éli	-2428
ossi	-2429
line	-2430
▁fai	-2431
▁incred	-2432
ili	-2433
▁beautif	-2434
usement	-2435
▁figure	-2436
▁demandé	-2437
▁Car	-2438
ources	-2439
▁amazing	-2440
▁emplo	-2441
▁appris	-2442
▁market	-2443
moi	-2444
▁Mon	-2445
▁appar	-2446
▁treat	-2447
▁produit	-2448
▁war	-2449
tats	-2450
▁nat	-2451
▁rése	-2452
▁direct	-2453
ering	-2454
▁basically	-2455
▁carb	-2456
ener	-2457
leur	-2458
▁true	-2459
univers	-2460
▁tradition	-2461
▁vue	-2462
ât	-2463
▁vill	-2464
▁allez	-2465
▁heart	-2466
▁réfléch	-2467
▁donné	-2468
▁petits	-2469
ox	-2470
yn	-2471
ush	-2472
orts	-2473
▁coû	-2474
▁homme	-2475
▁difficult	-2476
▁différents	-2477
▁recherche	-2478
âce	-2479
▁web	-2480
▁remar	-2481
▁couple	-2482
▁commencer	-2483
▁kill	-2484
▁obser	-2485
▁humain	-2486
▁self	-2487
▁myself	-2488
▁model	-2489
je	-2490
▁journ	-2491
▁speak	-2492
bers	-2493
▁kne	-2494
▁works	-2495
ks	-2496
vert	-2497
▁Bon	-2498
▁atte	-2499
▁orig	-2500
▁Voilà	-2501
▁retr	-2502
▁Gr	-2503
riture	-2504
▁Can	-2505
▁requ	-2506
▁stop	-2507
accord	-2508
▁night	-2509
▁signifie	-2510
▁pouvait	-2511
▁ligne	-2512
▁médic	-2513
▁humains	-2514
side	-2515
▁guy	-2516
undred	-2517
▁passion	-2518
▁United	-2519
▁months	-2520
cl	-2521
▁Eh	-2522
▁guerre	-2523
▁extraordin	-2524
▁news	-2525
▁lib	-2526
▁rev	-2527
▁instit	-2528
▁control	-2529
▁montre	-2530
▁livre	-2531
▁major	-2532
oix	-2533
uelle	-2534
▁words	-2535
▁consid	-2536
▁enfant	-2537
avant	-2538
▁crit	-2539
▁cinq	-2540
▁regarder	-2541
fe	-2542
▁Bien	-2543
▁cellules	-2544
▁order	-2545
▁entire	-2546
ièrement	-2547
imer	-2548
▁médec	-2549
cale	-2550
orat	-2551
thers	-2552
▁jeu	-2553
▁fund	-2554
▁année	-2555
▁cells	-2556
▁mouve	-2557
▁gard	-2558
▁beautiful	-2559
▁sau	-2560
▁line	-2561
▁state	-2562
▁full	-2563
▁built	-2564
▁probablement	-2565
ige	-2566
ced	-2567
▁prés	-2568
bes	-2569
▁Europe	-2570
▁archite	-2571
eff	-2572
nel	-2573
▁perform	-2574
omme	-2575
▁age	-2576
▁sugg	-2577
▁heard	-2578
▁Ou	-2579
▁ni	-2580
▁rendre	-2581
▁retour	-2582
▁communauté	-2583
▁government	-2584
▁writ	-2585
▁friends	-2586
▁hundred	-2587
alent	-2588
▁vient	-2589
éf	-2590
iddle	-2591
▁processus	-2592
▁places	-2593
ivité	-2594
ibles	-2595
▁wasn	-2596
▁magn	-2597
▁proch	-2598
▁mère	-2599
▁heures	-2600
▁développement	-2601
ony	-2602
omes	-2603
osed	-2604
▁tre	-2605
▁deep	-2606
mis	-2607
▁arrive	-2608
▁result	-2609
▁convers	-2610
cev	-2611
▁stories	-2612
▁voiture	-2613
▁modèle	-2614
▁individual	-2615
vious	-2616
▁Goog	-2617
▁dernière	-2618
ras	-2619
espace	-2620
ium	-2621
▁gar	-2622
▁hor	-2623
▁incre	-2624
▁gouvernement	-2625
▁sw	-2626
▁law	-2627
▁mots	-2628
▁tool	-2629
▁concent	-2630
éro	-2631
▁comporte	-2632
amm	-2633
▁kil	-2634
▁until	-2635
cus	-2636
ivent	-2637
▁tête	-2638
▁chois	-2639
▁leaders	-2640
çu	-2641
ades	-2642
ator	-2643
ik	-2644
urité	-2645
▁simil	-2646
▁species	-2647
▁endroit	-2648
ired	-2649
érence	-2650
▁élé	-2651
iqu	-2652
▁language	-2653
▁pous	-2654
▁devez	-2655
▁must	-2656
oration	-2657
▁follow	-2658
ué	-2659
▁chac	-2660
▁truc	-2661
▁série	-2662
▁material	-2663
hum	-2664
ume	-2665
assion	-2666
▁augment	-2667
rill	-2668
▁vari	-2669
▁grâce	-2670
▁voilà	-2671
▁calcul	-2672
came	-2673
▁dig	-2674
▁access	-2675
▁Do	-2676
▁piece	-2677
▁photograph	-2678
▁complètement	-2679
▁Est	-2680
▁yeux	-2681
▁organis	-2682
▁Man	-2683
urer	-2684
▁lég	-2685
▁vivre	-2686
▁».	-2687
▁201	-2688
▁quick	-2689
▁video	-2690
▁became	-2691
temps	-2692
▁isn	-2693
▁math	-2694
▁aider	-2695
▁message	-2696
▁partout	-2697
▁education	-2698
▁mét	-2699
▁Br	-2700
osph	-2701
▁name	-2702
▁Ste	-2703
▁éch	-2704
▁impact	-2705
▁musique	-2706
▁meilleur	-2707
▁expérience	-2708
abord	-2709
èces	-2710
▁disent	-2711
▁Im	-2712
▁view	-2713
▁land	-2714
▁Google	-2715
▁points	-2716
▁animaux	-2717
▁site	-2718
uf	-2719
▁Joh	-2720
▁cart	-2721
▁everybody	-2722
get	-2723
avor	-2724
▁success	-2725
▁devenir	-2726
▁learned	-2727
▁animal	-2728
▁America	-2729
▁completely	-2730
▁199	-2731
▁adv	-2732
▁sym	-2733
agine	-2734
▁voud	-2735
▁tas	-2736
istan	-2737
aff	-2738
▁States	-2739
▁politique	-2740
▁regardez	-2741
▁bât	-2742
▁Every	-2743
▁transp	-2744
▁patient	-2745
etic	-2746
▁dru	-2747
▁bout	-2748
idence	-2749
▁Comme	-2750
▁engine	-2751
▁indust	-2752
acter	-2753
étique	-2754
▁decided	-2755
▁ban	-2756
",	-2757
opp	-2758
▁knew	-2759
▁quelle	-2760
mi	-2761
▁vale	-2762
▁spect	-2763
▁taking	-2764
▁exactly	-2765
▁study	-2766
▁animals	-2767
▁Terre	-2768
▁woman	-2769
reg	-2770
▁60	-2771
▁rédu	-2772
▁though	-2773
▁exac	-2774
▁word	-2775
▁local	-2776
▁happening	-2777
hab	-2778
▁itself	-2779
▁violence	-2780
▁certaines	-2781
onter	-2782
ouvrir	-2783
▁voulais	-2784
▁universe	-2785
▁peur	-2786
▁futur	-2787
▁néc	-2788
Af	-2789
▁against	-2790
▁divers	-2791
den	-2792
▁créé	-2793
▁entendu	-2794
▁students	-2795
▁deal	-2796
liquer	-2797
▁bab	-2798
▁cat	-2799
▁fre	-2800
oph	-2801
▁reconn	-2802
▁Oui	-2803
▁él	-2804
▁society	-2805
rup	-2806
isions	-2807
abilité	-2808
▁huge	-2809
atiques	-2810
▁téléph	-2811
▁ones	-2812
▁since	-2813
▁grands	-2814
▁père	-2815
▁oce	-2816
▁meet	-2817
▁house	-2818
▁themselves	-2819
aître	-2820
▁gets	-2821
▁effic	-2822
▁nécess	-2823
ister	-2824
▁décidé	-2825
▁aw	-2826
▁incl	-2827
▁loin	-2828
▁terre	-2829
▁somebody	-2830
▁afin	-2831
▁dernières	-2832
▁meas	-2833
▁past	-2834
▁team	-2835
ulent	-2836
▁amis	-2837
▁poll	-2838
ability	-2839
▁séc	-2840
▁fasc	-2841
▁record	-2842
Wh	-2843
▁impro	-2844
▁11	-2845
▁behavi	-2846
intérieur	-2847
ande	-2848
prises	-2849
▁close	-2850
▁avions	-2851
iments	-2852
▁compassion	-2853
▁ourselves	-2854
abl	-2855
ney	-2856
▁John	-2857
▁spend	-2858
▁photos	-2859
▁sud	-2860
iants	-2861
ettes	-2862
inte	-2863
▁sil	-2864
▁touch	-2865
▁sout	-2866
▁India	-2867
▁essayer	-2868
▁histoires	-2869
▁Oh	-2870
▁croy	-2871
▁pensé	-2872
▁jeunes	-2873
▁pan	-2874
▁kinds	-2875
▁post	-2876
▁choix	-2877
▁vidéo	-2878
▁emb	-2879
▁larg	-2880
▁créat	-2881
▁instru	-2882
▁network	-2883
▁doct	-2884
▁capable	-2885
▁company	-2886
af	-2887
école	-2888
itting	-2889
▁along	-2890
▁appelé	-2891
▁demande	-2892
▁sometimes	-2893
▁created	-2894
▁ann	-2895
▁disease	-2896
▁certaine	-2897
▁sal	-2898
▁ball	-2899
▁turns	-2900
▁lequel	-2901
heure	-2902
▁grandes	-2903
bas	-2904
▁gal	-2905
▁règ	-2906
▁sait	-2907
▁vois	-2908
▁source	-2909
▁confl	-2910
▁hours	-2911
▁milliers	-2912
▁sembl	-2913
▁capacité	-2914
▁div	-2915
▁améric	-2916
avez	-2917
▁siècle	-2918
rible	-2919
▁rather	-2920
▁aucune	-2921
▁collab	-2922
▁mesure	-2923
▁80	-2924
▁intéressant	-2925
▁écrit	-2926
▁travaille	-2927
▁nourriture	-2928
▁hold	-2929
▁mer	-2930
▁prog	-2931
▁dernier	-2932
▁prim	-2933
▁particip	-2934
▁cop	-2935
▁leg	-2936
ifier	-2937
▁Some	-2938
▁robots	-2939
év	-2940
▁trou	-2941
haps	-2942
▁perd	-2943
▁conte	-2944
▁parfois	-2945
▁game	-2946
▁Quel	-2947
ctions	-2948
▁others	-2949
▁arriver	-2950
ivement	-2951
▁couldn	-2952
uv	-2953
orie	-2954
▁break	-2955
ception	-2956
▁worked	-2957
▁particular	-2958
▁découvert	-2959
▁Ph	-2960
▁God	-2961
auche	-2962
▁fant	-2963
▁pick	-2964
▁shows	-2965
▁incroyable	-2966
▁ext	-2967
▁mob	-2968
vention	-2969
▁obs	-2970
▁syn	-2971
▁continue	-2972
▁exactement	-2973
iver	-2974
soci	-2975
▁Pro	-2976
▁wind	-2977
▁marche	-2978
▁free	-2979
▁voulons	-2980
▁everyone	-2981
aque	-2982
▁focus	-2983
ossible	-2984
▁apprendre	-2985
▁pred	-2986
merg	-2987
itation	-2988
▁Ceci	-2989
▁circ	-2990
▁remp	-2991
▁mother	-2992
environ	-2993
▁thousands	-2994
▁Then	-2995
▁least	-2996
rew	-2997
▁»,	-2998
ished	-2999
▁early	-3000
▁compos	-3001
▁fly	-3002
tead	-3003
▁black	-3004
ology	-3005
▁bott	-3006
▁aurait	-3007
ook	-3008
view	-3009
▁Non	-3010
▁instead	-3011
occ	-3012
▁envoy	-3013
▁jouer	-3014
ann	-3015
▁villes	-3016
▁rapidement	-3017
ocrat	-3018
▁compris	-3019
▁réellement	-3020
ias	-3021
▁tom	-3022
▁util	-3023
▁civil	-3024
▁Puis	-3025
▁croiss	-3026
▁ressemble	-3027
pital	-3028
▁arriv	-3029
▁American	-3030
▁favor	-3031
▁Ge	-3032
wards	-3033
▁field	-3034
▁won	-3035
▁seem	-3036
▁finan	-3037
▁listen	-3038
aimer	-3039
▁contrib	-3040
ases	-3041
▁semble	-3042
not	-3043
irer	-3044
▁happy	-3045
▁liter	-3046
▁devant	-3047
icle	-3048
▁death	-3049
▁guys	-3050
▁phil	-3051
▁ense	-3052
▁natural	-3053
▁systems	-3054
▁nuc	-3055
▁cool	-3056
▁fascin	-3057
▁police	-3058
▁hon	-3059
▁taille	-3060
▁unique	-3061
▁aucun	-3062
▁recent	-3063
▁interact	-3064
itié	-3065
▁Chris	-3066
▁fille	-3067
▁meilleure	-3068
▁powerful	-3069
ared	-3070
▁dois	-3071
▁gave	-3072
organ	-3073
▁Okay	-3074
▁porte	-3075
▁poor	-3076
▁nation	-3077
▁support	-3078
▁conditions	-3079
omet	-3080
ither	-3081
▁difference	-3082
endent	-3083
▁village	-3084
The	-3085
▁rê	-3086
aring	-3087
orld	-3088
ront	-3089
ancer	-3090
itude	-3091
ral	-3092
yes	-3093
iger	-3094
▁code	-3095
▁lots	-3096
▁graph	-3097
▁behind	-3098
▁prison	-3099
▁present	-3100
▁ressembl	-3101
▁stre	-3102
▁importante	-3103
ling	-3104
▁China	-3105
▁champ	-3106
▁taken	-3107
▁learning	-3108
▁press	-3109
▁Imagine	-3110
▁distrib	-3111
ma	-3112
▁ge	-3113
cier	-3114
rire	-3115
▁takes	-3116
▁outside	-3117
ency	-3118
▁prix	-3119
▁relationship	-3120
apt	-3121
▁défin	-3122
▁types	-3123
▁centre	-3124
issons	-3125
▁third	-3126
▁changed	-3127
▁longtemps	-3128
▁cut	-3129
▁sécurité	-3130
▁Dieu	-3131
▁%	-3132
▁der	-3133
elt	-3134
▁ing	-3135
▁anci	-3136
▁prend	-3137
▁fonctionne	-3138
éan	-3139
▁16	-3140
▁profession	-3141
astic	-3142
▁oper	-3143
▁inspir	-3144
▁ir	-3145
issez	-3146
▁Ainsi	-3147
uellement	-3148
ove	-3149
▁dream	-3150
▁demander	-3151
âge	-3152
▁dû	-3153
▁arm	-3154
▁Chine	-3155
▁entier	-3156
▁scientifiques	-3157
ully	-3158
▁sold	-3159
▁merve	-3160
aime	-3161
liqu	-3162
ènes	-3163
▁sac	-3164
▁virus	-3165
▁cities	-3166
▁dispar	-3167
▁voyons	-3168
aig	-3169
bor	-3170
▁fur	-3171
▁ton	-3172
▁short	-3173
▁maladie	-3174
aves	-3175
▁veulent	-3176
▁oui	-3177
ially	-3178
▁vies	-3179
▁influ	-3180
▁impossible	-3181
ike	-3182
▁différence	-3183
fect	-3184
▁dim	-3185
▁clin	-3186
ologie	-3187
▁leave	-3188
▁middle	-3189
▁continu	-3190
sh	-3191
▁sat	-3192
issement	-3193
▁milit	-3194
▁souff	-3195
▁humaine	-3196
rog	-3197
▁century	-3198
▁wait	-3199
▁petites	-3200
0.	-3201
lant	-3202
▁équipe	-3203
▁area	-3204
chelle	-3205
ération	-3206
▁common	-3207
▁regarde	-3208
▁systèmes	-3209
arri	-3210
rons	-3211
ama	-3212
▁mé	-3213
aide	-3214
▁spé	-3215
▁eyes	-3216
▁facile	-3217
airement	-3218
▁devrait	-3219
aged	-3220
▁Cert	-3221
▁behavior	-3222
▁position	-3223
avait	-3224
▁green	-3225
▁turned	-3226
▁Just	-3227
▁West	-3228
▁invol	-3229
▁pensez	-3230
ram	-3231
aller	-3232
▁préf	-3233
yer	-3234
book	-3235
ouge	-3236
▁fort	-3237
atever	-3238
uels	-3239
▁hands	-3240
▁suite	-3241
▁given	-3242
▁moving	-3243
▁mouvement	-3244
amment	-3245
▁beginning	-3246
▁dra	-3247
▁seven	-3248
▁milieu	-3249
▁concern	-3250
▁service	-3251
information	-3252
▁Pas	-3253
▁foot	-3254
▁parts	-3255
▁plein	-3256
▁devenu	-3257
▁terror	-3258
ever	-3259
▁etc	-3260
▁chacun	-3261
ss	-3262
▁14	-3263
oudre	-3264
▁programme	-3265
▁extre	-3266
▁lesque	-3267
▁nuit	-3268
▁droit	-3269
▁dessus	-3270
nelle	-3271
▁reach	-3272
▁changé	-3273
▁puisse	-3274
itter	-3275
place	-3276
▁informations	-3277
veill	-3278
esprit	-3279
▁flo	-3280
▁Cal	-3281
▁low	-3282
▁étr	-3283
▁needs	-3284
aît	-3285
▁doc	-3286
▁began	-3287
▁voyage	-3288
▁surpris	-3289
éb	-3290
▁17	-3291
▁Dav	-3292
▁bal	-3293
usion	-3294
▁card	-3295
▁easy	-3296
▁conse	-3297
▁contrôle	-3298
ails	-3299
▁Mar	-3300
▁tiss	-3301
▁vict	-3302
verage	-3303
▁ble	-3304
▁vite	-3305
ustrie	-3306
▁selon	-3307
▁gauche	-3308
▁appelle	-3309
▁yourself	-3310
▁text	-3311
▁produits	-3312
èrent	-3313
▁énorme	-3314
NA	-3315
▁ap	-3316
ctures	-3317
▁arrivé	-3318
aught	-3319
▁danger	-3320
▁pattern	-3321
▁machines	-3322
▁direction	-3323
▁solutions	-3324
▁virt	-3325
▁croissance	-3326
▁needed	-3327
▁production	-3328
▁Ma	-3329
▁To	-3330
▁seeing	-3331
▁nouveaux	-3332
isc	-3333
▁normal	-3334
▁finally	-3335
tion	-3336
▁symp	-3337
▁ressent	-3338
▁companies	-3339
atif	-3340
hood	-3341
▁perhaps	-3342
▁mondiale	-3343
▁deuxième	-3344
▁media	-3345
▁étudiants	-3346
▁nu	-3347
▁ele	-3348
▁fix	-3349
▁paper	-3350
▁simply	-3351
êts	-3352
gard	-3353
▁doivent	-3354
stit	-3355
year	-3356
▁personal	-3357
▁signific	-3358
erez	-3359
▁terms	-3360
▁origin	-3361
▁merveille	-3362
▁réseau	-3363
aimerais	-3364
▁devient	-3365
▁gé	-3366
ires	-3367
▁Engl	-3368
▁salle	-3369
▁associ	-3370
▁jeune	-3371
▁combien	-3372
▁rapport	-3373
▁Not	-3374
icated	-3375
▁venir	-3376
▁during	-3377
rés	-3378
erm	-3379
▁profond	-3380
▁realized	-3381
▁parfait	-3382
▁version	-3383
iance	-3384
▁capt	-3385
▁pract	-3386
▁oil	-3387
Afrique	-3388
ined	-3389
ivity	-3390
années	-3391
▁galax	-3392
▁parlé	-3393
ulation	-3394
term	-3395
ration	-3396
▁World	-3397
▁directe	-3398
▁obvious	-3399
of	-3400
▁cannot	-3401
▁humans	-3402
cles	-3403
▁laborat	-3404
▁utilisé	-3405
▁rent	-3406
▁compr	-3407
▁ocean	-3408
▁compar	-3409
▁comportement	-3410
▁bure	-3411
▁vert	-3412
cevoir	-3413
étés	-3414
▁pét	-3415
▁services	-3416
▁May	-3417
▁respect	-3418
▁endroits	-3419
▁.	-3420
▁longer	-3421
▁ign	-3422
▁feed	-3423
▁autom	-3424
▁perspect	-3425
▁wonderful	-3426
outer	-3427
▁size	-3428
▁father	-3429
éducation	-3430
▁economic	-3431
SA	-3432
▁péri	-3433
▁existe	-3434
▁reality	-3435
mêmes	-3436
▁noir	-3437
▁effet	-3438
▁Sp	-3439
oser	-3440
▁fore	-3441
▁carte	-3442
▁famil	-3443
▁friend	-3444
▁particulier	-3445
▁chiff	-3446
▁repres	-3447
▁experiment	-3448
ores	-3449
▁blue	-3450
▁dark	-3451
▁vacc	-3452
▁event	-3453
iné	-3454
▁action	-3455
▁approach	-3456
aie	-3457
▁sun	-3458
anche	-3459
▁Mars	-3460
▁expert	-3461
▁partager	-3462
by	-3463
fully	-3464
iting	-3465
atives	-3466
▁corre	-3467
▁statist	-3468
▁entreprises	-3469
enge	-3470
leil	-3471
uring	-3472
dess	-3473
aissez	-3474
▁fabri	-3475
▁surviv	-3476
▁special	-3477
▁pur	-3478
amour	-3479
▁sortir	-3480
▁13	-3481
▁discuss	-3482
eurs	-3483
▁pouvais	-3484
▁felt	-3485
▁phone	-3486
▁progress	-3487
▁environnement	-3488
oms	-3489
▁physique	-3490
itch	-3491
lling	-3492
▁fight	-3493
▁quickly	-3494
▁whatever	-3495
▁alg	-3496
▁kid	-3497
année	-3498
êtres	-3499
▁explain	-3500
▁voudrais	-3501
êter	-3502
▁din	-3503
ledge	-3504
▁color	-3505
▁eight	-3506
men	-3507
▁tel	-3508
▁voix	-3509
▁compren	-3510
▁centaines	-3511
▁pourraient	-3512
Oh	-3513
gy	-3514
acer	-3515
▁key	-3516
▁chim	-3517
▁proc	-3518
▁encour	-3519
▁absolute	-3520
▁résultats	-3521
▁conversation	-3522
let	-3523
▁page	-3524
▁wall	-3525
▁spent	-3526
Am	-3527
▁People	-3528
nements	-3529
In	-3530
rée	-3531
ève	-3532
▁urb	-3533
▁fish	-3534
▁expect	-3535
▁growth	-3536
▁moitié	-3537
▁198	-3538
▁préd	-3539
inf	-3540
▁bord	-3541
▁éner	-3542
▁tried	-3543
▁amount	-3544
▁political	-3545
▁500	-3546
▁aim	-3547
▁réun	-3548
▁strong	-3549
▁ay	-3550
▁mari	-3551
▁suggest	-3552
rès	-3553
▁bir	-3554
▁risk	-3555
▁enseign	-3556
▁measure	-3557
▁flu	-3558
▁ground	-3559
ifique	-3560
▁droite	-3561
icles	-3562
▁recogn	-3563
▁derrière	-3564
▁résoudre	-3565
▁ait	-3566
onomie	-3567
▁fourn	-3568
▁known	-3569
▁perfect	-3570
▁propres	-3571
▁personn	-3572
▁semaines	-3573
▁opportunity	-3574
ghan	-3575
oint	-3576
▁béb	-3577
▁climate	-3578
▁?"	-3579
ular	-3580
▁bén	-3581
▁réuss	-3582
▁ability	-3583
eah	-3584
oon	-3585
▁21	-3586
▁ten	-3587
entes	-3588
▁sang	-3589
▁David	-3590
▁scale	-3591
▁conférence	-3592
lam	-3593
ynam	-3594
▁stay	-3595
yg	-3596
▁Rob	-3597
▁laisser	-3598
ift	-3599
▁soient	-3600
▁maladies	-3601
hor	-3602
▁lost	-3603
▁haute	-3604
▁quart	-3605
▁extreme	-3606
▁pou	-3607
▁heureux	-3608
aise	-3609
▁desc	-3610
▁challenge	-3611
▁interested	-3612
aster	-3613
▁path	-3614
alle	-3615
ered	-3616
▁terme	-3617
▁aj	-3618
▁economy	-3619
nant	-3620
rant	-3621
▁Har	-3622
▁raisons	-3623
▁national	-3624
Well	-3625
ively	-3626
▁90	-3627
▁eat	-3628
▁gone	-3629
▁poss	-3630
▁Tu	-3631
▁Mal	-3632
▁fast	-3633
▁pied	-3634
expéri	-3635
▁weeks	-3636
aper	-3637
itable	-3638
▁termes	-3639
utiliser	-3640
▁semaine	-3641
cep	-3642
inté	-3643
▁buy	-3644
▁contrô	-3645
▁livres	-3646
▁construit	-3647
▁fondament	-3648
▁Lors	-3649
iny	-3650
ump	-3651
homme	-3652
▁autant	-3653
▁tent	-3654
▁blood	-3655
▁minute	-3656
▁instant	-3657
cope	-3658
▁parc	-3659
▁adult	-3660
▁Right	-3661
▁consider	-3662
▁finalement	-3663
ett	-3664
ipl	-3665
▁Ad	-3666
▁DNA	-3667
▁appe	-3668
▁relation	-3669
ube	-3670
▁changes	-3671
DN	-3672
▁Our	-3673
▁Sud	-3674
▁mol	-3675
▁vit	-3676
▁zone	-3677
ware	-3678
▁send	-3679
▁nombreux	-3680
ried	-3681
▁miss	-3682
▁accept	-3683
▁either	-3684
▁filles	-3685
▁conséqu	-3686
▁incredible	-3687
isé	-3688
▁Jap	-3689
▁symb	-3690
▁brill	-3691
▁compét	-3692
▁ordinateur	-3693
irm	-3694
izing	-3695
ulture	-3696
▁rempl	-3697
▁aspect	-3698
▁mathém	-3699
▁institutions	-3700
agement	-3701
ero	-3702
rist	-3703
▁const	-3704
▁value	-3705
▁journal	-3706
▁mêmes	-3707
▁sitting	-3708
▁det	-3709
▁hos	-3710
Th	-3711
oty	-3712
▁consomm	-3713
▁contact	-3714
▁innovation	-3715
oke	-3716
▁girl	-3717
▁classe	-3718
▁commerci	-3719
amb	-3720
urt	-3721
▁Tw	-3722
udes	-3723
▁areas	-3724
▁énerg	-3725
▁Aujourd	-3726
▁capital	-3727
▁économique	-3728
▁deb	-3729
ares	-3730
ators	-3731
▁stress	-3732
▁transf	-3733
omen	-3734
▁pièce	-3735
▁étions	-3736
ung	-3737
▁Cl	-3738
istic	-3739
▁draw	-3740
▁based	-3741
astique	-3742
▁appare	-3743
▁lorsqu	-3744
▁matéri	-3745
▁Ex	-3746
ters	-3747
▁write	-3748
▁mètres	-3749
▁premiers	-3750
▁lire	-3751
ustain	-3752
What	-3753
▁matin	-3754
▁neigh	-3755
▁affect	-3756
▁growing	-3757
aul	-3758
▁Dr	-3759
▁Ave	-3760
osition	-3761
▁physical	-3762
▁sus	-3763
▁exam	-3764
▁feet	-3765
▁slow	-3766
▁sortes	-3767
▁pourrions	-3768
▁nombreuses	-3769
▁squ	-3770
▁step	-3771
époque	-3772
▁améli	-3773
▁Regard	-3774
▁cherch	-3775
▁feeling	-3776
mosph	-3777
▁allé	-3778
rastru	-3779
▁final	-3780
▁philos	-3781
arl	-3782
ubl	-3783
amed	-3784
▁fro	-3785
▁modern	-3786
▁Afrique	-3787
You	-3788
▁ras	-3789
▁white	-3790
▁seconde	-3791
▁résultat	-3792
▁medic	-3793
▁valeur	-3794
▁Chin	-3795
▁Mich	-3796
cially	-3797
▁dynam	-3798
▁morce	-3799
▁disait	-3800
▁différente	-3801
▁plant	-3802
▁scène	-3803
▁transport	-3804
▁communication	-3805
rote	-3806
▁diagn	-3807
▁wouldn	-3808
▁extrême	-3809
off	-3810
atic	-3811
▁cri	-3812
▁Peut	-3813
▁soft	-3814
▁ressources	-3815
▁décl	-3816
▁inse	-3817
▁issue	-3818
▁scientists	-3819
gré	-3820
▁box	-3821
hemat	-3822
▁bene	-3823
▁evolution	-3824
èse	-3825
▁Après	-3826
▁issues	-3827
▁cherche	-3828
▁morning	-3829
▁numbers	-3830
évolution	-3831
▁nice	-3832
▁average	-3833
▁théorie	-3834
ifi	-3835
ètes	-3836
▁tools	-3837
▁brought	-3838
▁produire	-3839
▁troisième	-3840
oe	-3841
▁24	-3842
erson	-3843
▁évol	-3844
▁pensent	-3845
leep	-3846
▁die	-3847
▁caus	-3848
▁miles	-3849
▁perspective	-3850
▁Ab	-3851
▁secret	-3852
king	-3853
▁sum	-3854
▁bottom	-3855
▁understanding	-3856
hi	-3857
Ind	-3858
prene	-3859
▁,	-3860
▁Avec	-3861
▁smart	-3862
▁born	-3863
▁rock	-3864
▁spec	-3865
▁spir	-3866
▁Face	-3867
▁With	-3868
ensive	-3869
▁South	-3870
▁pensons	-3871
▁scientifique	-3872
the	-3873
▁descri	-3874
▁realize	-3875
▁conscience	-3876
ana	-3877
cell	-3878
regist	-3879
▁protég	-3880
▁faisant	-3881
onstr	-3882
▁condu	-3883
▁audience	-3884
▁professe	-3885
▁70	-3886
iate	-3887
▁Lond	-3888
▁applic	-3889
▁forces	-3890
▁mission	-3891
▁knowledge	-3892
▁mur	-3893
▁gives	-3894
▁motiv	-3895
▁parmi	-3896
ises	-3897
ored	-3898
rice	-3899
essay	-3900
▁réel	-3901
▁moléc	-3902
▁pétro	-3903
▁partage	-3904
▁hundreds	-3905
▁développer	-3906
iquer	-3907
▁attr	-3908
▁littér	-3909
▁ram	-3910
▁sup	-3911
▁uns	-3912
▁capit	-3913
▁essayé	-3914
▁spread	-3915
▁serious	-3916
to	-3917
▁map	-3918
▁crée	-3919
issant	-3920
▁sudden	-3921
▁developed	-3922
▁construction	-3923
occup	-3924
▁optim	-3925
eth	-3926
ext	-3927
▁er	-3928
ills	-3929
asion	-3930
▁mole	-3931
▁stup	-3932
▁consum	-3933
▁Ensuite	-3934
▁development	-3935
uth	-3936
▁mour	-3937
▁starting	-3938
xte	-3939
▁Mc	-3940
itesse	-3941
▁stage	-3942
ball	-3943
hait	-3944
▁fail	-3945
▁seems	-3946
▁meaning	-3947
▁dead	-3948
▁déch	-3949
▁fear	-3950
▁outils	-3951
▁obtenir	-3952
▁tw	-3953
▁pal	-3954
▁zones	-3955
▁forest	-3956
head	-3957
▁gas	-3958
▁taux	-3959
▁alone	-3960
▁introdu	-3961
▁protect	-3962
▁movement	-3963
▁ed	-3964
▁tomb	-3965
ghanistan	-3966
▁tit	-3967
resse	-3968
▁Cong	-3969
▁réalisé	-3970
▁literally	-3971
yl	-3972
fort	-3973
tect	-3974
▁mamm	-3975
▁caract	-3976
▁commen	-3977
▁domaine	-3978
▁terrible	-3979
icy	-3980
▁Plus	-3981
▁term	-3982
▁mains	-3983
▁wrote	-3984
▁giving	-3985
▁groupes	-3986
▁raconter	-3987
com	-3988
odes	-3989
▁Sec	-3990
50	-3991
aly	-3992
isent	-3993
▁prév	-3994
▁books	-3995
▁longue	-3996
▁running	-3997
cé	-3998
uls	-3999
▁histor	-4000
▁aliment	-4001
▁nég	-4002
ified	-4003
▁celles	-4004
▁journée	-4005
▁qualité	-4006
▁clear	-4007
▁theory	-4008
ibly	-4009
imag	-4010
▁online	-4011
▁visual	-4012
▁mention	-4013
▁souhait	-4014
▁vitesse	-4015
▁chercher	-4016
▁devrions	-4017
▁voitures	-4018
ifest	-4019
▁init	-4020
idge	-4021
▁forward	-4022
▁telling	-4023
▁viennent	-4024
chan	-4025
espère	-4026
▁montré	-4027
▁faisait	-4028
▁réfléchir	-4029
▁travaillé	-4030
enne	-4031
inct	-4032
asser	-4033
▁chemin	-4034
▁téléphone	-4035
iod	-4036
▁risque	-4037
▁Bl	-4038
ainc	-4039
▁fou	-4040
▁cach	-4041
dessus	-4042
▁règles	-4043
▁pros	-4044
iciens	-4045
▁radio	-4046
▁fundament	-4047
▁psycholog	-4048
▁flow	-4049
▁méth	-4050
▁install	-4051
▁mondial	-4052
vest	-4053
▁guess	-4054
▁papier	-4055
▁soleil	-4056
▁mathemat	-4057
ceive	-4058
iforn	-4059
▁song	-4060
▁worth	-4061
erc	-4062
ios	-4063
▁rou	-4064
▁soon	-4065
▁parties	-4066
▁electric	-4067
▁utilisant	-4068
▁Pr	-4069
pped	-4070
▁eye	-4071
rement	-4072
▁track	-4073
ensions	-4074
▁center	-4075
ague	-4076
▁nav	-4077
▁anyone	-4078
▁similar	-4079
▁voulait	-4080
▁confiance	-4081
oins	-4082
▁fils	-4083
▁gars	-4084
▁langage	-4085
▁marcher	-4086
▁Facebook	-4087
ips	-4088
onte	-4089
▁baby	-4090
▁logic	-4091
▁solve	-4092
▁propri	-4093
▁succès	-4094
▁continuer	-4095
appe	-4096
▁méc	-4097
ingly	-4098
otions	-4099
▁creating	-4100
▁quantité	-4101
▁300	-4102
▁ice	-4103
▁English	-4104
▁modèles	-4105
▁subject	-4106
ification	-4107
▁religion	-4108
environnement	-4109
▁Bro	-4110
▁rester	-4111
tout	-4112
ously	-4113
▁Yeah	-4114
▁cars	-4115
▁save	-4116
lection	-4117
▁révolution	-4118
riv	-4119
▁ren	-4120
▁multip	-4121
▁sustain	-4122
▁feu	-4123
▁batt	-4124
▁preu	-4125
▁challeng	-4126
aking	-4127
▁espèces	-4128
fs	-4129
zz	-4130
▁rele	-4131
▁road	-4132
▁projets	-4133
▁developing	-4134
▁recherches	-4135
▁aura	-4136
▁jeux	-4137
▁rate	-4138
ashing	-4139
▁pauvres	-4140
▁utilise	-4141
▁By	-4142
ased	-4143
élect	-4144
▁avail	-4145
▁girls	-4146
▁restaur	-4147
▁pourriez	-4148
▁represent	-4149
▁Nord	-4150
▁compagn	-4151
▁ang	-4152
urity	-4153
▁period	-4154
▁moments	-4155
▁bomb	-4156
aments	-4157
▁rendu	-4158
▁conserv	-4159
yond	-4160
ormes	-4161
▁rôle	-4162
▁thank	-4163
▁matière	-4164
▁Californ	-4165
▁distance	-4166
▁traitement	-4167
▁Etats	-4168
▁Notre	-4169
▁achie	-4170
▁perdu	-4171
▁bonnes	-4172
▁industry	-4173
▁positive	-4174
Je	-4175
orith	-4176
▁moral	-4177
▁talked	-4178
pecially	-4179
▁content	-4180
iellement	-4181
▁absolutely	-4182
ny	-4183
liqué	-4184
ustral	-4185
▁libert	-4186
▁travel	-4187
▁discovered	-4188
▁197	-4189
▁var	-4190
▁gent	-4191
▁assis	-4192
▁benef	-4193
▁objets	-4194
icon	-4195
▁Sch	-4196
leurs	-4197
▁Inde	-4198
▁moder	-4199
▁durant	-4200
abil	-4201
uter	-4202
▁Dan	-4203
▁sea	-4204
import	-4205
▁rare	-4206
▁soir	-4207
▁agric	-4208
économie	-4209
anda	-4210
▁gag	-4211
light	-4212
▁attack	-4213
▁tendance	-4214
▁découvrir	-4215
gest	-4216
like	-4217
▁blog	-4218
istance	-4219
▁search	-4220
▁showed	-4221
▁vivent	-4222
▁medical	-4223
▁bâtiment	-4224
ey	-4225
▁hyp	-4226
ettez	-4227
▁deli	-4228
▁pull	-4229
▁parad	-4230
▁reprodu	-4231
▁designed	-4232
▁meilleurs	-4233
osé	-4234
roit	-4235
▁farm	-4236
▁redu	-4237
issions	-4238
▁appren	-4239
▁remarqu	-4240
▁démocrat	-4241
▁demi	-4242
▁voice	-4243
iot	-4244
opt	-4245
mble	-4246
▁bons	-4247
▁défi	-4248
erence	-4249
▁route	-4250
aissance	-4251
▁architect	-4252
▁ordinateurs	-4253
ya	-4254
▁Pl	-4255
▁vé	-4256
inst	-4257
onie	-4258
▁aren	-4259
▁resources	-4260
▁génération	-4261
▁mut	-4262
▁pil	-4263
▁rid	-4264
atell	-4265
▁fire	-4266
itaire	-4267
▁région	-4268
▁reasons	-4269
▁surtout	-4270
acle	-4271
orge	-4272
▁grad	-4273
▁digital	-4274
▁étant	-4275
▁allait	-4276
▁observ	-4277
▁savent	-4278
▁document	-4279
eté	-4280
ley	-4281
oure	-4282
▁Ici	-4283
human	-4284
▁Bill	-4285
5,	-4286
▁sept	-4287
▁tiny	-4288
▁among	-4289
▁playing	-4290
▁recently	-4291
▁Sur	-4292
▁climatique	-4293
▁Co	-4294
▁dipl	-4295
▁grat	-4296
▁crise	-4297
▁kilom	-4298
▁strat	-4299
▁insect	-4300
▁journey	-4301
▁justice	-4302
▁sociaux	-4303
impression	-4304
go	-4305
eux	-4306
resp	-4307
uits	-4308
▁époque	-4309
▁current	-4310
▁pratique	-4311
ancé	-4312
▁rue	-4313
veral	-4314
▁vent	-4315
▁seront	-4316
▁politiques	-4317
son	-4318
▁tap	-4319
▁altern	-4320
▁dirige	-4321
▁pouvaient	-4322
▁entreprene	-4323
▁â	-4324
yle	-4325
ester	-4326
▁prise	-4327
▁Christ	-4328
▁attend	-4329
▁formes	-4330
▁pourtant	-4331
8,	-4332
oust	-4333
ètre	-4334
ulaire	-4335
▁beyond	-4336
▁satell	-4337
ID	-4338
des	-4339
ède	-4340
auff	-4341
▁carbon	-4342
imm	-4343
raî	-4344
ôte	-4345
▁Gu	-4346
izar	-4347
▁anc	-4348
▁mir	-4349
▁bras	-4350
2,	-4351
rim	-4352
▁1,	-4353
▁Sc	-4354
▁trib	-4355
▁spéci	-4356
▁includ	-4357
▁réussi	-4358
▁available	-4359
▁computers	-4360
▁conception	-4361
▁i	-4362
▁196	-4363
cemment	-4364
▁changing	-4365
con	-4366
ource	-4367
▁cover	-4368
▁drive	-4369
▁poser	-4370
▁vérité	-4371
▁generation	-4372
nels	-4373
room	-4374
▁sleep	-4375
▁produce	-4376
▁especially	-4377
▁structures	-4378
▁changements	-4379
ompl	-4380
▁San	-4381
▁Cent	-4382
▁Paul	-4383
▁knows	-4384
▁mécan	-4385
▁occup	-4386
▁asking	-4387
▁incredibly	-4388
tu	-4389
▁deg	-4390
▁dang	-4391
▁fini	-4392
▁grav	-4393
▁peine	-4394
▁rouge	-4395
▁général	-4396
cop	-4397
▁Ken	-4398
truis	-4399
▁groups	-4400
▁signal	-4401
état	-4402
▁bud	-4403
oring	-4404
▁evidence	-4405
▁prochaine	-4406
.,	-4407
▁Ag	-4408
▁ult	-4409
pping	-4410
▁moyenne	-4411
agé	-4412
▁sho	-4413
▁chans	-4414
▁dépens	-4415
▁street	-4416
▁extrêmement	-4417
ify	-4418
aill	-4419
heur	-4420
▁dépl	-4421
ishing	-4422
▁predict	-4423
hors	-4424
▁yes	-4425
▁emerg	-4426
▁haven	-4427
▁shape	-4428
▁efficace	-4429
cks	-4430
ica	-4431
expl	-4432
agues	-4433
isible	-4434
▁tells	-4435
▁trucs	-4436
▁emotion	-4437
expérience	-4438
aim	-4439
océan	-4440
icians	-4441
▁bigger	-4442
▁sociétés	-4443
▁Brit	-4444
▁Rich	-4445
▁safe	-4446
▁basic	-4447
▁pétrole	-4448
▁algorith	-4449
ght	-4450
qui	-4451
▁War	-4452
imate	-4453
yst	-4454
▁Mus	-4455
▁mine	-4456
étaient	-4457
1,	-4458
ops	-4459
▁artist	-4460
▁mechan	-4461
▁visage	-4462
▁terrain	-4463
▁Certains	-4464
▁involved	-4465
win	-4466
▁vul	-4467
▁Chaque	-4468
▁becomes	-4469
▁condition	-4470
▁médicaments	-4471
ently	-4472
issage	-4473
▁citiz	-4474
▁doute	-4475
▁solar	-4476
▁capables	-4477
▁pictures	-4478
où	-4479
apes	-4480
igner	-4481
▁espèce	-4482
▁représente	-4483
▁expériences	-4484
cal	-4485
▁scul	-4486
lation	-4487
▁faite	-4488
▁analys	-4489
▁putting	-4490
▁several	-4491
▁relative	-4492
9,	-4493
ADN	-4494
uly	-4495
▁App	-4496
▁Ben	-4497
▁cru	-4498
▁gaz	-4499
isson	-4500
▁drug	-4501
▁defin	-4502
▁international	-4503
aj	-4504
mit	-4505
val	-4506
fois	-4507
▁voie	-4508
ocracy	-4509
▁drugs	-4510
▁lived	-4511
▁collèg	-4512
▁infrastru	-4513
▁potential	-4514
vi	-4515
rom	-4516
▁Mo	-4517
▁intr	-4518
▁précis	-4519
ery	-4520
énom	-4521
▁choice	-4522
▁neighbor	-4523
▁revolution	-4524
▁performance	-4525
bed	-4526
▁ep	-4527
▁reçu	-4528
▁bizar	-4529
▁Qui	-4530
▁lit	-4531
▁bureau	-4532
▁compet	-4533
▁Pendant	-4534
airs	-4535
▁evol	-4536
▁mode	-4537
▁truth	-4538
▁sounds	-4539
▁période	-4540
ché	-4541
▁Me	-4542
▁citoy	-4543
▁towards	-4544
▁Imaginez	-4545
tem	-4546
aisse	-4547
llect	-4548
▁appr	-4549
▁gest	-4550
▁état	-4551
▁likely	-4552
▁express	-4553
▁schools	-4554
reté	-4555
avenir	-4556
▁adapt	-4557
▁breat	-4558
▁peace	-4559
▁manger	-4560
▁Chinese	-4561
▁convainc	-4562
▁utilisent	-4563
yr	-4564
écu	-4565
▁ami	-4566
▁riv	-4567
▁unf	-4568
▁suivre	-4569
▁communities	-4570
ison	-4571
▁Fin	-4572
▁Mex	-4573
▁Yes	-4574
▁foss	-4575
▁wish	-4576
ruption	-4577
▁mauvaise	-4578
▁moyens	-4579
▁writing	-4580
▁function	-4581
arily	-4582
▁droits	-4583
▁employ	-4584
idents	-4585
▁month	-4586
respond	-4587
▁accord	-4588
▁neg	-4589
cteur	-4590
▁frag	-4591
▁court	-4592
▁rules	-4593
▁imaginer	-4594
▁mig	-4595
ected	-4596
▁cris	-4597
▁venu	-4598
▁After	-4599
▁First	-4600
▁bénéf	-4601
▁résol	-4602
pendant	-4603
▁volont	-4604
novation	-4605
!"	-4606
▁tâ	-4607
▁bed	-4608
▁tax	-4609
ielle	-4610
▁blanc	-4611
▁necess	-4612
▁correspond	-4613
ief	-4614
éra	-4615
▁bank	-4616
▁died	-4617
▁camera	-4618
▁examples	-4619
▁réaliser	-4620
rou	-4621
xim	-4622
▁CO	-4623
▁Of	-4624
itif	-4625
▁pen	-4626
idemment	-4627
▁Twitter	-4628
Inde	-4629
▁loi	-4630
ounds	-4631
▁near	-4632
▁spéc	-4633
▁plais	-4634
▁somme	-4635
ami	-4636
ford	-4637
▁mém	-4638
▁win	-4639
▁Même	-4640
▁sauv	-4641
▁stim	-4642
▁croire	-4643
▁device	-4644
▁constit	-4645
▁accident	-4646
▁software	-4647
uvre	-4648
▁lut	-4649
après	-4650
▁espace	-4651
▁office	-4652
▁couleur	-4653
lin	-4654
mar	-4655
▁pai	-4656
uments	-4657
▁étonn	-4658
▁rencontré	-4659
▁entreprise	-4660
▁Ob	-4661
éros	-4662
▁gro	-4663
▁bact	-4664
▁boug	-4665
▁cuis	-4666
▁gagn	-4667
▁Beaucoup	-4668
▁enregist	-4669
▁dimensions	-4670
ada	-4671
uler	-4672
isant	-4673
▁coût	-4674
▁dimin	-4675
▁speed	-4676
▁atteint	-4677
▁complexe	-4678
▁interview	-4679
▁permettre	-4680
▁Ok	-4681
more	-4682
ained	-4683
termin	-4684
▁charge	-4685
▁notion	-4686
▁return	-4687
▁general	-4688
▁expliquer	-4689
aging	-4690
igher	-4691
▁arrêt	-4692
▁clean	-4693
▁biggest	-4694
▁context	-4695
▁profonde	-4696
▁Afghanistan	-4697
isf	-4698
orig	-4699
▁cross	-4700
▁films	-4701
▁rights	-4702
▁techniques	-4703
yez	-4704
▁soi	-4705
▁combin	-4706
▁starts	-4707
▁études	-4708
▁transformer	-4709
enez	-4710
▁Act	-4711
▁hun	-4712
osing	-4713
▁sand	-4714
▁dinos	-4715
▁quality	-4716
▁scientific	-4717
ray	-4718
▁conten	-4719
▁Lorsque	-4720
▁results	-4721
▁éléments	-4722
anz	-4723
▁ut	-4724
▁hit	-4725
▁tir	-4726
▁total	-4727
actions	-4728
▁article	-4729
▁creative	-4730
▁favorite	-4731
▁architecture	-4732
ges	-4733
▁Tod	-4734
▁led	-4735
▁nut	-4736
ublic	-4737
▁Will	-4738
▁nine	-4739
▁pire	-4740
▁pose	-4741
▁Maybe	-4742
▁étude	-4743
▁double	-4744
▁phénom	-4745
Amérique	-4746
▁bonheur	-4747
▁largest	-4748
▁pauvreté	-4749
▁projects	-4750
▁standard	-4751
7,	-4752
▁Cor	-4753
▁aid	-4754
▁combat	-4755
▁higher	-4756
▁threat	-4757
ners	-4758
▁éle	-4759
▁screen	-4760
▁spirit	-4761
iversity	-4762
▁showing	-4763
▁National	-4764
▁ox	-4765
▁plate	-4766
▁stick	-4767
▁batter	-4768
▁lesquelles	-4769
▁suc	-4770
▁Deux	-4771
▁insp	-4772
▁North	-4773
▁nucle	-4774
mission	-4775
▁bacter	-4776
▁mobile	-4777
avère	-4778
verty	-4779
▁coop	-4780
▁vieux	-4781
▁dépend	-4782
▁anybody	-4783
▁poverty	-4784
▁récemment	-4785
ky	-4786
hter	-4787
▁cogn	-4788
▁soul	-4789
▁Where	-4790
ibility	-4791
▁carbone	-4792
▁répondre	-4793
▁absolument	-4794
▁laboratoire	-4795
▁boy	-4796
▁okay	-4797
▁enfin	-4798
▁façons	-4799
▁médias	-4800
▁revenir	-4801
▁totalement	-4802
▁400	-4803
cient	-4804
▁join	-4805
▁role	-4806
▁wants	-4807
▁entend	-4808
▁savais	-4809
▁chiffres	-4810
▁exciting	-4811
▁transpar	-4812
▁sentiment	-4813
▁uniquement	-4814
▁intelligence	-4815
ows	-4816
▁aide	-4817
▁peup	-4818
▁cycle	-4819
▁finir	-4820
▁former	-4821
▁mental	-4822
▁appelée	-4823
▁pensais	-4824
▁Don	-4825
▁tox	-4826
▁beau	-4827
▁bless	-4828
▁moved	-4829
▁causes	-4830
▁oh	-4831
▁sein	-4832
espoir	-4833
▁liste	-4834
▁walking	-4835
▁teachers	-4836
▁materials	-4837
▁particularly	-4838
▁Dep	-4839
iller	-4840
▁craz	-4841
▁fine	-4842
▁onto	-4843
▁race	-4844
▁aband	-4845
▁trust	-4846
▁langue	-4847
▁répondu	-4848
▁conflict	-4849
ev	-4850
how	-4851
pit	-4852
▁disant	-4853
▁certainly	-4854
▁écl	-4855
▁huit	-4856
▁courage	-4857
▁démocratie	-4858
oid	-4859
▁Te	-4860
▁sites	-4861
▁prépar	-4862
▁sculpt	-4863
▁considér	-4864
▁discours	-4865
▁surprise	-4866
▁character	-4867
▁deviennent	-4868
▁City	-4869
▁vraie	-4870
▁totally	-4871
▁exemples	-4872
▁response	-4873
ço	-4874
come	-4875
▁rat	-4876
aving	-4877
uelles	-4878
▁chimp	-4879
▁mount	-4880
▁plants	-4881
▁Washing	-4882
▁plantes	-4883
▁iP	-4884
akes	-4885
▁hot	-4886
▁2000	-4887
▁purp	-4888
▁création	-4889
▁including	-4890
mic	-4891
▁Who	-4892
▁cad	-4893
▁lif	-4894
odies	-4895
▁isol	-4896
▁jobs	-4897
ouvert	-4898
▁telle	-4899
▁dispon	-4900
▁décenn	-4901
▁obviously	-4902
▁communautés	-4903
▁Ed	-4904
▁rej	-4905
cteurs	-4906
▁connu	-4907
▁circul	-4908
▁infect	-4909
▁écrire	-4910
▁extremely	-4911
▁influence	-4912
▁Washington	-4913
▁Av	-4914
▁né	-4915
wood	-4916
▁dès	-4917
▁rain	-4918
onstru	-4919
▁sauver	-4920
▁further	-4921
▁développé	-4922
gel	-4923
ola	-4924
▁mél	-4925
oming	-4926
ricité	-4927
▁apart	-4928
▁autor	-4929
▁magaz	-4930
▁meant	-4931
▁Regardez	-4932
▁security	-4933
edi	-4934
▁ner	-4935
▁swe	-4936
icule	-4937
▁Franc	-4938
▁ready	-4939
▁rappel	-4940
▁possibil	-4941
▁impression	-4942
▁individuals	-4943
ha	-4944
▁donn	-4945
▁quot	-4946
▁glace	-4947
▁stock	-4948
▁stratég	-4949
▁manifest	-4950
agir	-4951
▁fair	-4952
▁qual	-4953
▁vend	-4954
titude	-4955
▁belle	-4956
▁objects	-4957
▁programm	-4958
rentissage	-4959
▁extraordinary	-4960
▁Dar	-4961
▁Arab	-4962
▁link	-4963
▁ouvert	-4964
▁African	-4965
▁hospital	-4966
▁suivante	-4967
iés	-4968
éch	-4969
▁liberté	-4970
▁atteindre	-4971
ror	-4972
▁TV	-4973
▁goal	-4974
▁skin	-4975
aliste	-4976
ground	-4977
ication	-4978
▁sociale	-4979
▁cultures	-4980
▁watching	-4981
▁everywhere	-4982
▁protection	-4983
We	-4984
oo	-4985
▁hour	-4986
▁blind	-4987
▁devait	-4988
▁micros	-4989
▁report	-4990
▁strate	-4991
▁prototy	-4992
▁rassembl	-4993
IT	-4994
anim	-4995
▁fill	-4996
▁plat	-4997
▁libre	-4998
▁minds	-4999
▁pages	-5000
▁nobody	-5001
innovation	-5002
ael	-5003
▁amp	-5004
▁ded	-5005
▁tôt	-5006
▁tort	-5007
▁analy	-5008
▁crazy	-5009
▁games	-5010
▁student	-5011
▁intellect	-5012
réh	-5013
▁caf	-5014
▁anti	-5015
▁gènes	-5016
▁urban	-5017
▁crisis	-5018
▁solaire	-5019
▁traiter	-5020
▁happiness	-5021
amin	-5022
▁Pers	-5023
▁cham	-5024
▁push	-5025
icient	-5026
▁synth	-5027
▁doctor	-5028
▁choisir	-5029
▁regardé	-5030
▁connected	-5031
▁designers	-5032
▁technique	-5033
car	-5034
hib	-5035
▁fat	-5036
useum	-5037
▁scan	-5038
pected	-5039
▁birth	-5040
▁forêt	-5041
▁esprit	-5042
humanité	-5043
▁massive	-5044
▁médecine	-5045
▁eventually	-5046
▁Sw	-5047
tein	-5048
▁fit	-5049
▁jud	-5050
▁accès	-5051
▁carry	-5052
▁stopp	-5053
▁models	-5054
▁allowed	-5055
▁improve	-5056
▁familles	-5057
▁democracy	-5058
ctor	-5059
iend	-5060
▁soins	-5061
▁école	-5062
▁brains	-5063
▁crimin	-5064
▁except	-5065
▁notice	-5066
▁satisf	-5067
paravant	-5068
industrie	-5069
del	-5070
anch	-5071
êche	-5072
▁eth	-5073
verse	-5074
▁cens	-5075
▁chin	-5076
▁prior	-5077
▁separ	-5078
▁gagner	-5079
▁surveill	-5080
for	-5081
oie	-5082
cule	-5083
▁cos	-5084
ander	-5085
appel	-5086
▁Most	-5087
▁cases	-5088
▁domin	-5089
▁ingén	-5090
▁fabric	-5091
▁écoles	-5092
▁Richard	-5093
▁conclus	-5094
▁premières	-5095
cing	-5096
archite	-5097
▁permis	-5098
▁tempér	-5099
▁buildings	-5100
▁internation	-5101
▁extraordinaire	-5102
▁Web	-5103
▁erre	-5104
▁named	-5105
▁trees	-5106
▁parten	-5107
▁actions	-5108
▁approche	-5109
▁littéralement	-5110
IV	-5111
ged	-5112
▁Any	-5113
▁amb	-5114
▁rom	-5115
irurg	-5116
▁lois	-5117
▁note	-5118
▁dehors	-5119
▁dessin	-5120
▁central	-5121
▁chemical	-5122
▁incroyablement	-5123
▁sn	-5124
rial	-5125
▁waste	-5126
▁region	-5127
▁taught	-5128
▁dangere	-5129
▁simples	-5130
▁supposed	-5131
edia	-5132
▁grew	-5133
▁meth	-5134
▁remark	-5135
▁essentially	-5136
▁laug	-5137
▁dites	-5138
▁sépar	-5139
▁manque	-5140
▁molecul	-5141
▁continent	-5142
▁directement	-5143
cs	-5144
fin	-5145
oré	-5146
▁stri	-5147
▁tests	-5148
ivalent	-5149
▁importantes	-5150
té	-5151
ulf	-5152
iels	-5153
eness	-5154
▁inde	-5155
▁truly	-5156
▁hypoth	-5157
▁studies	-5158
ordinateur	-5159
ège	-5160
▁150	-5161
▁Even	-5162
▁radi	-5163
vision	-5164
▁merci	-5165
▁author	-5166
▁réseaux	-5167
▁medicine	-5168
fer	-5169
▁NA	-5170
▁cer	-5171
▁astr	-5172
▁peau	-5173
▁rout	-5174
▁séqu	-5175
▁stars	-5176
▁trial	-5177
▁réduire	-5178
▁échelle	-5179
▁conscious	-5180
étr	-5181
▁door	-5182
enfants	-5183
▁choose	-5184
▁memory	-5185
▁sentir	-5186
▁matériaux	-5187
▁utilisons	-5188
ging	-5189
▁hyd	-5190
erman	-5191
ption	-5192
▁proté	-5193
▁worse	-5194
▁vivant	-5195
▁wealth	-5196
▁families	-5197
str	-5198
back	-5199
ians	-5200
▁Bang	-5201
▁Today	-5202
▁shown	-5203
▁surpr	-5204
izations	-5205
▁protéger	-5206
▁kilomètres	-5207
4,	-5208
delà	-5209
edom	-5210
érêt	-5211
ician	-5212
▁oubl	-5213
▁paix	-5214
▁Japan	-5215
▁concer	-5216
▁fallait	-5217
▁finding	-5218
▁fundamental	-5219
igu	-5220
▁enj	-5221
▁vas	-5222
ended	-5223
▁Isra	-5224
▁late	-5225
▁tree	-5226
▁nuclé	-5227
avaient	-5228
▁cellule	-5229
▁travaillent	-5230
rier	-5231
▁Mes	-5232
▁lat	-5233
ender	-5234
▁bate	-5235
▁doig	-5236
▁match	-5237
▁possibilité	-5238
aign	-5239
▁hors	-5240
▁dispos	-5241
▁prenez	-5242
▁address	-5243
▁college	-5244
▁galaxies	-5245
▁prennent	-5246
élè	-5247
▁toil	-5248
▁movie	-5249
▁membres	-5250
▁thousand	-5251
heureusement	-5252
▁gouvernements	-5253
raz	-5254
▁tri	-5255
▁faster	-5256
3,	-5257
▁hop	-5258
ortex	-5259
▁bunch	-5260
▁allows	-5261
▁imagin	-5262
▁termin	-5263
▁survive	-5264
▁standing	-5265
▁auparavant	-5266
▁leadership	-5267
dom	-5268
▁HIV	-5269
▁obl	-5270
▁ray	-5271
▁Char	-5272
▁lose	-5273
atures	-5274
▁above	-5275
▁crime	-5276
▁faits	-5277
▁genes	-5278
▁killed	-5279
▁vivons	-5280
dy	-5281
fl	-5282
mon	-5283
▁Su	-5284
▁Are	-5285
image	-5286
▁wife	-5287
▁wild	-5288
▁imméd	-5289
▁lower	-5290
▁masse	-5291
▁pouss	-5292
▁teacher	-5293
pro	-5294
▁webs	-5295
▁colon	-5296
▁attach	-5297
▁excited	-5298
▁importe	-5299
▁morceau	-5300
▁activity	-5301
▁decision	-5302
▁products	-5303
cape	-5304
▁drog	-5305
▁payer	-5306
▁pensée	-5307
▁acheter	-5308
▁respond	-5309
ech	-5310
▁Col	-5311
▁dév	-5312
▁amen	-5313
▁cand	-5314
▁révé	-5315
▁ended	-5316
▁traditional	-5317
▁dix	-5318
onent	-5319
urent	-5320
cience	-5321
▁dollar	-5322
▁perman	-5323
▁citizens	-5324
▁messages	-5325
▁puissance	-5326
▁complicated	-5327
isés	-5328
▁mou	-5329
▁spr	-5330
▁Tous	-5331
▁warm	-5332
▁génial	-5333
▁temper	-5334
▁constant	-5335
▁suddenly	-5336
▁somewhere	-5337
lt	-5338
mé	-5339
▁gri	-5340
▁inj	-5341
▁pén	-5342
▁earth	-5343
échelle	-5344
▁larger	-5345
▁contexte	-5346
umb	-5347
habit	-5348
▁sequ	-5349
▁objet	-5350
▁sorts	-5351
aujourd	-5352
▁destru	-5353
▁mourir	-5354
▁caractér	-5355
▁commencent	-5356
▁Mont	-5357
▁suivant	-5358
▁increase	-5359
ortunately	-5360
université	-5361
▁successful	-5362
▁Bar	-5363
▁MIT	-5364
ieuse	-5365
▁cold	-5366
▁launch	-5367
▁chirurg	-5368
▁workers	-5369
▁portable	-5370
▁distribution	-5371
lor	-5372
▁har	-5373
oking	-5374
▁acqu	-5375
▁phen	-5376
▁forms	-5377
▁afford	-5378
▁finance	-5379
▁évident	-5380
▁nécessaire	-5381
apprentissage	-5382
▁organization	-5383
bien	-5384
▁Jus	-5385
ormais	-5386
▁coûte	-5387
▁Austral	-5388
▁experts	-5389
▁présentation	-5390
2.	-5391
der	-5392
iat	-5393
yth	-5394
ére	-5395
hern	-5396
ifié	-5397
▁fing	-5398
▁prêt	-5399
ending	-5400
▁James	-5401
▁Those	-5402
▁infin	-5403
▁active	-5404
▁étudier	-5405
▁présente	-5406
▁35	-5407
▁dam	-5408
▁hack	-5409
▁lands	-5410
▁intégr	-5411
▁microbes	-5412
▁pourrais	-5413
▁secondes	-5414
▁intelligent	-5415
ken	-5416
▁Là	-5417
iliar	-5418
ôpital	-5419
▁clair	-5420
▁print	-5421
▁policy	-5422
ographie	-5423
▁diagnost	-5424
▁effectivement	-5425
ured	-5426
oiles	-5427
▁angl	-5428
▁hall	-5429
▁lent	-5430
▁rand	-5431
▁sell	-5432
▁ayant	-5433
▁sympt	-5434
▁atmosph	-5435
▁nan	-5436
▁Look	-5437
▁luck	-5438
▁check	-5439
▁oppos	-5440
▁panne	-5441
▁parti	-5442
▁plong	-5443
▁racont	-5444
éricains	-5445
▁Michael	-5446
▁arrière	-5447
▁military	-5448
▁professeur	-5449
esth	-5450
lock	-5451
▁boî	-5452
▁educ	-5453
▁mist	-5454
▁vécu	-5455
▁proche	-5456
▁achieve	-5457
▁courant	-5458
▁corruption	-5459
▁transformation	-5460
▁burn	-5461
▁pack	-5462
▁career	-5463
▁merveilleux	-5464
éries	-5465
▁chef	-5466
▁mang	-5467
▁nord	-5468
iences	-5469
though	-5470
▁charg	-5471
▁older	-5472
▁faible	-5473
▁indeed	-5474
▁parent	-5475
▁nuclear	-5476
▁sources	-5477
▁sciences	-5478
▁formation	-5479
électricité	-5480
▁certainement	-5481
cipe	-5482
rase	-5483
ster	-5484
▁Big	-5485
▁phy	-5486
icial	-5487
▁amus	-5488
▁chant	-5489
▁enjoy	-5490
▁manip	-5491
▁disons	-5492
▁series	-5493
▁neurones	-5494
▁personnel	-5495
ara	-5496
uré	-5497
eren	-5498
▁bur	-5499
▁sop	-5500
▁East	-5501
▁actual	-5502
▁étrang	-5503
▁Laissez	-5504
▁ju	-5505
berg	-5506
itor	-5507
▁kept	-5508
▁George	-5509
▁cartes	-5510
▁souris	-5511
ensemble	-5512
▁progrès	-5513
▁dangerous	-5514
▁intéressante	-5515
yc	-5516
▁Per	-5517
▁morts	-5518
▁trick	-5519
▁recomm	-5520
▁concerne	-5521
Ar	-5522
iced	-5523
étud	-5524
appro	-5525
▁rêve	-5526
▁ouver	-5527
instein	-5528
▁grandi	-5529
▁deliver	-5530
▁reading	-5531
▁phenomen	-5532
▁training	-5533
▁collègues	-5534
▁decisions	-5535
ee	-5536
▁km	-5537
▁élev	-5538
équipe	-5539
▁chanson	-5540
▁retrouv	-5541
▁humanity	-5542
▁collective	-5543
▁infrastructure	-5544
ald	-5545
bert	-5546
▁obt	-5547
▁reb	-5548
riques	-5549
▁skills	-5550
▁symbol	-5551
▁plastic	-5552
▁specific	-5553
tra	-5554
▁Iran	-5555
▁aime	-5556
▁ciel	-5557
raight	-5558
▁bodies	-5559
▁pieces	-5560
▁internet	-5561
▁recognize	-5562
▁perception	-5563
▁connaissance	-5564
▁neighborhood	-5565
grad	-5566
roph	-5567
▁mas	-5568
▁pun	-5569
▁sky	-5570
ograp	-5571
▁bébé	-5572
▁corp	-5573
▁lines	-5574
▁compréh	-5575
▁usually	-5576
▁Anderson	-5577
▁straight	-5578
▁electricity	-5579
aqu	-5580
ior	-5581
▁Somet	-5582
▁explo	-5583
▁explore	-5584
▁citoyens	-5585
▁collabor	-5586
▁souvenir	-5587
▁décisions	-5588
ago	-5589
cipl	-5590
▁dog	-5591
enses	-5592
▁zero	-5593
▁healthy	-5594
▁patterns	-5595
importance	-5596
An	-5597
aison	-5598
▁cord	-5599
▁heav	-5600
▁trem	-5601
▁beings	-5602
iversité	-5603
▁accompl	-5604
▁private	-5605
▁somehow	-5606
▁argument	-5607
▁réponses	-5608
▁potentiel	-5609
▁imagination	-5610
▁ouv	-5611
▁Like	-5612
▁chaî	-5613
▁exerc	-5614
▁effets	-5615
▁garder	-5616
▁doctors	-5617
▁physics	-5618
▁significant	-5619
pri	-5620
ieur	-5621
tenir	-5622
▁Park	-5623
▁choc	-5624
▁céré	-5625
▁faux	-5626
aurais	-5627
aughter	-5628
▁devoir	-5629
▁précéd	-5630
▁naturel	-5631
▁valeurs	-5632
▁carrière	-5633
▁treatment	-5634
▁institution	-5635
nés	-5636
▁célè	-5637
▁biology	-5638
▁bizarre	-5639
▁smaller	-5640
▁trouble	-5641
alisation	-5642
▁harm	-5643
▁town	-5644
▁alive	-5645
▁enorm	-5646
▁throw	-5647
▁viens	-5648
étiques	-5649
▁tomber	-5650
▁transl	-5651
▁poisson	-5652
▁provide	-5653
▁becoming	-5654
▁critical	-5655
▁collaboration	-5656
▁Ca	-5657
▁unc	-5658
▁crow	-5659
minist	-5660
▁magic	-5661
▁Second	-5662
▁effort	-5663
▁pousser	-5664
▁bacteria	-5665
▁El	-5666
▁âg	-5667
▁Min	-5668
▁Roy	-5669
▁Sup	-5670
▁upon	-5671
aliser	-5672
▁frapp	-5673
▁apport	-5674
▁remind	-5675
▁anymore	-5676
▁conduit	-5677
▁biologie	-5678
▁trouvent	-5679
▁effective	-5680
▁fabriquer	-5681
▁invisible	-5682
▁listening	-5683
▁philosoph	-5684
▁Sm	-5685
aume	-5686
émie	-5687
▁tun	-5688
phone	-5689
▁liqu	-5690
▁loved	-5691
▁tirer	-5692
origine	-5693
▁revenu	-5694
▁University	-5695
▁discussion	-5696
Is	-5697
▁lu	-5698
isco	-5699
time	-5700
▁cot	-5701
iling	-5702
▁yeah	-5703
▁Kenya	-5704
▁aille	-5705
▁navig	-5706
▁physi	-5707
▁familiar	-5708
▁concevoir	-5709
▁construis	-5710
allais	-5711
raient	-5712
▁Times	-5713
▁désir	-5714
▁commit	-5715
▁connex	-5716
▁implic	-5717
▁médecin	-5718
▁commercial	-5719
uns	-5720
▁rét	-5721
▁desp	-5722
▁targ	-5723
ements	-5724
issait	-5725
▁durable	-5726
▁freedom	-5727
▁propert	-5728
▁diseases	-5729
▁entendre	-5730
▁vast	-5731
▁board	-5732
▁poids	-5733
▁please	-5734
▁slight	-5735
▁increas	-5736
▁seconds	-5737
▁devraient	-5738
▁mathématiques	-5739
ût	-5740
eless	-5741
venir	-5742
êcher	-5743
▁sexe	-5744
▁entrer	-5745
▁pièces	-5746
▁procéd	-5747
▁laissez	-5748
▁décision	-5749
▁challenges	-5750
▁véh	-5751
améli	-5752
▁cele	-5753
▁coin	-5754
▁dram	-5755
▁myst	-5756
▁uses	-5757
▁Angel	-5758
▁agree	-5759
▁price	-5760
▁weren	-5761
▁êtres	-5762
▁arbres	-5763
▁démont	-5764
▁neuros	-5765
▁pleine	-5766
▁riches	-5767
▁genetic	-5768
▁moderne	-5769
▁tourner	-5770
▁Personne	-5771
▁anywhere	-5772
▁Americans	-5773
▁créativité	-5774
▁permettent	-5775
cy	-5776
aman	-5777
uille	-5778
arlier	-5779
attend	-5780
▁famous	-5781
▁vendre	-5782
▁governments	-5783
tar	-5784
▁mi	-5785
ceed	-5786
▁Nob	-5787
acles	-5788
▁talks	-5789
érieure	-5790
▁beauté	-5791
▁greatest	-5792
▁expensive	-5793
▁collection	-5794
MS	-5795
▁vot	-5796
alism	-5797
céans	-5798
orted	-5799
▁surr	-5800
▁limit	-5801
akistan	-5802
▁neurons	-5803
▁sophist	-5804
6,	-5805
anth	-5806
▁whe	-5807
ignes	-5808
▁oise	-5809
▁notes	-5810
▁budget	-5811
▁aspects	-5812
▁majorité	-5813
▁painting	-5814
▁immédiate	-5815
▁fi	-5816
▁glo	-5817
urant	-5818
▁date	-5819
▁repl	-5820
mettre	-5821
▁Niger	-5822
▁détru	-5823
▁numéro	-5824
▁océans	-5825
▁financi	-5826
▁matérie	-5827
▁prevent	-5828
▁waiting	-5829
▁written	-5830
▁Amérique	-5831
▁campagne	-5832
▁désormais	-5833
lim	-5834
olly	-5835
ésie	-5836
onner	-5837
ueill	-5838
▁cust	-5839
▁lancé	-5840
▁occur	-5841
▁voulu	-5842
▁clearly	-5843
▁milliard	-5844
▁original	-5845
▁numérique	-5846
No	-5847
loy	-5848
obs	-5849
aint	-5850
lled	-5851
resh	-5852
▁Los	-5853
▁mix	-5854
▁Mart	-5855
▁plac	-5856
▁rise	-5857
▁débat	-5858
▁minim	-5859
▁voler	-5860
▁frustr	-5861
▁quotid	-5862
ailleurs	-5863
ediately	-5864
▁strange	-5865
▁suppose	-5866
▁contrôler	-5867
▁fonctionner	-5868
anes	-5869
▁band	-5870
▁neuf	-5871
▁costs	-5872
endroit	-5873
ifiques	-5874
▁comfort	-5875
▁revenus	-5876
▁puissant	-5877
▁économie	-5878
▁instrument	-5879
pes	-5880
dire	-5881
usse	-5882
board	-5883
chant	-5884
iding	-5885
▁lien	-5886
▁beauty	-5887
▁earlier	-5888
▁convince	-5889
abe	-5890
hom	-5891
och	-5892
arter	-5893
▁shot	-5894
▁Quelle	-5895
▁magazine	-5896
▁pouvions	-5897
▁financial	-5898
▁45	-5899
ancy	-5900
rets	-5901
▁bag	-5902
▁worry	-5903
▁Darwin	-5904
▁formid	-5905
▁random	-5906
▁suffis	-5907
▁himself	-5908
▁complexes	-5909
▁importants	-5910
key	-5911
▁1.	-5912
▁Ber	-5913
▁fol	-5914
aries	-5915
orrow	-5916
▁Which	-5917
▁forth	-5918
▁glass	-5919
▁ignor	-5920
▁values	-5921
▁clients	-5922
▁meeting	-5923
▁demonstr	-5924
▁médecins	-5925
▁publique	-5926
▁puissent	-5927
▁programmes	-5928
▁throughout	-5929
rem	-5930
▁jet	-5931
agent	-5932
▁NASA	-5933
▁enth	-5934
▁hous	-5935
▁opin	-5936
ortion	-5937
▁subst	-5938
▁decade	-5939
▁vidéos	-5940
▁decades	-5941
▁surpren	-5942
▁émotion	-5943
▁designer	-5944
▁poissons	-5945
▁reconstru	-5946
erait	-5947
▁jump	-5948
▁cyber	-5949
▁adoles	-5950
▁auxque	-5951
▁phrase	-5952
▁account	-5953
▁driving	-5954
▁politics	-5955
▁teaching	-5956
▁facilement	-5957
bon	-5958
ded	-5959
olf	-5960
osh	-5961
uted	-5962
▁His	-5963
▁toi	-5964
▁Cons	-5965
▁arts	-5966
▁mise	-5967
▁samp	-5968
▁spat	-5969
invest	-5970
▁Islam	-5971
▁estim	-5972
aissent	-5973
▁Robert	-5974
▁engage	-5975
▁weight	-5976
▁receive	-5977
▁lesquels	-5978
▁connection	-5979
▁environmental	-5980
rees	-5981
vard	-5982
ingén	-5983
ulate	-5984
▁mett	-5985
▁drink	-5986
▁store	-5987
▁lancer	-5988
▁method	-5989
▁societ	-5990
▁devenue	-5991
▁greater	-5992
▁confront	-5993
▁faisaient	-5994
▁découverte	-5995
Al	-5996
▁os	-5997
▁floor	-5998
▁outil	-5999
▁levels	-6000
▁mainten	-6001
▁caractérist	-6002
▁Cam	-6003
▁Pal	-6004
▁diz	-6005
exist	-6006
▁ryth	-6007
▁aimer	-6008
▁babies	-6009
▁Another	-6010
▁imaginez	-6011
▁voulaient	-6012
▁difficiles	-6013
▁Fe	-6014
uent	-6015
èque	-6016
quent	-6017
▁chap	-6018
▁narr	-6019
invent	-6020
lément	-6021
▁funny	-6022
▁range	-6023
▁celebr	-6024
▁helped	-6025
▁popular	-6026
▁willing	-6027
▁Francisco	-6028
▁engineering	-6029
▁immediately	-6030
IH	-6031
▁laws	-6032
▁obst	-6033
alisme	-6034
▁bébés	-6035
▁centr	-6036
▁London	-6037
▁catast	-6038
▁Charles	-6039
▁command	-6040
▁silence	-6041
▁quartier	-6042
▁essentiellement	-6043
org	-6044
tat	-6045
ogue	-6046
▁tenir	-6047
▁Pakistan	-6048
▁présenter	-6049
ae	-6050
▁rig	-6051
▁impl	-6052
▁legs	-6053
▁établ	-6054
imension	-6055
▁correct	-6056
▁mémoire	-6057
▁pressure	-6058
▁meilleures	-6059
▁remarkable	-6060
▁actuellement	-6061
▁consommation	-6062
omas	-6063
▁Asi	-6064
▁Pren	-6065
▁embr	-6066
▁trip	-6067
▁tuer	-6068
▁apply	-6069
▁income	-6070
▁profit	-6071
▁shared	-6072
▁walked	-6073
▁descend	-6074
▁Einstein	-6075
▁practice	-6076
▁améliorer	-6077
▁importance	-6078
▁situations	-6079
▁entièrement	-6080
agers	-6081
▁balance	-6082
▁besoins	-6083
▁station	-6084
▁website	-6085
▁surf	-6086
▁peint	-6087
▁square	-6088
ham	-6089
▁da	-6090
▁mâ	-6091
▁gla	-6092
▁veh	-6093
chest	-6094
▁honest	-6095
▁compagnie	-6096
▁satellite	-6097
▁Où	-6098
ésil	-6099
ensez	-6100
▁gang	-6101
▁weap	-6102
▁block	-6103
▁useful	-6104
▁arrêter	-6105
▁choices	-6106
▁limites	-6107
▁essayons	-6108
▁encourage	-6109
▁regardant	-6110
▁clairement	-6111
▁magnifique	-6112
aker	-6113
llem	-6114
▁Mil	-6115
aider	-6116
ordre	-6117
▁bleu	-6118
▁vote	-6119
▁cardia	-6120
▁perdre	-6121
▁Combien	-6122
▁consequ	-6123
▁évidemment	-6124
▁conséquences	-6125
unt	-6126
oise	-6127
umer	-6128
▁dial	-6129
▁myth	-6130
▁ther	-6131
ection	-6132
▁Canada	-6133
▁départ	-6134
▁verrez	-6135
▁mesurer	-6136
▁parlons	-6137
▁passent	-6138
▁colleagues	-6139
ym	-6140
oes	-6141
▁Hum	-6142
▁idé	-6143
rimer	-6144
▁Très	-6145
▁prec	-6146
▁Steve	-6147
▁noire	-6148
▁style	-6149
▁visit	-6150
essayer	-6151
▁bateau	-6152
▁entraî	-6153
▁préfér	-6154
▁sommet	-6155
Internet	-6156
intellig	-6157
▁étrange	-6158
▁programs	-6159
▁industrie	-6160
▁mouvements	-6161
anç	-6162
ico	-6163
put	-6164
▁beg	-6165
▁inn	-6166
▁joy	-6167
ening	-6168
icago	-6169
ufact	-6170
▁ahead	-6171
▁broad	-6172
▁forte	-6173
▁rapid	-6174
▁sport	-6175
▁suivi	-6176
▁devais	-6177
▁Western	-6178
▁appropri	-6179
▁following	-6180
▁therefore	-6181
▁compréhension	-6182
ka	-6183
▁75	-6184
lent	-6185
▁Two	-6186
▁Braz	-6187
▁pian	-6188
▁récup	-6189
▁trade	-6190
▁forget	-6191
▁raconte	-6192
▁fantastic	-6193
▁phénomène	-6194
▁Ah	-6195
▁mid	-6196
▁puzz	-6197
▁soud	-6198
▁Green	-6199
▁seuls	-6200
▁decide	-6201
▁female	-6202
▁integr	-6203
▁visite	-6204
▁Chicago	-6205
▁efforts	-6206
▁parlent	-6207
raq	-6208
esis	-6209
rict	-6210
▁Son	-6211
▁fen	-6212
idden	-6213
naire	-6214
▁From	-6215
▁host	-6216
aining	-6217
nelles	-6218
▁abord	-6219
▁enter	-6220
▁Harvard	-6221
▁observer	-6222
▁creativity	-6223
▁immédiatement	-6224
▁Em	-6225
▁Sa	-6226
yons	-6227
▁élè	-6228
▁oxyg	-6229
▁whose	-6230
▁surger	-6231
avantage	-6232
▁chinois	-6233
▁instance	-6234
▁entrepreneurs	-6235
ache	-6236
aria	-6237
orry	-6238
atifs	-6239
▁cosm	-6240
▁joue	-6241
▁mange	-6242
▁chances	-6243
▁various	-6244
▁élément	-6245
▁énergie	-6246
▁affaires	-6247
▁plastique	-6248
▁transition	-6249
▁conversations	-6250
rimin	-6251
▁Your	-6252
▁bois	-6253
▁rule	-6254
ressed	-6255
▁antib	-6256
▁maint	-6257
▁quitt	-6258
▁leader	-6259
▁plaisir	-6260
▁risques	-6261
▁ailleurs	-6262
do	-6263
lly	-6264
▁GP	-6265
inal	-6266
▁Cet	-6267
▁gay	-6268
▁Stre	-6269
▁flex	-6270
▁pure	-6271
▁Think	-6272
▁prêts	-6273
▁découv	-6274
activité	-6275
ologique	-6276
▁marchés	-6277
▁bactéries	-6278
▁génétique	-6279
▁organizations	-6280
iam	-6281
▁kn	-6282
erce	-6283
user	-6284
▁sme	-6285
▁Frank	-6286
▁worst	-6287
▁German	-6288
▁flying	-6289
▁moteur	-6290
▁récomp	-6291
▁invented	-6292
▁réaction	-6293
▁existence	-6294
▁différences	-6295
▁profondément	-6296
kes	-6297
core	-6298
isée	-6299
uite	-6300
used	-6301
▁dance	-6302
▁gradu	-6303
▁oblig	-6304
▁déterm	-6305
▁marque	-6306
▁servir	-6307
▁sexual	-6308
▁secteur	-6309
▁streets	-6310
extérieur	-6311
architecture	-6312
▁BG	-6313
umes	-6314
▁sad	-6315
essor	-6316
▁boul	-6317
▁fuel	-6318
illion	-6319
onnect	-6320
▁below	-6321
▁fréqu	-6322
▁slide	-6323
▁talent	-6324
▁montrent	-6325
▁Cependant	-6326
éma	-6327
▁Her	-6328
▁Tur	-6329
▁Wik	-6330
▁lev	-6331
▁san	-6332
stead	-6333
▁Many	-6334
atrice	-6335
▁afric	-6336
▁conçu	-6337
▁pieds	-6338
▁telev	-6339
▁Brazil	-6340
▁dinosa	-6341
▁effects	-6342
▁addition	-6343
▁couleurs	-6344
▁enormous	-6345
▁pollution	-6346
It	-6347
oston	-6348
▁sauf	-6349
▁catch	-6350
▁riche	-6351
imately	-6352
▁caméra	-6353
▁américain	-6354
▁restaurant	-6355
▁température	-6356
èle	-6357
pper	-6358
▁sph	-6359
▁shock	-6360
▁peuple	-6361
ological	-6362
▁contemp	-6363
▁contenu	-6364
▁disappe	-6365
▁envoyer	-6366
▁nations	-6367
▁sérieux	-6368
apprendre	-6369
▁although	-6370
▁disaient	-6371
▁horrible	-6372
▁président	-6373
▁experiments	-6374
▁applications	-6375
ôme	-6376
érit	-6377
▁rot	-6378
▁beat	-6379
▁biom	-6380
▁sick	-6381
▁laisse	-6382
▁Instead	-6383
▁visible	-6384
▁alternative	-6385
abs	-6386
oyer	-6387
ulte	-6388
▁hab	-6389
▁ran	-6390
▁raise	-6391
èrement	-6392
▁custom	-6393
▁malgré	-6394
▁maisons	-6395
▁purpose	-6396
▁contraire	-6397
ycl	-6398
▁zo	-6399
▁Amaz	-6400
▁adop	-6401
▁gene	-6402
▁guer	-6403
▁plans	-6404
▁traff	-6405
▁Thomas	-6406
▁preuve	-6407
atically	-6408
ignement	-6409
▁cuisine	-6410
▁inspired	-6411
▁principe	-6412
▁conclusion	-6413
my	-6414
rian	-6415
▁Pri	-6416
arian	-6417
épend	-6418
▁park	-6419
anging	-6420
▁Grand	-6421
▁coeur	-6422
▁France	-6423
▁répand	-6424
▁supply	-6425
▁answers	-6426
▁entière	-6427
▁relationships	-6428
alu	-6429
adore	-6430
▁Life	-6431
▁male	-6432
▁trag	-6433
▁boîte	-6434
▁démar	-6435
itaires	-6436
▁advance	-6437
▁illustr	-6438
▁rappelle	-6439
1.	-6440
uie	-6441
urop	-6442
agram	-6443
▁coff	-6444
enfant	-6445
▁shark	-6446
inction	-6447
▁broken	-6448
▁envoyé	-6449
▁étoiles	-6450
▁explique	-6451
▁profound	-6452
▁slightly	-6453
▁brû	-6454
▁migr	-6455
▁suit	-6456
▁nerve	-6457
▁simpl	-6458
▁Boston	-6459
▁garçon	-6460
▁anglais	-6461
▁humaines	-6462
▁médicament	-6463
onf	-6464
unk	-6465
▁23	-6466
erie	-6467
▁Nos	-6468
▁lic	-6469
▁Alex	-6470
▁drop	-6471
▁concl	-6472
▁dying	-6473
▁étape	-6474
▁detect	-6475
▁déclar	-6476
▁electron	-6477
▁manufact	-6478
▁véritable	-6479
▁responsabilité	-6480
ads	-6481
wise	-6482
▁VIH	-6483
▁gam	-6484
acité	-6485
isons	-6486
▁Iraq	-6487
▁espér	-6488
▁legal	-6489
▁Toutes	-6490
▁cortex	-6491
▁donnent	-6492
▁cerveaux	-6493
▁surround	-6494
▁societies	-6495
▁understood	-6496
tez	-6497
▁2,	-6498
▁194	-6499
▁hus	-6500
outez	-6501
▁hasard	-6502
▁lignes	-6503
▁monter	-6504
▁mostly	-6505
▁élèves	-6506
▁Angeles	-6507
▁stopped	-6508
▁cultural	-6509
▁logiciel	-6510
▁souviens	-6511
▁connaissez	-6512
▁expression	-6513
▁surprising	-6514
▁communicate	-6515
▁destruction	-6516
bs	-6517
▁99	-6518
▁ax	-6519
ioth	-6520
▁Lib	-6521
▁Nor	-6522
▁mos	-6523
▁diss	-6524
▁offic	-6525
▁Street	-6526
▁anyway	-6527
▁savait	-6528
▁compare	-6529
▁members	-6530
▁daughter	-6531
▁directly	-6532
▁networks	-6533
▁possibly	-6534
▁remarqué	-6535
▁naissance	-6536
▁rencontrer	-6537
▁temperature	-6538
care	-6539
▁vib	-6540
water	-6541
▁King	-6542
▁chat	-6543
▁honn	-6544
▁iron	-6545
▁loss	-6546
▁reço	-6547
▁aware	-6548
▁sujets	-6549
▁destroy	-6550
▁biological	-6551
▁particules	-6552
▁television	-6553
alt	-6554
jour	-6555
rois	-6556
▁lieux	-6557
▁helping	-6558
▁planets	-6559
▁radical	-6560
▁occident	-6561
elf	-6562
house	-6563
lands	-6564
▁heat	-6565
▁mens	-6566
▁paid	-6567
▁reve	-6568
▁Great	-6569
▁email	-6570
▁feels	-6571
▁speech	-6572
▁inventé	-6573
▁passait	-6574
▁prenons	-6575
▁arrivent	-6576
▁pression	-6577
▁compétences	-6578
5.	-6579
nu	-6580
ino	-6581
zed	-6582
▁US	-6583
band	-6584
▁vac	-6585
▁entr	-6586
▁hair	-6587
Europe	-6588
▁accep	-6589
▁défis	-6590
▁Indian	-6591
▁bouger	-6592
▁closer	-6593
▁gentle	-6594
▁discipl	-6595
▁détails	-6596
▁tableau	-6597
▁nucléaire	-6598
▁américaine	-6599
▁atmosphere	-6600
co	-6601
Why	-6602
▁od	-6603
▁oe	-6604
gypt	-6605
urch	-6606
▁Aut	-6607
▁dos	-6608
ubble	-6609
▁YouT	-6610
▁boys	-6611
▁rues	-6612
urance	-6613
▁faisais	-6614
▁planètes	-6615
▁bâtiments	-6616
▁California	-6617
▁prochaines	-6618
▁sustainable	-6619
oli	-6620
▁22	-6621
raid	-6622
émin	-6623
▁Jul	-6624
▁Pac	-6625
▁Pat	-6626
▁âge	-6627
étude	-6628
▁aper	-6629
▁task	-6630
▁frame	-6631
▁Depuis	-6632
▁states	-6633
▁Londres	-6634
▁douleur	-6635
▁comprend	-6636
▁critique	-6637
▁scientist	-6638
▁complexité	-6639
▁concentrer	-6640
▁électrique	-6641
▁experiences	-6642
How	-6643
este	-6644
▁Ros	-6645
▁maî	-6646
▁Phil	-6647
▁pier	-6648
chauff	-6649
▁calls	-6650
▁choisi	-6651
▁entour	-6652
▁meters	-6653
▁YouTube	-6654
▁capacity	-6655
▁philosop	-6656
▁électron	-6657
▁instruments	-6658
▁interaction	-6659
▁organisation	-6660
uil	-6661
ason	-6662
▁195	-6663
▁Mic	-6664
▁Tom	-6665
▁fle	-6666
▁Part	-6667
▁ferm	-6668
alités	-6669
iciper	-6670
▁élevé	-6671
▁Israel	-6672
▁étudié	-6673
▁markets	-6674
attention	-6675
▁speaking	-6676
▁emotional	-6677
▁chercheurs	-6678
▁Sat	-6679
▁bio	-6680
▁due	-6681
▁évé	-6682
▁Mark	-6683
▁dens	-6684
anches	-6685
▁moust	-6686
▁serve	-6687
▁played	-6688
▁degrees	-6689
▁observe	-6690
▁spectac	-6691
▁tremend	-6692
▁derniers	-6693
▁dizaines	-6694
▁seraient	-6695
▁convention	-6696
▁abe	-6697
▁Good	-6698
▁pert	-6699
▁poet	-6700
▁chaud	-6701
▁fonds	-6702
▁minus	-6703
▁dedans	-6704
▁détect	-6705
▁nearly	-6706
▁strugg	-6707
ependent	-6708
▁noticed	-6709
▁spécial	-6710
▁individus	-6711
▁marketing	-6712
ala	-6713
ulé	-6714
ivre	-6715
▁élo	-6716
écran	-6717
▁chau	-6718
▁inqui	-6719
▁morte	-6720
▁sorti	-6721
▁tâche	-6722
▁laissé	-6723
▁reduce	-6724
habitude	-6725
▁célèbre	-6726
▁logique	-6727
ouverture	-6728
▁diversité	-6729
▁application	-6730
▁responsibility	-6731
vey	-6732
oman	-6733
orce	-6734
▁dég	-6735
▁fus	-6736
▁las	-6737
▁gérer	-6738
▁phase	-6739
▁Pensez	-6740
▁climat	-6741
▁cérébr	-6742
▁expand	-6743
▁volume	-6744
▁chambre	-6745
▁complet	-6746
▁devices	-6747
▁bringing	-6748
▁molécules	-6749
▁définition	-6750
▁connaissons	-6751
▁populations	-6752
Le	-6753
▁gre	-6754
▁pir	-6755
▁armes	-6756
égalité	-6757
▁domest	-6758
ographic	-6759
▁principal	-6760
▁conference	-6761
abb	-6762
abol	-6763
yers	-6764
▁clé	-6765
impact	-6766
▁ajout	-6767
▁twice	-6768
▁easily	-6769
▁highly	-6770
▁evolved	-6771
▁fiction	-6772
▁régions	-6773
▁identity	-6774
▁émotions	-6775
▁exception	-6776
▁published	-6777
▁differently	-6778
van	-6779
▁gagné	-6780
▁utile	-6781
▁bought	-6782
▁summer	-6783
▁méthode	-6784
▁appareil	-6785
▁préoccup	-6786
entreprise	-6787
▁hi	-6788
▁rit	-6789
▁tum	-6790
▁Comp	-6791
▁Stan	-6792
▁café	-6793
▁neut	-6794
arrive	-6795
▁Paris	-6796
▁lever	-6797
▁échou	-6798
▁envers	-6799
▁window	-6800
▁pensait	-6801
▁matériel	-6802
▁surveillance	-6803
▁tub	-6804
isted	-6805
▁Adam	-6806
▁chaîne	-6807
▁spaces	-6808
▁naturelle	-6809
▁regardons	-6810
As	-6811
hone	-6812
uild	-6813
▁600	-6814
▁Gal	-6815
▁pig	-6816
▁jard	-6817
▁sons	-6818
antill	-6819
ertain	-6820
▁absor	-6821
▁artif	-6822
▁shift	-6823
arrêter	-6824
▁membre	-6825
▁rythme	-6826
▁récent	-6827
▁creates	-6828
▁quelles	-6829
rig	-6830
▁Du	-6831
▁sin	-6832
aling	-6833
icale	-6834
itant	-6835
lobal	-6836
▁Prem	-6837
ilibre	-6838
▁afraid	-6839
▁excell	-6840
▁oxygen	-6841
▁artific	-6842
▁devenus	-6843
▁knowing	-6844
▁missing	-6845
--	-6846
▁PI	-6847
ened	-6848
teau	-6849
▁Red	-6850
rench	-6851
▁côte	-6852
▁loca	-6853
▁posé	-6854
▁quas	-6855
▁wood	-6856
▁1,000	-6857
▁basis	-6858
▁rêves	-6859
érences	-6860
▁candid	-6861
▁porter	-6862
▁shares	-6863
▁éviter	-6864
▁graphique	-6865
equ	-6866
irt	-6867
vis	-6868
load	-6869
▁ath	-6870
iving	-6871
▁diam	-6872
▁diap	-6873
▁roll	-6874
▁pharm	-6875
▁verre	-6876
▁Thanks	-6877
▁explos	-6878
▁Nigeria	-6879
▁ancient	-6880
▁connais	-6881
▁communiquer	-6882
▁differences	-6883
▁fascinating	-6884
▁fonctionnent	-6885
▁possibilités	-6886
▁ul	-6887
agon	-6888
alys	-6889
ests	-6890
ennes	-6891
▁gold	-6892
▁pont	-6893
▁birds	-6894
▁répar	-6895
▁décrit	-6896
▁victim	-6897
cription	-6898
▁déchets	-6899
▁fournir	-6900
▁preuves	-6901
▁écouter	-6902
▁occasion	-6903
▁connaître	-6904
▁invention	-6905
▁télévision	-6906
right	-6907
ville	-6908
▁forg	-6909
▁pêche	-6910
▁colère	-6911
▁physic	-6912
▁poursu	-6913
▁target	-6914
▁hearing	-6915
▁replace	-6916
▁antibiot	-6917
▁appelons	-6918
▁concepts	-6919
▁diversity	-6920
utilisation	-6921
ppe	-6922
▁GPS	-6923
▁dad	-6924
lever	-6925
▁suic	-6926
▁indic	-6927
▁initi	-6928
▁maths	-6929
▁amener	-6930
▁corner	-6931
▁dreams	-6932
▁désert	-6933
▁gather	-6934
intéress	-6935
▁toucher	-6936
▁réchauff	-6937
▁studying	-6938
▁mauvaises	-6939
▁Californie	-6940
▁statistiques	-6941
▁ast	-6942
cence	-6943
istry	-6944
▁bibl	-6945
▁flag	-6946
▁brand	-6947
▁chien	-6948
▁gross	-6949
▁react	-6950
▁river	-6951
▁rough	-6952
▁Encore	-6953
▁chauss	-6954
▁ralent	-6955
▁seemed	-6956
imaginer	-6957
▁détermin	-6958
▁manières	-6959
▁cognitive	-6960
obile	-6961
▁Port	-6962
▁Take	-6963
▁reli	-6964
▁avoid	-6965
▁shoot	-6966
▁écriv	-6967
▁équip	-6968
▁refuge	-6969
▁adultes	-6970
▁surgery	-6971
▁conduire	-6972
▁villages	-6973
▁commençons	-6974
gal	-6975
rét	-6976
▁Mad	-6977
▁Again	-6978
▁Peter	-6979
▁cloud	-6980
▁maxim	-6981
▁ancest	-6982
▁flight	-6983
▁muscle	-6984
▁passed	-6985
▁switch	-6986
▁vieill	-6987
▁voient	-6988
▁médical	-6989
▁apporter	-6990
▁produced	-6991
▁décennies	-6992
▁enseignants	-6993
▁organisations	-6994
ila	-6995
assé	-6996
osys	-6997
▁Over	-6998
▁lack	-6999
▁wire	-7000
ientôt	-7001
▁aveug	-7002
▁lance	-7003
▁magas	-7004
▁piano	-7005
▁stren	-7006
▁garçons	-7007
▁immense	-7008
dimension	-7009
▁molecules	-7010
▁rencontre	-7011
▁Américains	-7012
▁complexity	-7013
▁Vi	-7014
▁Mac	-7015
▁cab	-7016
▁emm	-7017
▁urg	-7018
areil	-7019
▁cous	-7020
▁assum	-7021
▁danse	-7022
▁ferme	-7023
▁fully	-7024
▁tiers	-7025
ologist	-7026
▁10,000	-7027
▁appear	-7028
▁argent	-7029
▁auquel	-7030
▁réflex	-7031
▁industrial	-7032
▁travaillons	-7033
8.	-7034
gth	-7035
▁Sy	-7036
hent	-7037
▁hole	-7038
▁none	-7039
▁ours	-7040
▁prep	-7041
▁tick	-7042
atoire	-7043
▁allés	-7044
▁myster	-7045
▁focused	-7046
▁forever	-7047
▁expériment	-7048
▁formidable	-7049
▁fantastique	-7050
▁consciousness	-7051
▁om	-7052
çant	-7053
▁gig	-7054
▁jug	-7055
celer	-7056
rient	-7057
uropé	-7058
▁More	-7059
▁wide	-7060
ieuses	-7061
▁cadre	-7062
▁labor	-7063
▁récol	-7064
▁Brésil	-7065
▁eating	-7066
▁gotten	-7067
▁chacune	-7068
▁concert	-7069
▁dessous	-7070
▁campaign	-7071
▁existent	-7072
▁strength	-7073
Université	-7074
▁chimiques	-7075
ogen	-7076
oile	-7077
olds	-7078
▁tém	-7079
aphor	-7080
itifs	-7081
▁Pres	-7082
▁hier	-7083
▁weird	-7084
▁accomp	-7085
▁croyez	-7086
▁genome	-7087
▁option	-7088
▁stimul	-7089
▁diction	-7090
▁sélection	-7091
informations	-7092
▁Ec	-7093
▁ja	-7094
atri	-7095
iche	-7096
itan	-7097
know	-7098
roso	-7099
▁Bas	-7100
▁repe	-7101
▁scol	-7102
▁susp	-7103
▁Japon	-7104
▁Votre	-7105
▁accél	-7106
▁bruit	-7107
▁chair	-7108
▁giant	-7109
▁écout	-7110
anthrop	-7111
jection	-7112
utilise	-7113
▁Nations	-7114
▁Parfois	-7115
▁consist	-7116
▁parcour	-7117
▁puisque	-7118
▁dangereux	-7119
intelligence	-7120
gry	-7121
ini	-7122
zen	-7123
play	-7124
▁Sun	-7125
based	-7126
osyst	-7127
▁bale	-7128
▁zéro	-7129
▁Avant	-7130
▁Wikip	-7131
▁party	-7132
▁hidden	-7133
▁jambes	-7134
▁lights	-7135
▁évolué	-7136
éremment	-7137
▁déplace	-7138
▁déplacer	-7139
▁partners	-7140
▁spending	-7141
▁capacités	-7142
RI	-7143
uy	-7144
IDS	-7145
▁Mr	-7146
▁PM	-7147
▁tim	-7148
agnes	-7149
▁tele	-7150
▁trau	-7151
ibilité	-7152
▁proven	-7153
▁passage	-7154
▁proches	-7155
▁sharing	-7156
▁virtual	-7157
▁augmente	-7158
▁auraient	-7159
▁prototype	-7160
chec	-7161
effet	-7162
rical	-7163
▁teen	-7164
▁avion	-7165
▁epide	-7166
▁expos	-7167
▁Martin	-7168
▁coffee	-7169
▁museum	-7170
▁apprend	-7171
▁espaces	-7172
▁failure	-7173
▁astronom	-7174
▁mountain	-7175
▁retourner	-7176
▁remarquable	-7177
sp	-7178
rak	-7179
reci	-7180
▁den	-7181
▁lun	-7182
cious	-7183
emplo	-7184
▁spot	-7185
▁airpl	-7186
▁aspir	-7187
▁grave	-7188
▁easier	-7189
▁ecosys	-7190
▁empath	-7191
▁génome	-7192
▁diagram	-7193
▁matters	-7194
▁commerce	-7195
▁créatures	-7196
▁interface	-7197
▁principes	-7198
▁opportunities	-7199
idi	-7200
oot	-7201
udd	-7202
anci	-7203
bing	-7204
unte	-7205
aches	-7206
encer	-7207
▁core	-7208
▁mons	-7209
itives	-7210
▁Russi	-7211
▁noirs	-7212
▁brings	-7213
▁vulner	-7214
mosphère	-7215
▁turning	-7216
▁opposite	-7217
▁creatures	-7218
▁sensation	-7219
▁américains	-7220
▁investment	-7221
▁microscope	-7222
▁possibility	-7223
za	-7224
nam	-7225
▁II	-7226
▁py	-7227
rées	-7228
▁del	-7229
▁sca	-7230
asses	-7231
▁flux	-7232
▁raised	-7233
▁studio	-7234
▁therap	-7235
▁décider	-7236
▁passant	-7237
▁recover	-7238
▁abeilles	-7239
▁différemment	-7240
atte	-7241
riez	-7242
▁Sam	-7243
▁ske	-7244
▁spl	-7245
alley	-7246
athan	-7247
▁boat	-7248
▁crack	-7249
▁horiz	-7250
▁smell	-7251
▁despite	-7252
▁explorer	-7253
▁sociales	-7254
atiquement	-7255
▁compliqué	-7256
uins	-7257
érap	-7258
▁Aud	-7259
▁atta	-7260
▁avis	-7261
▁conç	-7262
icules	-7263
tembre	-7264
ography	-7265
stitute	-7266
▁inconn	-7267
▁vaisse	-7268
▁classes	-7269
▁farmers	-7270
▁benefits	-7271
▁objectif	-7272
▁étudiant	-7273
▁produisent	-7274
▁tremendous	-7275
▁incroyables	-7276
▁parfaitement	-7277
bel	-7278
▁Ke	-7279
▁250	-7280
▁via	-7281
agric	-7282
▁Jack	-7283
iennes	-7284
▁Egypt	-7285
▁helps	-7286
▁remet	-7287
▁tough	-7288
▁étiez	-7289
▁Middle	-7290
▁master	-7291
▁venait	-7292
▁British	-7293
▁conflit	-7294
issements	-7295
▁articles	-7296
▁demandez	-7297
▁classique	-7298
▁photograp	-7299
▁téléphones	-7300
▁ultimately	-7301
▁informatique	-7302
tarct	-7303
▁bond	-7304
▁brut	-7305
▁diab	-7306
▁déte	-7307
▁fier	-7308
▁held	-7309
▁perp	-7310
ifying	-7311
▁envie	-7312
▁persu	-7313
artment	-7314
▁Center	-7315
▁minist	-7316
▁niveaux	-7317
▁domaines	-7318
▁concernant	-7319
▁organismes	-7320
▁connaissent	-7321
20	-7322
30	-7323
uté	-7324
▁Sil	-7325
▁lie	-7326
esses	-7327
▁fash	-7328
▁forc	-7329
▁cents	-7330
▁faces	-7331
▁fallu	-7332
▁lucky	-7333
▁pleas	-7334
▁proud	-7335
▁règle	-7336
▁venue	-7337
▁Muslim	-7338
▁tempor	-7339
▁musical	-7340
▁paradig	-7341
▁soutien	-7342
▁landscape	-7343
▁religious	-7344
▁phenomenon	-7345
▁supplément	-7346
▁ressemblent	-7347
%.	-7348
▁bla	-7349
erves	-7350
▁faud	-7351
▁seed	-7352
▁cheap	-7353
▁tradu	-7354
hôpital	-7355
▁partis	-7356
▁stream	-7357
▁tissue	-7358
▁insight	-7359
▁mariage	-7360
▁actuelle	-7361
▁montagne	-7362
▁platform	-7363
▁ressentir	-7364
▁definition	-7365
▁suffisamment	-7366
ih	-7367
nér	-7368
▁Med	-7369
angle	-7370
chent	-7371
ctive	-7372
▁club	-7373
▁purs	-7374
▁lutte	-7375
▁solid	-7376
▁vrais	-7377
ometers	-7378
▁aiment	-7379
▁curios	-7380
▁diplom	-7381
▁intuit	-7382
▁tester	-7383
▁yellow	-7384
▁artists	-7385
▁capture	-7386
▁devriez	-7387
▁impliqu	-7388
▁oiseaux	-7389
▁Actually	-7390
▁billions	-7391
▁describe	-7392
▁exponent	-7393
▁feedback	-7394
▁pourcent	-7395
atmosphère	-7396
▁dimension	-7397
meu	-7398
▁ta	-7399
▁unp	-7400
apped	-7401
ounts	-7402
▁cook	-7403
▁dérou	-7404
▁offer	-7405
▁perte	-7406
utation	-7407
▁Valley	-7408
▁advant	-7409
▁gender	-7410
▁employe	-7411
▁emotions	-7412
▁entirely	-7413
▁survivre	-7414
▁davantage	-7415
▁similaire	-7416
▁motivation	-7417
▁connections	-7418
arc	-7419
▁27	-7420
aret	-7421
oxyg	-7422
▁lyc	-7423
▁Ghan	-7424
▁pile	-7425
▁chale	-7426
▁click	-7427
▁stade	-7428
▁intense	-7429
▁muscles	-7430
▁portrait	-7431
▁victimes	-7432
▁efficient	-7433
▁stratégie	-7434
▁considérer	-7435
▁alimentaire	-7436
▁importantly	-7437
▁CE	-7438
mark	-7439
▁Jon	-7440
armée	-7441
▁brev	-7442
▁bull	-7443
▁horm	-7444
▁subs	-7445
▁froid	-7446
▁rural	-7447
ictions	-7448
▁attemp	-7449
▁forêts	-7450
▁counter	-7451
▁malaria	-7452
mentation	-7453
▁prochain	-7454
▁comportements	-7455
La	-7456
▁Ro	-7457
extr	-7458
âtre	-7459
acted	-7460
▁tels	-7461
▁bound	-7462
▁titre	-7463
ulaires	-7464
▁obtenu	-7465
▁pauvre	-7466
▁phones	-7467
▁However	-7468
▁reflect	-7469
▁attendre	-7470
▁instinct	-7471
▁negative	-7472
▁convaincre	-7473
▁reconnaître	-7474
oirs	-7475
rupt	-7476
wide	-7477
▁fal	-7478
▁saf	-7479
▁écr	-7480
itely	-7481
▁Jeff	-7482
▁Once	-7483
▁hell	-7484
▁vaut	-7485
ansion	-7486
▁accur	-7487
▁dirig	-7488
▁drôle	-7489
▁liens	-7490
▁marri	-7491
▁stuck	-7492
▁deeply	-7493
▁dirais	-7494
▁dirait	-7495
▁rappro	-7496
▁tonnes	-7497
▁Royaume	-7498
▁fashion	-7499
▁leading	-7500
▁lettres	-7501
▁rentrer	-7502
▁European	-7503
▁rappeler	-7504
▁sequence	-7505
alie	-7506
ouill	-7507
▁Asia	-7508
▁bees	-7509
▁cred	-7510
▁stem	-7511
▁tombe	-7512
oxygène	-7513
▁fusion	-7514
▁grosse	-7515
▁opened	-7516
▁presse	-7517
estation	-7518
▁circuit	-7519
▁husband	-7520
▁require	-7521
▁retrouver	-7522
▁suffering	-7523
▁accessible	-7524
itz	-7525
This	-7526
burg	-7527
ionn	-7528
ring	-7529
ômes	-7530
▁Haw	-7531
▁hur	-7532
▁tag	-7533
accès	-7534
orate	-7535
▁soup	-7536
istant	-7537
oureux	-7538
▁motor	-7539
▁multi	-7540
▁analog	-7541
▁breast	-7542
▁disord	-7543
▁lesson	-7544
▁William	-7545
▁brother	-7546
▁enthous	-7547
▁obtenez	-7548
▁retrait	-7549
▁traject	-7550
▁artistes	-7551
▁correcte	-7552
▁planning	-7553
▁voulions	-7554
▁échantill	-7555
▁responsable	-7556
gt	-7557
lied	-7558
raft	-7559
▁Tex	-7560
estin	-7561
▁biod	-7562
▁lamp	-7563
avions	-7564
rosoft	-7565
▁Obama	-7566
▁boute	-7567
▁faute	-7568
▁School	-7569
▁iPhone	-7570
▁remote	-7571
opportun	-7572
▁lecture	-7573
▁parlait	-7574
▁rivière	-7575
▁succeed	-7576
▁everyday	-7577
▁Sometimes	-7578
▁documents	-7579
▁émissions	-7580
▁biologique	-7581
▁participer	-7582
▁connaissances	-7583
uh	-7584
can	-7585
olé	-7586
avec	-7587
▁Rep	-7588
▁shr	-7589
▁Mond	-7590
▁auto	-7591
▁bone	-7592
▁Amazon	-7593
▁desert	-7594
▁events	-7595
▁vulnér	-7596
▁moindre	-7597
▁shouldn	-7598
▁fighting	-7599
▁morceaux	-7600
▁déterminer	-7601
▁principalement	-7602
cie	-7603
imb	-7604
▁pa	-7605
éder	-7606
▁avanc	-7607
▁fasse	-7608
▁heads	-7609
▁walls	-7610
▁fairly	-7611
▁menace	-7612
▁publié	-7613
▁mettent	-7614
▁possède	-7615
▁sommeil	-7616
▁conflits	-7617
▁consiste	-7618
▁professeurs	-7619
▁interactions	-7620
ius	-7621
rel	-7622
▁See	-7623
phant	-7624
▁dign	-7625
▁dorm	-7626
▁murs	-7627
change	-7628
▁attir	-7629
▁fémin	-7630
▁honte	-7631
▁hyper	-7632
▁quels	-7633
▁Atlant	-7634
▁attrib	-7635
▁cooper	-7636
▁courbe	-7637
▁failed	-7638
▁sector	-7639
▁unlike	-7640
▁bientôt	-7641
▁propose	-7642
▁elements	-7643
▁richesse	-7644
▁childhood	-7645
▁particles	-7646
▁background	-7647
▁university	-7648
▁responsible	-7649
mm	-7650
gar	-7651
hand	-7652
▁Lad	-7653
▁Tor	-7654
atter	-7655
bling	-7656
▁Mary	-7657
▁dict	-7658
▁fert	-7659
▁fresh	-7660
▁French	-7661
▁couche	-7662
▁oceans	-7663
▁telles	-7664
▁décrire	-7665
▁options	-7666
▁vouloir	-7667
▁compared	-7668
▁employés	-7669
▁insectes	-7670
▁semblent	-7671
▁Microsoft	-7672
▁necessarily	-7673
▁conservation	-7674
4.	-7675
AR	-7676
onné	-7677
▁tal	-7678
ierie	-7679
rogen	-7680
▁bird	-7681
▁sacr	-7682
ellent	-7683
▁aient	-7684
▁coast	-7685
▁héros	-7686
▁magie	-7687
▁plaît	-7688
▁réfug	-7689
▁chocol	-7690
▁réelle	-7691
ollywood	-7692
▁appreci	-7693
▁figured	-7694
▁honnête	-7695
▁studied	-7696
▁chimpanz	-7697
▁strategy	-7698
▁brilliant	-7699
▁discovery	-7700
▁necessary	-7701
▁puissante	-7702
gent	-7703
copes	-7704
inent	-7705
print	-7706
▁subt	-7707
▁appré	-7708
▁lycée	-7709
▁refer	-7710
▁belong	-7711
▁interd	-7712
▁mettez	-7713
▁pounds	-7714
▁tourne	-7715
▁acceler	-7716
▁holding	-7717
▁previous	-7718
▁president	-7719
lée	-7720
▁câ	-7721
▁Dem	-7722
▁Som	-7723
atory	-7724
rition	-7725
▁frère	-7726
▁sorry	-7727
▁therm	-7728
▁émerg	-7729
ccident	-7730
▁attent	-7731
▁benefit	-7732
▁nourrir	-7733
▁appareils	-7734
▁connexion	-7735
▁économiques	-7736
▁Che	-7737
▁Sim	-7738
▁egg	-7739
cents	-7740
phins	-7741
▁rire	-7742
▁soin	-7743
inspir	-7744
▁bread	-7745
▁leads	-7746
▁arrêté	-7747
▁bridge	-7748
▁pollen	-7749
▁respir	-7750
ormément	-7751
▁meurent	-7752
▁competition	-7753
▁précisément	-7754
▁implications	-7755
▁représentent	-7756
3.	-7757
tel	-7758
ario	-7759
iaux	-7760
andis	-7761
étend	-7762
▁agir	-7763
▁valu	-7764
active	-7765
idémie	-7766
▁douce	-7767
▁exhib	-7768
▁wheel	-7769
▁Mexico	-7770
▁métaph	-7771
▁arrivés	-7772
▁foreign	-7773
▁revient	-7774
▁volonté	-7775
▁contient	-7776
▁recevoir	-7777
ani	-7778
ked	-7779
icit	-7780
iqué	-7781
qués	-7782
vere	-7783
▁Did	-7784
▁gun	-7785
▁wis	-7786
exemp	-7787
▁faim	-7788
▁moth	-7789
▁Trois	-7790
▁amené	-7791
▁anony	-7792
▁equal	-7793
▁leçon	-7794
▁paras	-7795
▁polio	-7796
▁battre	-7797
▁déplac	-7798
▁vaccin	-7799
▁extrait	-7800
▁trouvez	-7801
▁Pourtant	-7802
▁utilisés	-7803
▁efficaces	-7804
▁organisms	-7805
▁agriculture	-7806
▁î	-7807
port	-7808
▁jur	-7809
▁scr	-7810
▁bits	-7811
▁ship	-7812
▁crash	-7813
▁mener	-7814
▁newsp	-7815
▁plane	-7816
▁adults	-7817
▁jardin	-7818
▁letter	-7819
▁sortie	-7820
▁suffit	-7821
▁venant	-7822
▁sculpture	-7823
▁businesses	-7824
▁fabrication	-7825
▁independent	-7826
▁36	-7827
▁Gl	-7828
Vous	-7829
▁eau	-7830
▁org	-7831
attan	-7832
known	-7833
▁Cont	-7834
▁tume	-7835
ologue	-7836
▁Congo	-7837
▁accum	-7838
▁catég	-7839
▁globe	-7840
▁inequ	-7841
▁mille	-7842
▁Public	-7843
▁Quelqu	-7844
▁conduc	-7845
▁conver	-7846
▁créent	-7847
▁ferait	-7848
▁locaux	-7849
▁sombre	-7850
▁quitter	-7851
▁dynamique	-7852
▁engineers	-7853
agriculture	-7854
▁proportion	-7855
▁découvertes	-7856
▁consequences	-7857
add	-7858
ned	-7859
oncé	-7860
rich	-7861
éles	-7862
▁bin	-7863
effic	-7864
inson	-7865
▁célé	-7866
▁edge	-7867
▁rang	-7868
▁Child	-7869
▁accro	-7870
▁argue	-7871
▁mouse	-7872
▁paint	-7873
▁quote	-7874
▁remer	-7875
▁tissu	-7876
▁chauff	-7877
▁territ	-7878
▁devrais	-7879
▁leaving	-7880
▁managed	-7881
▁réussir	-7882
▁secrets	-7883
▁allaient	-7884
▁frontières	-7885
enseignement	-7886
▁mathematics	-7887
▁personnelle	-7888
ni	-7889
xi	-7890
Don	-7891
aily	-7892
glet	-7893
word	-7894
édie	-7895
▁Sal	-7896
▁Ser	-7897
▁row	-7898
▁coal	-7899
▁perm	-7900
aurait	-7901
existe	-7902
▁adopt	-7903
▁names	-7904
ocratic	-7905
▁bright	-7906
▁colors	-7907
▁autonom	-7908
▁chaleur	-7909
▁opinion	-7910
▁rendent	-7911
▁watched	-7912
▁weapons	-7913
▁administ	-7914
▁investig	-7915
▁multiple	-7916
▁comprennent	-7917
▁intelligents	-7918
If	-7919
uts	-7920
▁2.	-7921
▁cu	-7922
iggs	-7923
▁Air	-7924
▁Art	-7925
▁Moy	-7926
▁ride	-7927
▁zoom	-7928
▁camer	-7929
▁chaos	-7930
▁chick	-7931
▁grown	-7932
▁liber	-7933
▁musée	-7934
▁mères	-7935
▁provo	-7936
▁relev	-7937
ilities	-7938
▁effray	-7939
▁versus	-7940
▁intérêt	-7941
▁limited	-7942
▁changent	-7943
▁creation	-7944
▁populaire	-7945
dimensional	-7946
organisation	-7947
▁professional	-7948
zy	-7949
ida	-7950
quis	-7951
wich	-7952
▁dat	-7953
▁twe	-7954
▁van	-7955
appar	-7956
ising	-7957
▁chan	-7958
▁chron	-7959
▁frais	-7960
▁pyram	-7961
▁sable	-7962
▁caught	-7963
▁chasse	-7964
▁degree	-7965
▁destin	-7966
▁erreur	-7967
▁interp	-7968
▁lettre	-7969
▁parking	-7970
▁related	-7971
▁contract	-7972
▁majority	-7973
▁intention	-7974
▁mortalité	-7975
▁traverser	-7976
▁management	-7977
▁ressembler	-7978
Qu	-7979
Est	-7980
azz	-7981
orp	-7982
ums	-7983
▁Lab	-7984
▁Sel	-7985
▁dél	-7986
▁cave	-7987
▁fold	-7988
▁gras	-7989
ancing	-7990
hattan	-7991
▁queue	-7992
▁Grande	-7993
▁Nature	-7994
▁bouche	-7995
▁régime	-7996
gleterre	-7997
▁traffic	-7998
▁trained	-7999
▁volunte	-8000
▁Stanford	-8001
▁portables	-8002
▁principles	-8003
PA	-8004
IDA	-8005
lymp	-8006
oubl	-8007
▁Jan	-8008
ength	-8009
ismes	-8010
▁earn	-8011
▁noms	-8012
▁homes	-8013
▁pilot	-8014
▁acheté	-8015
▁limite	-8016
▁orient	-8017
▁regret	-8018
▁sister	-8019
▁empower	-8020
▁insects	-8021
▁paysage	-8022
▁typical	-8023
▁wearing	-8024
▁finished	-8025
▁followed	-8026
▁Manhattan	-8027
▁concerned	-8028
▁entrepreneur	-8029
▁merveilleuse	-8030
▁travailleurs	-8031
tt	-8032
oux	-8033
enty	-8034
aitre	-8035
obser	-8036
▁Flor	-8037
▁arms	-8038
▁degr	-8039
▁moon	-8040
▁rece	-8041
▁scen	-8042
arrass	-8043
▁Higgs	-8044
▁Smith	-8045
▁mosqu	-8046
▁novel	-8047
▁sages	-8048
▁boulot	-8049
▁pointe	-8050
▁quitté	-8051
▁appeler	-8052
▁interpr	-8053
▁simplic	-8054
▁believed	-8055
▁apprennent	-8056
▁conférences	-8057
▁disponibles	-8058
▁générations	-8059
▁innovations	-8060
rol	-8061
uin	-8062
▁bear	-8063
▁labo	-8064
▁tons	-8065
itness	-8066
urally	-8067
▁Texas	-8068
▁ambit	-8069
▁cheve	-8070
▁lunch	-8071
▁resol	-8072
▁closed	-8073
▁debout	-8074
▁disais	-8075
▁doigts	-8076
▁saving	-8077
▁chiffre	-8078
▁highest	-8079
▁soldats	-8080
▁biblioth	-8081
▁kilometers	-8082
▁énormément	-8083
▁travaillant	-8084
▁généralement	-8085
▁unfortunately	-8086
7.	-8087
DP	-8088
cend	-8089
well	-8090
▁Bob	-8091
▁Tim	-8092
amine	-8093
apter	-8094
autor	-8095
▁Have	-8096
▁Very	-8097
▁ador	-8098
▁tire	-8099
▁vête	-8100
▁noise	-8101
arriver	-8102
ologues	-8103
▁imprim	-8104
▁manage	-8105
▁proper	-8106
▁romant	-8107
▁signaux	-8108
▁metaphor	-8109
▁separate	-8110
▁cardiaque	-8111
▁described	-8112
Uni	-8113
cast	-8114
rest	-8115
roir	-8116
▁Bush	-8117
▁Rien	-8118
▁hate	-8119
▁Carol	-8120
▁Ghana	-8121
▁exposé	-8122
▁element	-8123
▁facteurs	-8124
▁présence	-8125
▁augmenter	-8126
▁participants	-8127
ateg	-8128
▁10,	-8129
▁Joe	-8130
▁Pol	-8131
▁bri	-8132
▁dot	-8133
▁bask	-8134
▁gain	-8135
▁sert	-8136
▁wear	-8137
▁boule	-8138
▁dense	-8139
▁faith	-8140
▁moves	-8141
▁steps	-8142
▁appart	-8143
▁client	-8144
▁island	-8145
▁reform	-8146
▁terres	-8147
▁affaire	-8148
▁convert	-8149
▁fenêtre	-8150
▁fourmis	-8151
▁married	-8152
▁received	-8153
▁otherwise	-8154
▁constantly	-8155
▁dirigeants	-8156
▁constamment	-8157
cond	-8158
érir	-8159
▁Auc	-8160
▁sep	-8161
attle	-8162
prits	-8163
▁TEDx	-8164
▁dent	-8165
▁ethn	-8166
▁lock	-8167
▁abstr	-8168
▁aviez	-8169
▁refus	-8170
▁regul	-8171
▁Island	-8172
▁begins	-8173
▁detail	-8174
▁handic	-8175
▁interf	-8176
▁invite	-8177
▁jouent	-8178
▁slowly	-8179
érations	-8180
▁parlant	-8181
▁precise	-8182
▁scanner	-8183
▁sentence	-8184
▁Institute	-8185
9.	-8186
aped	-8187
▁ore	-8188
uries	-8189
uvres	-8190
intégr	-8191
▁Apple	-8192
▁Gates	-8193
▁Nobel	-8194
obtenir	-8195
▁survie	-8196
ologists	-8197
▁invited	-8198
▁strateg	-8199
▁continué	-8200
▁struggle	-8201
▁suggests	-8202
▁sûrement	-8203
▁utilisée	-8204
▁advantage	-8205
▁seriously	-8206
▁satellites	-8207
▁internationale	-8208
ta	-8209
oci	-8210
réd	-8211
tech	-8212
▁Del	-8213
▁dry	-8214
▁era	-8215
▁lis	-8216
alisé	-8217
athie	-8218
▁fass	-8219
▁maje	-8220
▁Moyen	-8221
▁carré	-8222
▁truck	-8223
ressive	-8224
▁Intern	-8225
▁Prenez	-8226
▁fellow	-8227
▁intens	-8228
▁morale	-8229
▁reward	-8230
▁wisdom	-8231
▁coordin	-8232
▁crucial	-8233
▁curious	-8234
▁transpl	-8235
itablement	-8236
▁classroom	-8237
▁objectifs	-8238
▁septembre	-8239
▁évolution	-8240
▁inspiration	-8241
▁participation	-8242
alg	-8243
hyd	-8244
céan	-8245
rome	-8246
▁Jim	-8247
erver	-8248
icted	-8249
owers	-8250
▁Each	-8251
ignons	-8252
oindre	-8253
ushing	-8254
▁puzzle	-8255
▁safety	-8256
▁stupid	-8257
▁thinks	-8258
▁erreurs	-8259
▁publics	-8260
▁devaient	-8261
▁soldiers	-8262
▁trouvons	-8263
▁directeur	-8264
▁perfectly	-8265
▁propriété	-8266
▁depression	-8267
▁directions	-8268
▁dépression	-8269
▁civilization	-8270
uk	-8271
med	-8272
atom	-8273
mère	-8274
èses	-8275
▁Rio	-8276
▁dér	-8277
craft	-8278
rices	-8279
▁Does	-8280
▁canc	-8281
▁fell	-8282
▁fera	-8283
▁king	-8284
▁puts	-8285
▁resc	-8286
▁seat	-8287
heimer	-8288
étaire	-8289
▁Toute	-8290
▁allée	-8291
▁venus	-8292
individ	-8293
▁circle	-8294
▁debate	-8295
▁routes	-8296
ièmement	-8297
▁assembl	-8298
▁disting	-8299
▁partner	-8300
▁theater	-8301
intéresse	-8302
▁Quelques	-8303
▁démonstr	-8304
▁identify	-8305
▁survival	-8306
mb	-8307
yt	-8308
èv	-8309
rob	-8310
ués	-8311
ôtre	-8312
▁cry	-8313
▁rév	-8314
isher	-8315
state	-8316
▁diox	-8317
▁soil	-8318
▁whom	-8319
▁brief	-8320
▁layer	-8321
▁mouth	-8322
▁régul	-8323
▁prises	-8324
esterday	-8325
▁ajouter	-8326
▁arrivée	-8327
▁langues	-8328
▁mélange	-8329
▁pouviez	-8330
▁Audience	-8331
▁launched	-8332
▁terminer	-8333
▁regardent	-8334
▁surprised	-8335
▁considered	-8336
▁disponible	-8337
▁statistics	-8338
▁nécessaires	-8339
.'	-8340
ali	-8341
▁Num	-8342
avion	-8343
chons	-8344
essel	-8345
▁juge	-8346
▁tens	-8347
▁arbre	-8348
▁immun	-8349
▁scene	-8350
▁toxic	-8351
▁venez	-8352
▁battle	-8353
▁grandm	-8354
▁ration	-8355
▁sports	-8356
▁Science	-8357
▁testing	-8358
▁matériau	-8359
expression	-8360
▁nationale	-8361
▁operating	-8362
▁protéines	-8363
▁principale	-8364
▁intervention	-8365
▁Malheureusement	-8366
▁Rw	-8367
ahar	-8368
mons	-8369
otic	-8370
▁adm	-8371
▁bee	-8372
icate	-8373
riers	-8374
aisons	-8375
encies	-8376
▁angle	-8377
▁durée	-8378
▁inner	-8379
▁prosp	-8380
▁tient	-8381
▁téles	-8382
▁breath	-8383
▁exists	-8384
▁paying	-8385
▁privil	-8386
▁authent	-8387
▁mothers	-8388
▁worried	-8389
▁marriage	-8390
▁normally	-8391
▁responsables	-8392
edy	-8393
▁Hy	-8394
.000	-8395
aked	-8396
apse	-8397
iler	-8398
▁wel	-8399
▁Coun	-8400
▁Gold	-8401
▁corr	-8402
▁feme	-8403
▁hasn	-8404
▁quad	-8405
ulsion	-8406
▁coral	-8407
▁honor	-8408
▁lifet	-8409
▁simul	-8410
▁surge	-8411
▁trous	-8412
▁desire	-8413
▁dinner	-8414
▁finger	-8415
▁forced	-8416
▁pourra	-8417
▁recycl	-8418
▁avancer	-8419
▁factory	-8420
▁violent	-8421
▁soutenir	-8422
ingénierie	-8423
▁Australia	-8424
▁mentioned	-8425
▁radiation	-8426
▁generations	-8427
▁opportunité	-8428
▁malheureusement	-8429
lie	-8430
écl	-8431
bler	-8432
cade	-8433
life	-8434
▁lux	-8435
▁mov	-8436
ouges	-8437
▁1000	-8438
▁Sans	-8439
▁exec	-8440
▁joué	-8441
uition	-8442
▁Celui	-8443
▁compt	-8444
▁daily	-8445
▁equip	-8446
▁folks	-8447
▁fruit	-8448
▁teles	-8449
atrième	-8450
▁harder	-8451
▁touche	-8452
▁protein	-8453
▁signals	-8454
ologiques	-8455
▁semblait	-8456
▁séquence	-8457
▁Certaines	-8458
▁currently	-8459
▁toilettes	-8460
ij	-8461
ira	-8462
▁32	-8463
▁gâ	-8464
▁éd	-8465
lais	-8466
▁Cop	-8467
▁fan	-8468
▁vag	-8469
aceut	-8470
objet	-8471
érité	-8472
▁coul	-8473
▁roof	-8474
▁wave	-8475
ignent	-8476
illage	-8477
phants	-8478
▁Inter	-8479
▁côtés	-8480
▁garde	-8481
▁laser	-8482
▁polar	-8483
▁score	-8484
▁shoes	-8485
▁smile	-8486
▁verte	-8487
▁belief	-8488
▁plante	-8489
▁prefer	-8490
▁toward	-8491
▁centres	-8492
▁quantum	-8493
▁sandwich	-8494
▁Wikipedia	-8495
▁arguments	-8496
▁possibles	-8497
▁healthcare	-8498
▁researchers	-8499
▁intéressantes	-8500
ua	-8501
ised	-8502
ivez	-8503
▁Lat	-8504
▁cod	-8505
▁fed	-8506
anges	-8507
armes	-8508
point	-8509
▁Eric	-8510
▁pand	-8511
▁renf	-8512
▁éduc	-8513
▁Would	-8514
▁amour	-8515
▁doigt	-8516
▁laugh	-8517
▁libér	-8518
▁users	-8519
zheimer	-8520
▁fields	-8521
▁marine	-8522
▁réduit	-8523
▁vessel	-8524
ications	-8525
ifically	-8526
ventions	-8527
▁cameras	-8528
▁nervous	-8529
▁analysis	-8530
▁indépend	-8531
▁resource	-8532
▁Everybody	-8533
▁physiques	-8534
na	-8535
Hey	-8536
iée	-8537
▁65	-8538
nait	-8539
▁Law	-8540
explo	-8541
▁asks	-8542
▁bour	-8543
▁drag	-8544
▁kick	-8545
▁Three	-8546
ériques	-8547
▁interc	-8548
▁malade	-8549
▁voices	-8550
▁amusant	-8551
▁drawing	-8552
▁lessons	-8553
▁section	-8554
stitution	-8555
▁engineer	-8556
▁référence	-8557
▁électriques	-8558
até	-8559
▁DH	-8560
eral	-8561
▁GDP	-8562
▁tué	-8563
arrêt	-8564
icing	-8565
▁atom	-8566
▁unex	-8567
source	-8568
érapie	-8569
▁Could	-8570
▁Juste	-8571
▁categ	-8572
▁frequ	-8573
assurer	-8574
▁agents	-8575
▁autism	-8576
▁degrés	-8577
▁finish	-8578
▁triste	-8579
▁comprom	-8580
▁keeping	-8581
▁activité	-8582
▁distinct	-8583
▁troubles	-8584
▁economics	-8585
▁associated	-8586
▁ingénieurs	-8587
▁légèrement	-8588
▁correctement	-8589
▁increasingly	-8590
lyn	-8591
▁26	-8592
▁ur	-8593
cket	-8594
ouer	-8595
seur	-8596
▁PIB	-8597
▁bid	-8598
▁gap	-8599
▁clip	-8600
▁lapt	-8601
enture	-8602
▁Enfin	-8603
▁dents	-8604
▁grass	-8605
arrière	-8606
intérêt	-8607
▁drogue	-8608
▁leaves	-8609
▁poésie	-8610
▁privée	-8611
▁Mexique	-8612
▁croient	-8613
▁générale	-8614
▁montagnes	-8615
▁organized	-8616
▁pensaient	-8617
▁comfortable	-8618
▁civilisation	-8619
▁x	-8620
lan	-8621
ota	-8622
rum	-8623
▁Ju	-8624
▁ah	-8625
rine	-8626
▁fib	-8627
▁ree	-8628
▁tue	-8629
xford	-8630
▁Russ	-8631
▁foie	-8632
▁joie	-8633
▁meat	-8634
érance	-8635
▁Ouais	-8636
▁chain	-8637
▁nommé	-8638
▁enable	-8639
▁essais	-8640
▁motion	-8641
▁England	-8642
▁contrad	-8643
▁réunion	-8644
▁baseball	-8645
▁clinique	-8646
▁lentement	-8647
▁philanthrop	-8648
Ch	-8649
cto	-8650
ested	-8651
▁AIDS	-8652
▁aidé	-8653
▁ants	-8654
▁basé	-8655
▁golf	-8656
▁Their	-8657
▁bande	-8658
▁coûts	-8659
▁dress	-8660
▁facts	-8661
▁musul	-8662
▁quiet	-8663
▁grippe	-8664
▁incent	-8665
▁picked	-8666
▁unless	-8667
▁défense	-8668
▁mensong	-8669
▁normale	-8670
▁vieille	-8671
▁warming	-8672
▁weather	-8673
▁auxquels	-8674
▁considère	-8675
▁equipment	-8676
▁intéressé	-8677
▁movements	-8678
▁simulation	-8679
agr	-8680
omo	-8681
ora	-8682
▁cow	-8683
▁dol	-8684
▁Kore	-8685
▁dure	-8686
▁hide	-8687
▁mené	-8688
▁vélo	-8689
rières	-8690
▁Scott	-8691
▁acade	-8692
▁soyez	-8693
▁vaste	-8694
▁aperçu	-8695
▁circum	-8696
▁demain	-8697
▁determ	-8698
▁filled	-8699
▁fossil	-8700
▁100,000	-8701
▁cheveux	-8702
▁confort	-8703
▁mentale	-8704
▁renouve	-8705
▁souches	-8706
▁emissions	-8707
▁processes	-8708
▁résolution	-8709
▁combinaison	-8710
80	-8711
BI	-8712
ups	-8713
auto	-8714
fish	-8715
izes	-8716
uner	-8717
▁tab	-8718
izoph	-8719
▁Ceux	-8720
▁SIDA	-8721
▁libr	-8722
▁lies	-8723
▁pair	-8724
▁tube	-8725
▁2,000	-8726
▁round	-8727
▁saved	-8728
▁stood	-8729
▁cercle	-8730
▁shapes	-8731
▁viande	-8732
▁videos	-8733
▁covered	-8734
▁details	-8735
▁mesures	-8736
▁pensées	-8737
▁setting	-8738
▁treated	-8739
améliorer	-8740
▁compliqu	-8741
▁concentr	-8742
▁expected	-8743
▁molecule	-8744
▁psychiat	-8745
▁demandent	-8746
▁hopefully	-8747
▁languages	-8748
▁universal	-8749
▁catastroph	-8750
▁personnage	-8751
▁productive	-8752
Et	-8753
fic	-8754
Pour	-8755
down	-8756
rete	-8757
▁Nat	-8758
▁Sir	-8759
▁Vir	-8760
▁aqu	-8761
▁nez	-8762
▁Leur	-8763
▁Sing	-8764
▁cock	-8765
▁weak	-8766
naires	-8767
▁coinc	-8768
▁pluie	-8769
▁déclen	-8770
▁explor	-8771
▁ouvrir	-8772
▁anciens	-8773
▁arrived	-8774
▁calling	-8775
▁figures	-8776
▁clinical	-8777
▁essayant	-8778
ographique	-8779
▁connecter	-8780
▁largement	-8781
▁Everything	-8782
▁engagement	-8783
▁equivalent	-8784
▁inequality	-8785
▁transforme	-8786
▁consumption	-8787
▁traitements	-8788
▁fonctionnement	-8789
fit	-8790
▁95	-8791
ller	-8792
▁191	-8793
▁800	-8794
▁Mat	-8795
▁Peu	-8796
▁Sar	-8797
▁mér	-8798
▁rub	-8799
akers	-8800
etnam	-8801
trait	-8802
érêts	-8803
▁appl	-8804
▁coté	-8805
▁Black	-8806
▁baiss	-8807
▁humor	-8808
▁serez	-8809
itement	-8810
▁consac	-8811
▁depend	-8812
▁driver	-8813
▁losing	-8814
▁offrir	-8815
▁stupéf	-8816
▁Germany	-8817
▁dealing	-8818
▁devions	-8819
▁promise	-8820
▁préserv	-8821
▁théâtre	-8822
▁ordinary	-8823
▁réussite	-8824
▁essential	-8825
▁obstacles	-8826
▁technical	-8827
▁utilisées	-8828
▁éducation	-8829
▁controvers	-8830
set	-8831
sol	-8832
▁Ha	-8833
urez	-8834
▁700	-8835
▁luc	-8836
esome	-8837
raham	-8838
▁Bank	-8839
▁cure	-8840
▁diet	-8841
▁flat	-8842
▁wake	-8843
▁digit	-8844
▁nulle	-8845
▁poign	-8846
▁texte	-8847
▁états	-8848
▁movies	-8849
astiques	-8850
▁consult	-8851
▁release	-8852
▁réveill	-8853
▁travaux	-8854
▁dessiner	-8855
▁epidemic	-8856
▁molécule	-8857
▁reaction	-8858
▁maintenir	-8859
▁principle	-8860
▁chaussures	-8861
▁mathematical	-8862
ader	-8863
oule	-8864
▁Gab	-8865
arriv	-8866
merge	-8867
rence	-8868
throp	-8869
▁gène	-8870
▁prol	-8871
orient	-8872
▁ayons	-8873
▁crowd	-8874
▁plain	-8875
▁caused	-8876
▁nouvel	-8877
▁tâches	-8878
▁éloign	-8879
▁croyons	-8880
▁esprits	-8881
▁guerres	-8882
▁illness	-8883
▁orchest	-8884
▁bataille	-8885
▁dialogue	-8886
▁football	-8887
▁illusion	-8888
▁méthodes	-8889
▁schizoph	-8890
▁accidents	-8891
▁vêtements	-8892
▁compagnies	-8893
▁experienced	-8894
▁concentration	-8895
LA	-8896
NG	-8897
aks	-8898
ula	-8899
ueux	-8900
viol	-8901
uster	-8902
▁eaux	-8903
▁ennu	-8904
▁cloth	-8905
▁divid	-8906
▁guide	-8907
▁lourd	-8908
▁prove	-8909
▁repas	-8910
▁skill	-8911
▁south	-8912
▁avenir	-8913
▁centim	-8914
▁démocr	-8915
▁fourth	-8916
▁galaxy	-8917
▁artiste	-8918
▁combine	-8919
▁emplois	-8920
▁factors	-8921
▁gestion	-8922
▁habitat	-8923
▁letters	-8924
▁organic	-8925
▁ressort	-8926
▁airplane	-8927
▁détecter	-8928
▁identité	-8929
▁trillion	-8930
▁President	-8931
▁artificial	-8932
▁conséquent	-8933
▁similaires	-8934
ti	-8935
Les	-8936
umé	-8937
ival	-8938
umin	-8939
▁Gen	-8940
▁lié	-8941
idées	-8942
neath	-8943
étrie	-8944
▁déje	-8945
▁hang	-8946
vation	-8947
▁Women	-8948
▁chrom	-8949
▁indig	-8950
▁rates	-8951
▁risks	-8952
▁spoke	-8953
▁waves	-8954
▁Health	-8955
▁Rwanda	-8956
▁announ	-8957
▁infant	-8958
▁portée	-8959
▁charbon	-8960
▁commenç	-8961
▁sagesse	-8962
▁location	-8963
▁surfaces	-8964
▁autrement	-8965
▁designing	-8966
▁propriétés	-8967
Yes	-8968
▁Mah	-8969
▁adj	-8970
▁cul	-8971
▁dau	-8972
charg	-8973
▁doub	-8974
▁hadn	-8975
▁pron	-8976
▁shut	-8977
arrête	-8978
▁bases	-8979
▁banque	-8980
▁hospit	-8981
▁mammif	-8982
▁poetry	-8983
▁stable	-8984
écriture	-8985
▁nombres	-8986
▁selling	-8987
▁vehicle	-8988
nellement	-8989
▁décennie	-8990
▁quatrième	-8991
▁pharmaceut	-8992
▁rassembler	-8993
▁opportunités	-8994
▁démonstration	-8995
▁réchauffement	-8996
cr	-8997
emb	-8998
ifie	-8999
ompe	-9000
once	-9001
andel	-9002
▁Hans	-9003
▁Wall	-9004
▁user	-9005
▁amène	-9006
▁donnée	-9007
▁invers	-9008
▁singes	-9009
▁symmet	-9010
agissait	-9011
▁combust	-9012
▁dynamic	-9013
▁essayez	-9014
▁joueurs	-9015
▁obtient	-9016
▁opening	-9017
▁privile	-9018
▁feelings	-9019
▁thoughts	-9020
▁comprends	-9021
▁mécanique	-9022
▁réflexion	-9023
▁worldwide	-9024
▁enthousias	-9025
▁transmission	-9026
exc	-9027
ura	-9028
opia	-9029
osis	-9030
▁Env	-9031
▁Ver	-9032
power	-9033
ançais	-9034
hommes	-9035
otechn	-9036
▁State	-9037
▁Steph	-9038
▁escal	-9039
▁grain	-9040
▁minor	-9041
▁north	-9042
▁offre	-9043
▁signe	-9044
▁signs	-9045
▁viend	-9046
▁débarr	-9047
▁parole	-9048
▁souffr	-9049
▁conseil	-9050
▁players	-9051
▁variety	-9052
▁journaux	-9053
▁property	-9054
▁tomorrow	-9055
▁wondering	-9056
▁circulation	-9057
▁particulière	-9058
ctu	-9059
kin	-9060
rov	-9061
▁ci	-9062
gets	-9063
éter	-9064
▁agg	-9065
enser	-9066
▁Cour	-9067
▁nett	-9068
▁quit	-9069
▁unit	-9070
acters	-9071
effond	-9072
▁Brook	-9073
▁biens	-9074
▁bouge	-9075
▁trace	-9076
▁crimes	-9077
▁damage	-9078
▁essaie	-9079
▁establ	-9080
▁explan	-9081
▁houses	-9082
▁miroir	-9083
▁inhabit	-9084
▁paradox	-9085
▁regular	-9086
▁spatial	-9087
▁annivers	-9088
▁emerging	-9089
▁gratuite	-9090
▁released	-9091
▁contempor	-9092
▁convinced	-9093
▁fascinant	-9094
▁frontière	-9095
▁characters	-9096
▁properties	-9097
▁reconnaiss	-9098
▁ressemblait	-9099
6.	-9100
hal	-9101
iti	-9102
▁PD	-9103
▁Ty	-9104
aled	-9105
ôpit	-9106
▁esc	-9107
▁lay	-9108
onaut	-9109
▁Arch	-9110
▁Gree	-9111
▁ille	-9112
▁shif	-9113
▁snow	-9114
▁spin	-9115
▁synd	-9116
alisée	-9117
onents	-9118
▁fract	-9119
▁heavy	-9120
▁orbit	-9121
▁servi	-9122
▁vague	-9123
▁veget	-9124
ôpitaux	-9125
▁assign	-9126
▁frères	-9127
ainement	-9128
llemagne	-9129
▁killing	-9130
▁longues	-9131
▁souvenez	-9132
▁activités	-9133
▁cependant	-9134
▁métaphore	-9135
▁compétition	-9136
▁technologique	-9137
▁communications	-9138
gu	-9139
ams	-9140
ati	-9141
uba	-9142
That	-9143
▁Sep	-9144
▁ear	-9145
essed	-9146
forme	-9147
inqui	-9148
▁Chac	-9149
▁Gand	-9150
▁enem	-9151
▁mène	-9152
▁tail	-9153
▁toit	-9154
▁unus	-9155
rogène	-9156
▁holes	-9157
▁jaune	-9158
▁écran	-9159
▁champs	-9160
▁civile	-9161
▁deeper	-9162
▁Project	-9163
▁cutting	-9164
▁prisons	-9165
▁prédire	-9166
▁ramener	-9167
▁écosyst	-9168
▁Japanese	-9169
▁disaster	-9170
▁embarrass	-9171
▁electrical	-9172
▁specifically	-9173
▁extraordinaires	-9174
box	-9175
dent	-9176
enda	-9177
ming	-9178
otel	-9179
▁lad	-9180
▁pin	-9181
▁tow	-9182
isées	-9183
riend	-9184
▁hero	-9185
▁ling	-9186
▁maps	-9187
▁tact	-9188
entraî	-9189
omment	-9190
▁Bible	-9191
▁Jusqu	-9192
▁Super	-9193
▁cards	-9194
anglais	-9195
areness	-9196
fection	-9197
▁Andrew	-9198
▁Museum	-9199
▁courir	-9200
▁facing	-9201
▁leçons	-9202
▁member	-9203
▁remain	-9204
▁tissus	-9205
▁dessins	-9206
▁magasin	-9207
▁miracle	-9208
▁rapidly	-9209
▁requins	-9210
▁exchange	-9211
▁requires	-9212
▁carefully	-9213
▁professor	-9214
▁underneath	-9215
aste	-9216
ombe	-9217
▁foi	-9218
▁rav	-9219
ifiée	-9220
▁Dere	-9221
▁ends	-9222
▁ping	-9223
▁achet	-9224
▁croit	-9225
▁empty	-9226
▁illég	-9227
▁advert	-9228
▁allant	-9229
▁blancs	-9230
▁passés	-9231
▁retard	-9232
▁trials	-9233
▁éclair	-9234
▁Congrès	-9235
▁chromos	-9236
▁compter	-9237
▁conduis	-9238
▁disparu	-9239
▁paralys	-9240
▁advanced	-9241
▁ancêtres	-9242
▁lifetime	-9243
▁versions	-9244
▁according	-9245
▁opération	-9246
▁véhicules	-9247
▁yesterday	-9248
▁journaliste	-9249
▁fondamentale	-9250
hyp	-9251
olo	-9252
▁'9	-9253
▁Dé	-9254
▁rh	-9255
bola	-9256
irez	-9257
quée	-9258
▁Dis	-9259
▁USA	-9260
▁por	-9261
ailed	-9262
ellow	-9263
icier	-9264
ifiés	-9265
ouvre	-9266
▁Gore	-9267
▁Swed	-9268
▁blow	-9269
▁cath	-9270
▁refl	-9271
▁scén	-9272
essaie	-9273
écrire	-9274
▁broke	-9275
▁mobil	-9276
orthern	-9277
▁exclus	-9278
▁script	-9279
▁Antarct	-9280
▁faibles	-9281
▁globale	-9282
▁grandir	-9283
▁mettons	-9284
▁records	-9285
▁sending	-9286
▁suggère	-9287
▁talents	-9288
▁victims	-9289
existence	-9290
▁circuits	-9291
▁médicaux	-9292
▁parfaite	-9293
▁fonctions	-9294
▁puissions	-9295
▁represents	-9296
inv	-9297
▁dî	-9298
cons	-9299
rage	-9300
érée	-9301
▁Str	-9302
▁noy	-9303
iency	-9304
lease	-9305
▁cong	-9306
▁copy	-9307
▁flot	-9308
▁hurt	-9309
▁mout	-9310
▁visu	-9311
ailles	-9312
auteur	-9313
iables	-9314
▁chefs	-9315
▁délic	-9316
▁gagne	-9317
▁grimp	-9318
▁rejet	-9319
itarian	-9320
uration	-9321
▁Global	-9322
▁aurons	-9323
▁clever	-9324
▁review	-9325
▁connaît	-9326
▁display	-9327
▁forment	-9328
▁voisins	-9329
icalement	-9330
▁attitude	-9331
▁generate	-9332
▁vertical	-9333
▁diagnostic	-9334
▁passionate	-9335
▁transplant	-9336
agh	-9337
igr	-9338
ols	-9339
ria	-9340
anze	-9341
atts	-9342
mans	-9343
▁120	-9344
▁Bur	-9345
▁Ess	-9346
▁Kev	-9347
asing	-9348
▁Long	-9349
stream	-9350
études	-9351
▁2009,	-9352
▁Nouve	-9353
▁admit	-9354
▁envis	-9355
▁goals	-9356
▁immeu	-9357
▁pairs	-9358
▁vital	-9359
issante	-9360
istique	-9361
▁height	-9362
▁inters	-9363
▁neuron	-9364
▁passée	-9365
▁schéma	-9366
▁galaxie	-9367
▁hauteur	-9368
▁liquide	-9369
▁réparer	-9370
▁visages	-9371
▁exercise	-9372
▁lumières	-9373
▁panneaux	-9374
▁remarque	-9375
▁spectacle	-9376
opportunité	-9377
▁sentiments	-9378
▁possibilities	-9379
lla	-9380
▁LG	-9381
acing	-9382
oster	-9383
rooms	-9384
▁Narr	-9385
▁Rome	-9386
▁Star	-9387
▁evil	-9388
▁tape	-9389
alisés	-9390
iquent	-9391
object	-9392
▁awful	-9393
▁liked	-9394
▁monte	-9395
▁poème	-9396
▁prime	-9397
envoyer	-9398
essence	-9399
▁garant	-9400
▁improv	-9401
▁locale	-9402
▁pousse	-9403
▁étapes	-9404
▁Britain	-9405
▁hackers	-9406
▁prouver	-9407
▁handicap	-9408
▁individu	-9409
▁influenc	-9410
▁gentlemen	-9411
▁publicité	-9412
▁quasiment	-9413
▁standards	-9414
▁identifier	-9415
▁effectively	-9416
▁relativement	-9417
aft	-9418
ban	-9419
agée	-9420
iber	-9421
ingt	-9422
▁Ter	-9423
▁mel	-9424
▁Last	-9425
▁Perm	-9426
▁sees	-9427
ielles	-9428
▁2008,	-9429
▁cardi	-9430
▁claim	-9431
▁negot	-9432
▁pause	-9433
▁privé	-9434
▁aimons	-9435
▁avance	-9436
▁donnez	-9437
▁player	-9438
▁depends	-9439
▁designs	-9440
▁prisonn	-9441
▁hôpitaux	-9442
▁réfugiés	-9443
▁whenever	-9444
orestation	-9445
▁quartiers	-9446
▁chimpanzés	-9447
▁transformé	-9448
▁utilisateurs	-9449
run	-9450
uve	-9451
agés	-9452
gram	-9453
ifer	-9454
▁Yet	-9455
▁coh	-9456
lying	-9457
rions	-9458
▁dots	-9459
▁beaux	-9460
▁biais	-9461
▁chart	-9462
▁emmen	-9463
▁grade	-9464
imagine	-9465
isseurs	-9466
▁assist	-9467
▁auront	-9468
▁diapos	-9469
▁tenter	-9470
▁battery	-9471
▁forests	-9472
▁positif	-9473
▁required	-9474
▁stations	-9475
▁chemistry	-9476
▁cliniques	-9477
▁descendre	-9478
▁quantique	-9479
▁dinosaures	-9480
▁traditions	-9481
▁normalement	-9482
▁intellectual	-9483
rot	-9484
▁AB	-9485
bors	-9486
cont	-9487
hold	-9488
kins	-9489
sour	-9490
uste	-9491
èche	-9492
▁Acc	-9493
▁Ray	-9494
▁fla	-9495
▁pla	-9496
lines	-9497
oncer	-9498
▁grab	-9499
▁charm	-9500
▁créée	-9501
▁tiens	-9502
▁define	-9503
▁status	-9504
▁feuille	-9505
▁restent	-9506
▁suscept	-9507
▁traumat	-9508
expliquer	-9509
▁augmenté	-9510
▁remettre	-9511
▁habitants	-9512
▁mountains	-9513
▁relatively	-9514
▁exploration	-9515
mas	-9516
uée	-9517
▁Bi	-9518
ding	-9519
▁Tes	-9520
▁vin	-9521
activ	-9522
alles	-9523
child	-9524
gling	-9525
ifice	-9526
roits	-9527
▁peng	-9528
▁sett	-9529
▁swim	-9530
bridge	-9531
▁2007,	-9532
▁Brown	-9533
▁Moore	-9534
▁staff	-9535
anément	-9536
▁cheval	-9537
▁courte	-9538
▁essaye	-9539
▁intent	-9540
▁medium	-9541
▁pierre	-9542
▁thanks	-9543
▁cartoon	-9544
▁contain	-9545
▁unusual	-9546
abilities	-9547
▁circumst	-9548
▁implique	-9549
▁modernes	-9550
▁surprenant	-9551
▁personnages	-9552
adow	-9553
alog	-9554
bell	-9555
hyth	-9556
osse	-9557
reed	-9558
ytoc	-9559
▁Wal	-9560
▁nor	-9561
▁éte	-9562
▁cade	-9563
▁lady	-9564
▁lait	-9565
▁poem	-9566
▁prat	-9567
▁rose	-9568
▁Mount	-9569
▁inher	-9570
▁Virgin	-9571
▁rouges	-9572
▁tandis	-9573
▁embrace	-9574
▁include	-9575
▁mosquit	-9576
▁ouverte	-9577
▁vaccine	-9578
▁heureuse	-9579
▁modifier	-9580
▁remplacer	-9581
▁couverture	-9582
▁vulnerable	-9583
Os	-9584
ued	-9585
▁3,	-9586
▁Con	-9587
▁FBI	-9588
▁Tal	-9589
idité	-9590
iring	-9591
▁Four	-9592
▁agré	-9593
▁cast	-9594
▁créd	-9595
▁lend	-9596
▁liés	-9597
Americ	-9598
▁Techn	-9599
▁distr	-9600
▁génie	-9601
exemple	-9602
▁buying	-9603
▁drives	-9604
▁emploi	-9605
▁suppos	-9606
▁totale	-9607
▁volcan	-9608
occasion	-9609
▁roughly	-9610
▁suicide	-9611
▁vivants	-9612
▁Congress	-9613
▁criminal	-9614
▁determin	-9615
▁empêcher	-9616
▁peinture	-9617
▁printing	-9618
▁retrouve	-9619
▁spectrum	-9620
équivalent	-9621
▁bouteille	-9622
▁permanent	-9623
▁positions	-9624
▁producing	-9625
▁quotidien	-9626
▁increasing	-9627
▁grandmother	-9628
▁International	-9629
rey	-9630
▁KB	-9631
chez	-9632
▁ADN	-9633
▁Lou	-9634
▁bow	-9635
▁bul	-9636
▁lac	-9637
aters	-9638
iture	-9639
ocent	-9640
▁cess	-9641
▁grot	-9642
▁preg	-9643
▁ring	-9644
▁thro	-9645
animal	-9646
▁Since	-9647
▁maman	-9648
▁nutri	-9649
▁sweet	-9650
assembl	-9651
entends	-9652
iconque	-9653
▁blocks	-9654
▁length	-9655
▁microb	-9656
▁orange	-9657
▁worlds	-9658
▁Vietnam	-9659
▁centers	-9660
▁facteur	-9661
▁funding	-9662
▁colonies	-9663
▁consumer	-9664
▁déjeuner	-9665
▁montrant	-9666
▁hospitals	-9667
▁mécanisme	-9668
▁variation	-9669
▁résistance	-9670
▁unexpected	-9671
▁Bo	-9672
oted	-9673
▁202	-9674
▁ens	-9675
▁nar	-9676
alled	-9677
analy	-9678
ocide	-9679
échec	-9680
▁Comm	-9681
▁Jane	-9682
▁Josh	-9683
▁mile	-9684
▁unes	-9685
itchen	-9686
veille	-9687
▁Gener	-9688
▁essai	-9689
▁maîtr	-9690
▁pitch	-9691
▁teeth	-9692
instant	-9693
▁advent	-9694
▁drones	-9695
▁fruits	-9696
▁illust	-9697
▁rendez	-9698
approche	-9699
▁enfance	-9700
▁inspiré	-9701
▁tension	-9702
▁graduate	-9703
▁pourrons	-9704
▁valuable	-9705
▁chemicals	-9706
▁introduce	-9707
▁narrative	-9708
▁practical	-9709
▁composants	-9710
▁foundation	-9711
▁politicians	-9712
▁environments	-9713
En	-9714
jug	-9715
▁BF	-9716
ayer	-9717
roid	-9718
▁Jew	-9719
▁SMS	-9720
gence	-9721
▁Jose	-9722
▁file	-9723
▁gift	-9724
▁Titan	-9725
▁balle	-9726
▁bleue	-9727
▁diver	-9728
▁fewer	-9729
▁poche	-9730
▁recul	-9731
▁spont	-9732
ultural	-9733
▁poster	-9734
▁superm	-9735
▁utiles	-9736
▁visuel	-9737
agissent	-9738
orations	-9739
▁Central	-9740
▁gravité	-9741
▁moteurs	-9742
▁nerveux	-9743
▁observé	-9744
▁organes	-9745
▁primary	-9746
▁session	-9747
▁terminé	-9748
▁fossiles	-9749
▁retraite	-9750
▁savaient	-9751
▁véhicule	-9752
▁expansion	-9753
▁puissants	-9754
▁Finalement	-9755
▁discipline	-9756
▁underwater	-9757
▁variations	-9758
▁transparent	-9759
▁consommateurs	-9760
rie	-9761
▁33	-9762
▁Jo	-9763
ardo	-9764
éras	-9765
▁Day	-9766
▁Moi	-9767
▁Net	-9768
▁Ven	-9769
▁bét	-9770
▁pip	-9771
▁sla	-9772
quant	-9773
▁Jour	-9774
entend	-9775
▁Derek	-9776
▁Found	-9777
▁basée	-9778
▁goods	-9779
▁ancien	-9780
▁ballon	-9781
▁désesp	-9782
▁formed	-9783
▁inject	-9784
▁motifs	-9785
▁prends	-9786
▁souten	-9787
entendre	-9788
lication	-9789
▁Silicon	-9790
▁accepté	-9791
▁anthrop	-9792
▁engaged	-9793
▁feature	-9794
▁minimum	-9795
équilibre	-9796
▁perceive	-9797
▁chimpanze	-9798
▁ecosystem	-9799
▁enseigner	-9800
▁précision	-9801
▁souvenirs	-9802
▁description	-9803
▁participate	-9804
▁photographs	-9805
▁pourcentage	-9806
▁evolutionary	-9807
500	-9808
Non	-9809
▁Hi	-9810
rain	-9811
▁Bab	-9812
▁Hen	-9813
▁Jam	-9814
▁LED	-9815
▁Tas	-9816
▁cub	-9817
▁gel	-9818
▁mun	-9819
▁sen	-9820
eller	-9821
etics	-9822
iante	-9823
▁avoc	-9824
▁inev	-9825
▁rene	-9826
lected	-9827
ouille	-9828
▁Allez	-9829
▁flies	-9830
essions	-9831
▁actuel	-9832
▁belles	-9833
▁chiens	-9834
▁europé	-9835
▁donnant	-9836
▁protest	-9837
▁reached	-9838
▁regions	-9839
▁viruses	-9840
▁énormes	-9841
▁affected	-9842
▁détruire	-9843
▁explains	-9844
▁relevant	-9845
▁Permettez	-9846
▁commencez	-9847
▁substance	-9848
▁spécifique	-9849
▁terrorisme	-9850
▁conséquence	-9851
▁discussions	-9852
▁fondamental	-9853
▁potentially	-9854
▁naturellement	-9855
top	-9856
élo	-9857
▁fu	-9858
▁lâ	-9859
agos	-9860
mage	-9861
whel	-9862
▁cig	-9863
chron	-9864
▁Norm	-9865
▁acte	-9866
▁fave	-9867
▁tank	-9868
imming	-9869
▁While	-9870
▁blogs	-9871
▁flash	-9872
▁incap	-9873
▁input	-9874
▁meurt	-9875
▁serre	-9876
▁sides	-9877
▁Design	-9878
▁adulte	-9879
▁chante	-9880
▁chimie	-9881
▁forgot	-9882
▁halluc	-9883
▁systém	-9884
▁Stephen	-9885
▁attacks	-9886
▁awesome	-9887
▁however	-9888
▁magique	-9889
▁savions	-9890
▁siècles	-9891
atteindre	-9892
▁carrying	-9893
▁utilisez	-9894
▁Cambridge	-9895
▁Hollywood	-9896
▁behaviors	-9897
▁forcément	-9898
▁generally	-9899
▁pratiques	-9900
▁symptômes	-9901
▁typically	-9902
imagination	-9903
▁comprenons	-9904
▁industries	-9905
▁meaningful	-9906
▁combination	-9907
▁magnifiques	-9908
▁proposition	-9909
▁sérieusement	-9910
▁Boy	-9911
▁alé	-9912
▁hol	-9913
▁édu	-9914
Homme	-9915
adesh	-9916
night	-9917
▁Mike	-9918
▁bare	-9919
▁geek	-9920
▁gout	-9921
▁grid	-9922
▁runs	-9923
▁tech	-9924
stitut	-9925
▁Human	-9926
▁White	-9927
▁agent	-9928
▁jeter	-9929
▁kilos	-9930
▁metal	-9931
▁rayon	-9932
▁shame	-9933
▁usage	-9934
▁voire	-9935
▁âgées	-9936
▁bottle	-9937
▁bubble	-9938
▁décide	-9939
▁factor	-9940
▁fortun	-9941
▁invité	-9942
▁limité	-9943
▁parlez	-9944
▁retire	-9945
▁season	-9946
▁serais	-9947
Pourquoi	-9948
▁blanche	-9949
▁commune	-9950
▁fragile	-9951
▁initial	-9952
▁intrins	-9953
▁outcome	-9954
▁soudain	-9955
▁Mondiale	-9956
▁existing	-9957
▁faudrait	-9958
▁venaient	-9959
▁awareness	-9960
▁combattre	-9961
▁increased	-9962
▁molecular	-9963
▁religions	-9964
▁dispositif	-9965
▁introduced	-9966
▁adolescents	-9967
▁disparaître	-9968
▁partenaires	-9969
▁Deuxièmement	-9970
▁sophisticated	-9971
▁reconnaissance	-9972
cut	-9973
har	-9974
ufs	-9975
▁Fl	-9976
▁ri	-9977
rète	-9978
ôtel	-9979
▁Cap	-9980
▁Six	-9981
▁orb	-9982
quare	-9983
▁amie	-9984
▁dogs	-9985
▁lune	-9986
▁nose	-9987
▁éche	-9988
icious	-9989
▁2000,	-9990
▁camps	-9991
▁topic	-9992
▁tumor	-9993
▁Steven	-9994
▁affirm	-9995
▁auprès	-9996
▁baisse	-9997
▁parall	-9998
▁patent	-9999
▁phosph	-10000
▁severe	-10001
▁simult	-10002
▁skelet	-10003
▁solved	-10004
▁voisin	-10005
▁circons	-10006
▁impacts	-10007
▁panneau	-10008
▁citation	-10009
▁equality	-10010
▁interven	-10011
▁étonnant	-10012
▁computing	-10013
▁spiritual	-10014
▁continents	-10015
▁innovative	-10016
▁transmettre	-10017
▁Premièrement	-10018
▁bibliothèque	-10019
▁manufacturing	-10020
▁représentation	-10021
▁Us	-10022
here	-10023
mous	-10024
égét	-10025
▁Rem	-10026
apper	-10027
itann	-10028
ètent	-10029
▁desk	-10030
▁drap	-10031
arante	-10032
▁Charl	-10033
▁Olymp	-10034
▁anten	-10035
▁degré	-10036
▁steel	-10037
▁tombé	-10038
parents	-10039
▁concep	-10040
▁conven	-10041
▁desper	-10042
▁fleurs	-10043
▁liquid	-10044
▁mirror	-10045
▁organs	-10046
▁parach	-10047
▁propag	-10048
▁résist	-10049
▁sharks	-10050
▁anticip	-10051
▁applied	-10052
▁britann	-10053
▁créatif	-10054
▁privacy	-10055
▁overwhel	-10056
▁password	-10057
▁symptoms	-10058
▁newspaper	-10059
▁protected	-10060
▁algorithms	-10061
▁definitely	-10062
▁permettant	-10063
▁physically	-10064
▁restaurants	-10065
▁augmentation	-10066
▁personnalité	-10067
▁photographie	-10068
-1	-10069
ET	-10070
assi	-10071
hips	-10072
oons	-10073
osex	-10074
phab	-10075
éral	-10076
ôles	-10077
▁Spe	-10078
▁jol	-10079
▁lob	-10080
▁reç	-10081
▁roy	-10082
▁éth	-10083
rophe	-10084
vable	-10085
▁Brun	-10086
▁Ever	-10087
▁clou	-10088
▁enqu	-10089
▁gren	-10090
▁recr	-10091
▁rede	-10092
▁remo	-10093
dedans	-10094
imagin	-10095
▁Kevin	-10096
▁phras	-10097
▁shall	-10098
▁sight	-10099
▁vingt	-10100
▁advice	-10101
▁constr	-10102
▁credit	-10103
▁furent	-10104
▁ingred	-10105
▁pulled	-10106
▁winter	-10107
▁abandon	-10108
▁cancers	-10109
▁deviend	-10110
▁harvest	-10111
▁kitchen	-10112
▁pleasure	-10113
▁prepared	-10114
▁framework	-10115
▁traveling	-10116
▁permission	-10117
▁terroristes	-10118
▁intelligente	-10119
▁u	-10120
ems	-10121
lés	-10122
▁28	-10123
▁85	-10124
isms	-10125
wart	-10126
what	-10127
▁Bre	-10128
▁Mel	-10129
▁Mor	-10130
▁Mur	-10131
▁eld	-10132
▁mac	-10133
▁mad	-10134
itent	-10135
▁loud	-10136
▁saut	-10137
▁sexy	-10138
▁thin	-10139
▁2010,	-10140
▁House	-10141
▁aging	-10142
▁intit	-10143
▁keeps	-10144
▁squel	-10145
▁végét	-10146
▁Anyway	-10147
▁cacher	-10148
▁concur	-10149
▁ignore	-10150
▁mondes	-10151
▁résolu	-10152
appelait	-10153
▁empathy	-10154
▁essence	-10155
▁mistake	-10156
▁quarter	-10157
▁sourire	-10158
▁unknown	-10159
▁probable	-10160
▁recorded	-10161
▁stronger	-10162
▁employees	-10163
▁publiques	-10164
ato	-10165
fait	-10166
inez	-10167
lève	-10168
mbre	-10169
▁Pan	-10170
▁tél	-10171
allée	-10172
asive	-10173
iteur	-10174
tered	-10175
▁goût	-10176
▁icon	-10177
▁inég	-10178
arning	-10179
entrée	-10180
▁glaci	-10181
▁ideal	-10182
▁nuage	-10183
▁aident	-10184
▁campus	-10185
▁condam	-10186
▁garage	-10187
▁posséd	-10188
▁rayons	-10189
▁tumeur	-10190
▁élevés	-10191
▁amounts	-10192
▁drogues	-10193
▁définir	-10194
▁illegal	-10195
▁inspire	-10196
▁voyager	-10197
▁intérêts	-10198
▁recueill	-10199
efficacité	-10200
▁discrimin	-10201
▁interests	-10202
▁intuition	-10203
▁logiciels	-10204
▁mortality	-10205
▁neighbors	-10206
▁réactions	-10207
▁historique	-10208
▁militaires	-10209
▁récompense	-10210
▁instructions	-10211
Do	-10212
enh	-10213
pte	-10214
anie	-10215
iest	-10216
▁Lin	-10217
▁Sol	-10218
influ	-10219
isses	-10220
▁Bron	-10221
▁Fond	-10222
▁Fort	-10223
▁nage	-10224
▁pill	-10225
▁sain	-10226
▁shop	-10227
▁sédu	-10228
▁tall	-10229
allons	-10230
phones	-10231
▁added	-10232
▁doubt	-10233
▁membr	-10234
▁renew	-10235
▁siège	-10236
▁thème	-10237
artiste	-10238
▁Guerre	-10239
▁Mandel	-10240
▁connue	-10241
▁créons	-10242
▁oublié	-10243
▁sample	-10244
identité	-10245
▁docteur	-10246
▁operate	-10247
▁witness	-10248
▁batterie	-10249
▁excitant	-10250
▁provient	-10251
▁rational	-10252
▁ridicule	-10253
▁souhaite	-10254
▁convaincu	-10255
▁auxquelles	-10256
▁components	-10257
investissement	-10258
ao	-10259
bal	-10260
pen	-10261
sun	-10262
éth	-10263
▁SP	-10264
phin	-10265
▁Hel	-10266
▁Mod	-10267
▁bot	-10268
▁dén	-10269
▁tar	-10270
aises	-10271
dames	-10272
uther	-10273
érons	-10274
▁athl	-10275
▁eggs	-10276
▁lanc	-10277
essaye	-10278
friend	-10279
onneur	-10280
▁atoms	-10281
▁chute	-10282
▁curve	-10283
▁menac	-10284
▁océan	-10285
▁poste	-10286
▁recev	-10287
▁songs	-10288
▁sugar	-10289
▁church	-10290
▁driven	-10291
▁pingou	-10292
▁spring	-10293
▁Johnson	-10294
▁cherché	-10295
▁fishing	-10296
▁spectre	-10297
partement	-10298
▁flexible	-10299
▁ancestors	-10300
▁événement	-10301
▁génétiques	-10302
▁personally	-10303
▁profondeur	-10304
▁alternatives	-10305
▁fundamentally	-10306
cel	-10307
rad	-10308
▁Gi	-10309
atar	-10310
atta	-10311
ecte	-10312
igue	-10313
ouvé	-10314
part	-10315
▁toy	-10316
lande	-10317
▁Benj	-10318
▁High	-10319
▁poly	-10320
▁rats	-10321
▁shel	-10322
▁vibr	-10323
▁wars	-10324
ducing	-10325
▁aston	-10326
▁bulle	-10327
▁Howard	-10328
▁Oxford	-10329
▁Soleil	-10330
▁reçoit	-10331
▁senses	-10332
objectif	-10333
▁apporté	-10334
▁caméras	-10335
▁remains	-10336
▁sentent	-10337
▁singing	-10338
▁vaccins	-10339
▁avantage	-10340
▁chansons	-10341
▁contrain	-10342
▁préparer	-10343
▁ultimate	-10344
▁naturally	-10345
▁activities	-10346
▁naturelles	-10347
▁reproduire	-10348
irl	-10349
irs	-10350
agan	-10351
apon	-10352
irds	-10353
érés	-10354
alise	-10355
elson	-10356
▁bicy	-10357
ignant	-10358
making	-10359
▁Other	-10360
▁boite	-10361
▁horse	-10362
▁neige	-10363
▁sympa	-10364
autisme	-10365
▁Daniel	-10366
▁cultiv	-10367
▁encoun	-10368
▁joined	-10369
▁placer	-10370
▁repous	-10371
▁Perhaps	-10372
▁chanter	-10373
▁dramatic	-10374
▁fabriqué	-10375
▁fraction	-10376
▁transfer	-10377
▁vieilles	-10378
▁animation	-10379
▁distances	-10380
▁nutrition	-10381
▁democratic	-10382
▁mammifères	-10383
▁psychology	-10384
▁énergétique	-10385
hes	-10386
▁CD	-10387
appr	-10388
attr	-10389
ench	-10390
expr	-10391
▁Mer	-10392
avage	-10393
emain	-10394
opard	-10395
▁chev	-10396
▁fich	-10397
▁gasp	-10398
▁sulf	-10399
▁tiré	-10400
▁atter	-10401
▁barre	-10402
▁false	-10403
▁jambe	-10404
▁sauce	-10405
▁usine	-10406
▁Pouvez	-10407
▁Russia	-10408
▁aftern	-10409
▁basket	-10410
▁scared	-10411
▁étoile	-10412
▁aurions	-10413
▁equally	-10414
▁housing	-10415
▁largely	-10416
▁profits	-10417
▁sortent	-10418
▁équipes	-10419
▁concrete	-10420
▁hydrogen	-10421
▁mistakes	-10422
▁synchron	-10423
▁vehicles	-10424
▁vérifier	-10425
▁appellent	-10426
▁avantages	-10427
▁collision	-10428
▁excellent	-10429
▁mechanism	-10430
▁providing	-10431
▁économies	-10432
▁Foundation	-10433
▁processing	-10434
▁catastrophe	-10435
▁collaborative	-10436
CA	-10437
DA	-10438
gi	-10439
▁MT	-10440
père	-10441
thur	-10442
▁Bay	-10443
▁Hey	-10444
▁Pet	-10445
▁dop	-10446
oient	-10447
▁Hong	-10448
▁Sant	-10449
▁enne	-10450
▁hits	-10451
▁outc	-10452
▁tang	-10453
▁tran	-10454
▁Brian	-10455
▁mètre	-10456
▁tours	-10457
aliment	-10458
▁bouton	-10459
empathie	-10460
issaient	-10461
▁drapeau	-10462
▁fluores	-10463
▁franche	-10464
▁implant	-10465
▁libérer	-10466
▁majeure	-10467
▁maximum	-10468
▁phrases	-10469
▁solving	-10470
▁terrest	-10471
▁Benjamin	-10472
▁combined	-10473
▁médicale	-10474
▁collected	-10475
▁functions	-10476
▁interpret	-10477
▁quantités	-10478
▁souffrance	-10479
▁contribution	-10480
▁reproduction	-10481
▁technological	-10482
▁transportation	-10483
70	-10484
lls	-10485
umn	-10486
▁RB	-10487
▁Ré	-10488
▁eh	-10489
▁gê	-10490
Look	-10491
omin	-10492
▁Jac	-10493
▁Mag	-10494
▁Nic	-10495
▁pul	-10496
retch	-10497
▁Coll	-10498
▁Nick	-10499
▁aimé	-10500
▁bath	-10501
▁boss	-10502
▁corn	-10503
▁mand	-10504
▁surm	-10505
▁tsun	-10506
father	-10507
reinte	-10508
▁Selon	-10509
▁Union	-10510
▁lying	-10511
▁ought	-10512
▁param	-10513
▁retir	-10514
ologies	-10515
▁acquis	-10516
▁boring	-10517
▁espoir	-10518
▁fisher	-10519
▁hoping	-10520
▁infirm	-10521
▁nuages	-10522
▁pollin	-10523
▁survey	-10524
▁Bonjour	-10525
▁appliqu	-10526
▁gravity	-10527
▁remonte	-10528
▁revenue	-10529
▁centrale	-10530
▁features	-10531
▁feuilles	-10532
▁internal	-10533
▁memories	-10534
▁organisé	-10535
▁sensible	-10536
ifications	-10537
▁authority	-10538
▁centuries	-10539
▁dinosaurs	-10540
▁lendemain	-10541
▁récupérer	-10542
inspiration	-10543
▁artistique	-10544
▁ordinaires	-10545
▁partenaire	-10546
▁difficultés	-10547
▁psychologie	-10548
Oui	-10549
has	-10550
▁Es	-10551
▁Os	-10552
Asie	-10553
ifth	-10554
orph	-10555
▁Bel	-10556
▁tes	-10557
onome	-10558
▁ampl	-10559
▁mere	-10560
▁nurs	-10561
▁rela	-10562
▁trig	-10563
▁vues	-10564
▁Bronx	-10565
▁Jones	-10566
▁Shang	-10567
▁storm	-10568
▁étend	-10569
acheter	-10570
ilience	-10571
occuper	-10572
éritage	-10573
▁Nelson	-10574
▁Nobody	-10575
▁Russie	-10576
▁Voyons	-10577
▁ennuye	-10578
▁fertil	-10579
▁rentre	-10580
▁chimique	-10581
▁espérons	-10582
▁investir	-10583
▁pensions	-10584
▁présenté	-10585
▁operation	-10586
▁précédent	-10587
▁terrorism	-10588
▁efficiency	-10589
▁biologiques	-10590
▁challenging	-10591
▁interactive	-10592
▁probabilité	-10593
▁industrielle	-10594
▁physiquement	-10595
▁sustainability	-10596
▁supplémentaires	-10597
etch	-10598
iait	-10599
nons	-10600
pher	-10601
▁Pap	-10602
▁wid	-10603
icies	-10604
ignon	-10605
scale	-10606
▁Also	-10607
▁Jenn	-10608
▁Penn	-10609
▁Stud	-10610
▁banc	-10611
▁cass	-10612
▁cere	-10613
▁dieu	-10614
▁dile	-10615
▁inév	-10616
▁joke	-10617
▁tack	-10618
▁unif	-10619
ateful	-10620
istics	-10621
usions	-10622
▁3,000	-10623
▁Prize	-10624
▁arabe	-10625
▁aurez	-10626
▁roads	-10627
▁sales	-10628
▁tubes	-10629
▁agreed	-10630
▁banlie	-10631
▁garden	-10632
▁réserv	-10633
▁serons	-10634
▁seules	-10635
▁tunnel	-10636
▁venons	-10637
▁apporte	-10638
▁couches	-10639
▁dropped	-10640
▁electro	-10641
▁procédé	-10642
▁stupide	-10643
videmment	-10644
▁policies	-10645
▁swimming	-10646
▁tracking	-10647
▁afternoon	-10648
▁chirurgie	-10649
▁quiconque	-10650
▁élections	-10651
▁controlled	-10652
▁difficulté	-10653
▁journalist	-10654
▁poursuivre	-10655
▁surrounded	-10656
▁algorithmes	-10657
▁débarrasser	-10658
▁représenter	-10659
60	-10660
dam	-10661
ena	-10662
spe	-10663
yan	-10664
arry	-10665
aure	-10666
foot	-10667
itée	-10668
levé	-10669
ouch	-10670
uary	-10671
▁205	-10672
▁Met	-10673
▁cup	-10674
▁déd	-10675
▁fum	-10676
ombre	-10677
▁1990	-10678
▁Only	-10679
▁Sovi	-10680
▁abus	-10681
▁hers	-10682
▁obsc	-10683
▁sets	-10684
▁surp	-10685
▁sûre	-10686
ribles	-10687
écoute	-10688
▁Bangl	-10689
▁avais	-10690
▁intim	-10691
▁mines	-10692
▁défaut	-10693
▁pareil	-10694
▁struct	-10695
▁touché	-10696
▁worker	-10697
▁Pacific	-10698
▁breathe	-10699
▁combatt	-10700
▁cooking	-10701
▁diriger	-10702
▁percept	-10703
▁préféré	-10704
▁suspect	-10705
▁therapy	-10706
▁baleines	-10707
▁branches	-10708
▁centaine	-10709
▁conclure	-10710
▁discuter	-10711
▁election	-10712
▁fondation	-10713
▁militaire	-10714
▁profondes	-10715
▁vaisseaux	-10716
▁confidence	-10717
▁percentage	-10718
On	-10719
Ou	-10720
bly	-10721
oul	-10722
Nous	-10723
appy	-10724
crit	-10725
ende	-10726
illy	-10727
opol	-10728
▁Amy	-10729
▁alb	-10730
▁lap	-10731
▁meg	-10732
▁nit	-10733
accro	-10734
aluer	-10735
sière	-10736
▁abst	-10737
▁bold	-10738
▁boom	-10739
▁cycl	-10740
▁dose	-10741
▁infl	-10742
▁pard	-10743
▁sond	-10744
Orient	-10745
tember	-10746
▁Ebola	-10747
▁Power	-10748
▁drone	-10749
▁fleur	-10750
▁invis	-10751
▁sucre	-10752
▁vente	-10753
▁affich	-10754
▁cycles	-10755
▁deaths	-10756
▁pattes	-10757
▁répart	-10758
▁traces	-10759
▁traite	-10760
▁vagues	-10761
Occident	-10762
internet	-10763
▁borders	-10764
▁clothes	-10765
▁pourrez	-10766
▁reverse	-10767
▁électro	-10768
▁diminuer	-10769
▁dépenser	-10770
▁infected	-10771
▁sunlight	-10772
▁visuelle	-10773
▁explained	-10774
▁fréquence	-10775
▁reçoivent	-10776
▁événements	-10777
▁mathématique	-10778
▁presentation	-10779
▁circumstances	-10780
▁professionnels	-10781
dre	-10782
imal	-10783
oken	-10784
oral	-10785
rime	-10786
▁Ann	-10787
▁Dès	-10788
▁Inc	-10789
▁Sus	-10790
▁dil	-10791
▁dys	-10792
▁ger	-10793
iaire	-10794
ènent	-10795
▁Five	-10796
▁Hill	-10797
▁June	-10798
▁chol	-10799
▁exéc	-10800
▁fête	-10801
▁milk	-10802
▁soie	-10803
angers	-10804
▁embed	-10805
▁foyer	-10806
▁lions	-10807
▁proto	-10808
▁theme	-10809
analyse	-10810
énormes	-10811
▁acting	-10812
▁auriez	-10813
▁flower	-10814
▁franch	-10815
▁Environ	-10816
▁cigaret	-10817
▁amoureux	-10818
▁contrast	-10819
▁longueur	-10820
▁measured	-10821
▁syndrome	-10822
▁determine	-10823
▁développe	-10824
▁réduction	-10825
▁apparemment	-10826
▁composition	-10827
▁neuroscience	-10828
▁pratiquement	-10829
▁radicalement	-10830
▁véritablement	-10831
ecd	-10832
comp	-10833
ilit	-10834
urre	-10835
érop	-10836
▁Unf	-10837
▁clo	-10838
being	-10839
gypte	-10840
icien	-10841
itors	-10842
▁Irak	-10843
▁Rand	-10844
▁Vrai	-10845
▁limb	-10846
▁orph	-10847
▁plot	-10848
▁ultr	-10849
ronter	-10850
▁Aussi	-10851
▁abuse	-10852
▁angry	-10853
▁depth	-10854
▁dossi	-10855
▁foule	-10856
▁liées	-10857
▁tente	-10858
▁thick	-10859
▁toile	-10860
▁trave	-10861
▁trend	-10862
▁Newton	-10863
▁Yorker	-10864
▁acoust	-10865
▁anesth	-10866
▁border	-10867
▁divert	-10868
▁incons	-10869
▁moelle	-10870
▁stayed	-10871
▁tested	-10872
▁tourné	-10873
abilités	-10874
▁charges	-10875
▁closely	-10876
▁couples	-10877
▁defined	-10878
▁dispers	-10879
▁fingers	-10880
▁graines	-10881
▁younger	-10882
▁accueill	-10883
▁allowing	-10884
▁occurred	-10885
▁organism	-10886
▁presence	-10887
▁wireless	-10888
▁caractère	-10889
▁implement	-10890
▁remarquer	-10891
▁selection	-10892
▁trouverez	-10893
▁literature	-10894
▁resistance	-10895
▁politiciens	-10896
▁électronique	-10897
vin	-10898
▁42	-10899
▁Di	-10900
▁Hé	-10901
ador	-10902
onna	-10903
west	-10904
zing	-10905
▁Att	-10906
▁tor	-10907
field	-10908
level	-10909
orial	-10910
think	-10911
▁Ethi	-10912
▁Ford	-10913
▁Prof	-10914
▁assu	-10915
▁stro	-10916
emploi	-10917
▁2011,	-10918
▁Sarah	-10919
▁avéré	-10920
▁frank	-10921
▁géant	-10922
▁japon	-10923
▁loint	-10924
▁resté	-10925
▁taste	-10926
retagne	-10927
▁laptop	-10928
▁millim	-10929
▁remove	-10930
▁rocket	-10931
▁signes	-10932
aneously	-10933
enregist	-10934
onnected	-10935
▁Quelque	-10936
▁chicken	-10937
▁donnait	-10938
▁extract	-10939
▁falling	-10940
▁hôpital	-10941
▁sensors	-10942
▁accurate	-10943
▁capteurs	-10944
▁director	-10945
▁oreilles	-10946
▁protéine	-10947
▁September	-10948
▁appreciate	-10949
▁automobile	-10950
▁capitalism	-10951
▁expressions	-10952
▁spécifiques	-10953
▁transformed	-10954
▁Unfortunately	-10955
ona	-10956
▁AK	-10957
▁Bu	-10958
haut	-10959
lley	-10960
outs	-10961
uing	-10962
▁Ban	-10963
▁Res	-10964
▁odd	-10965
▁pic	-10966
cules	-10967
opath	-10968
usted	-10969
▁Come	-10970
▁Quoi	-10971
▁Simp	-10972
▁ears	-10973
▁mets	-10974
▁mice	-10975
▁peak	-10976
▁wine	-10977
ipping	-10978
économ	-10979
▁Latin	-10980
▁canop	-10981
▁cinqu	-10982
▁coupe	-10983
▁diarr	-10984
▁mises	-10985
▁upper	-10986
animaux	-10987
ishment	-10988
éricain	-10989
▁button	-10990
▁chaise	-10991
▁deploy	-10992
▁détail	-10993
▁handle	-10994
▁vraies	-10995
iliation	-10996
▁calculs	-10997
▁confirm	-10998
▁distant	-10999
▁expliqu	-11000
▁fortune	-11001
▁nowhere	-11002
▁passons	-11003
▁réserve	-11004
▁tonight	-11005
▁Republic	-11006
▁accepter	-11007
▁circonst	-11008
▁dominant	-11009
▁proteins	-11010
▁ignorance	-11011
▁sensitive	-11012
▁greenhouse	-11013
▁capitalisme	-11014
▁psychological	-11015
Or	-11016
yo	-11017
Bon	-11018
bra	-11019
col	-11020
hai	-11021
ima	-11022
▁ly	-11023
anny	-11024
elez	-11025
ooth	-11026
pent	-11027
quié	-11028
umps	-11029
èges	-11030
▁Jud	-11031
▁piz	-11032
ensus	-11033
▁Tony	-11034
▁Walk	-11035
▁ayez	-11036
▁busy	-11037
▁mini	-11038
▁mété	-11039
▁rect	-11040
▁scar	-11041
asters	-11042
espèce	-11043
iteurs	-11044
▁5,000	-11045
▁error	-11046
▁hotel	-11047
▁jurid	-11048
▁mesur	-11049
▁quête	-11050
▁rooms	-11051
▁teams	-11052
Comment	-11053
itative	-11054
uilding	-11055
▁Albert	-11056
▁Square	-11057
▁absorb	-11058
▁format	-11059
▁rempli	-11060
▁solide	-11061
▁string	-11062
▁acteurs	-11063
▁courses	-11064
▁overall	-11065
▁retirer	-11066
▁salaire	-11067
▁creature	-11068
▁présents	-11069
▁somewhat	-11070
▁algorithm	-11071
▁batteries	-11072
Afghanistan	-11073
▁continuent	-11074
▁explanation	-11075
▁travaillait	-11076
▁traditionnelle	-11077
Il	-11078
OK	-11079
bie	-11080
▁Ap	-11081
▁LT	-11082
..."	-11083
Iran	-11084
évol	-11085
▁193	-11086
▁Imp	-11087
▁Kir	-11088
▁jan	-11089
opter	-11090
usage	-11091
▁Whit	-11092
▁bloc	-11093
▁crev	-11094
▁firm	-11095
▁jail	-11096
▁liée	-11097
▁mail	-11098
▁paqu	-11099
icides	-11100
opping	-11101
unesse	-11102
▁Henry	-11103
▁Heure	-11104
▁Space	-11105
▁Talib	-11106
▁coups	-11107
▁diplô	-11108
▁faced	-11109
▁formé	-11110
▁senti	-11111
adapter	-11112
▁Before	-11113
▁cinéma	-11114
▁négoci	-11115
▁ritual	-11116
▁salles	-11117
▁select	-11118
▁suffer	-11119
▁Mandela	-11120
▁burning	-11121
▁causing	-11122
▁decline	-11123
▁générer	-11124
▁manipul	-11125
▁paralle	-11126
▁storyte	-11127
▁vessels	-11128
▁abstract	-11129
▁engaging	-11130
▁floating	-11131
▁horizont	-11132
▁puissiez	-11133
▁réfléchi	-11134
▁Something	-11135
▁bénéfices	-11136
▁carburant	-11137
▁economies	-11138
▁entertain	-11139
▁objective	-11140
▁exposition	-11141
▁laboratory	-11142
▁observation	-11143
MA	-11144
cil	-11145
mée	-11146
▁0,	-11147
amas	-11148
arme	-11149
gant	-11150
olfe	-11151
élic	-11152
▁Sky	-11153
aming	-11154
eline	-11155
ineux	-11156
ogram	-11157
pring	-11158
venue	-11159
èdent	-11160
▁Rock	-11161
▁anxi	-11162
▁clar	-11163
▁clos	-11164
▁fake	-11165
▁gluc	-11166
▁pace	-11167
accept	-11168
▁Clint	-11169
▁Satur	-11170
▁mâles	-11171
▁média	-11172
▁rares	-11173
▁split	-11174
▁stone	-11175
ciences	-11176
royable	-11177
écouter	-11178
▁config	-11179
▁joueur	-11180
▁mascul	-11181
▁relate	-11182
▁diplôme	-11183
▁emmener	-11184
▁evening	-11185
▁rapides	-11186
▁samples	-11187
▁tsunami	-11188
important	-11189
infrastru	-11190
▁connecté	-11191
▁conseils	-11192
▁essayent	-11193
▁expliqué	-11194
▁interrog	-11195
▁trouvait	-11196
▁croyances	-11197
▁multiples	-11198
▁rassemble	-11199
▁signature	-11200
▁connexions	-11201
▁appropriate	-11202
▁installations	-11203
axe	-11204
▁Po	-11205
▁Sl	-11206
isez	-11207
olas	-11208
uées	-11209
▁ate	-11210
acher	-11211
belie	-11212
▁Soci	-11213
▁aéri	-11214
▁douz	-11215
▁flew	-11216
▁fous	-11217
▁hybr	-11218
▁lets	-11219
▁load	-11220
▁lucr	-11221
▁root	-11222
▁silk	-11223
▁wash	-11224
athers	-11225
▁advoc	-11226
▁alarm	-11227
▁clock	-11228
▁fixed	-11229
▁flood	-11230
▁plays	-11231
▁prévu	-11232
▁assume	-11233
▁corail	-11234
▁owners	-11235
▁poison	-11236
▁stabil	-11237
▁Seattle	-11238
▁assurer	-11239
▁attempt	-11240
▁origami	-11241
▁pushing	-11242
▁ridicul	-11243
▁souffle	-11244
▁tremble	-11245
▁abstrait	-11246
▁collapse	-11247
▁district	-11248
▁dopamine	-11249
▁subjects	-11250
▁wondered	-11251
▁Regardons	-11252
▁partagent	-11253
▁partenari	-11254
▁statement	-11255
▁sculptures	-11256
exploitation	-11257
▁artificielle	-11258
▁nécessairement	-11259
pos	-11260
war	-11261
▁29	-11262
▁NG	-11263
▁pâ	-11264
Yeah	-11265
amen	-11266
ihad	-11267
▁crâ	-11268
▁hip	-11269
▁sty	-11270
aites	-11271
eding	-11272
icket	-11273
irait	-11274
érant	-11275
▁Time	-11276
▁acts	-11277
▁barb	-11278
▁puce	-11279
▁pump	-11280
▁sale	-11281
▁sinc	-11282
▁tabl	-11283
ouvoir	-11284
▁Celle	-11285
▁Delhi	-11286
▁cible	-11287
▁datab	-11288
▁métal	-11289
▁proth	-11290
▁prête	-11291
▁répét	-11292
▁voies	-11293
▁walks	-11294
▁weigh	-11295
▁agenda	-11296
▁branch	-11297
▁cadeau	-11298
▁extern	-11299
▁lifest	-11300
▁remont	-11301
▁stands	-11302
exprimer	-11303
▁existed	-11304
▁locales	-11305
▁prenant	-11306
▁symbole	-11307
▁Everyone	-11308
▁français	-11309
▁innocent	-11310
▁outcomes	-11311
▁parcours	-11312
▁retrouvé	-11313
▁conscient	-11314
▁electronic	-11315
▁destination	-11316
▁littérature	-11317
▁économistes	-11318
BM	-11319
My	-11320
NU	-11321
aa	-11322
lli	-11323
▁31	-11324
anou	-11325
aucr	-11326
auté	-11327
inda	-11328
midi	-11329
neur	-11330
oter	-11331
ynth	-11332
▁20,	-11333
▁Ram	-11334
▁Tel	-11335
▁ped	-11336
utile	-11337
▁Tanz	-11338
▁jazz	-11339
▁pomp	-11340
humour	-11341
lables	-11342
yright	-11343
▁Bruno	-11344
▁affir	-11345
▁bidon	-11346
▁boxes	-11347
▁cabin	-11348
▁coins	-11349
▁imper	-11350
▁placé	-11351
▁trich	-11352
▁youth	-11353
introdu	-11354
osphere	-11355
▁Number	-11356
▁diffus	-11357
▁inclus	-11358
▁limits	-11359
▁marath	-11360
▁mérite	-11361
▁narrow	-11362
▁paraît	-11363
▁pilote	-11364
▁secure	-11365
▁signed	-11366
▁writer	-11367
▁analyse	-11368
▁curieux	-11369
▁détaill	-11370
▁library	-11371
▁portent	-11372
▁Nouvelle	-11373
▁docteurs	-11374
▁hallucin	-11375
▁jeunesse	-11376
▁respirer	-11377
▁scolaire	-11378
▁destroyed	-11379
▁emergency	-11380
▁provenant	-11381
▁télescope	-11382
▁Bangladesh	-11383
wa	-11384
But	-11385
méd	-11386
▁PC	-11387
keys	-11388
uine	-11389
▁Gén	-11390
▁Lee	-11391
▁ack	-11392
abeth	-11393
ingue	-11394
urban	-11395
▁Gulf	-11396
▁Next	-11397
▁bref	-11398
▁elev	-11399
▁ence	-11400
▁médi	-11401
images	-11402
quille	-11403
▁climb	-11404
▁dozen	-11405
▁hydro	-11406
▁ordre	-11407
▁redes	-11408
engager	-11409
ènement	-11410
▁behave	-11411
▁claire	-11412
▁clouds	-11413
▁créant	-11414
▁discut	-11415
▁détest	-11416
▁elimin	-11417
▁extent	-11418
▁jouets	-11419
▁ladies	-11420
▁offert	-11421
▁repair	-11422
▁robust	-11423
▁saison	-11424
▁struck	-11425
▁attract	-11426
▁aveugle	-11427
▁balloon	-11428
▁bureaux	-11429
▁pensant	-11430
▁quelcon	-11431
▁routine	-11432
hydrogène	-11433
▁créature	-11434
▁ministre	-11435
▁profiter	-11436
▁énergies	-11437
▁astronaut	-11438
▁breathing	-11439
▁comprenez	-11440
▁considéré	-11441
▁curiosité	-11442
▁essentiel	-11443
▁minuscule	-11444
▁primitive	-11445
▁recording	-11446
▁contribute	-11447
▁mechanical	-11448
▁educational	-11449
▁travaillais	-11450
▁infrastructures	-11451
etr	-11452
gie	-11453
oln	-11454
▁3.	-11455
▁55	-11456
cean	-11457
otes	-11458
ouff	-11459
tons	-11460
vier	-11461
yrus	-11462
▁Kar	-11463
▁bip	-11464
▁mit	-11465
▁rur	-11466
Islam	-11467
astes	-11468
aucun	-11469
uisse	-11470
▁Coca	-11471
▁Hait	-11472
▁Mach	-11473
▁army	-11474
▁chip	-11475
▁furn	-11476
▁hook	-11477
▁pray	-11478
agerie	-11479
incoln	-11480
profit	-11481
▁Corée	-11482
▁Voyez	-11483
▁anecd	-11484
▁beach	-11485
▁dilem	-11486
▁grows	-11487
▁legis	-11488
▁plage	-11489
▁sinon	-11490
érément	-11491
▁chapit	-11492
▁coraux	-11493
▁réunir	-11494
▁sphère	-11495
▁statut	-11496
isations	-11497
▁glamour	-11498
▁mystery	-11499
▁offered	-11500
▁raisonn	-11501
▁sentais	-11502
▁évoluer	-11503
▁ancienne	-11504
▁pourront	-11505
▁prostate	-11506
▁provided	-11507
▁rarement	-11508
▁apprenons	-11509
▁confident	-11510
▁customers	-11511
▁disappear	-11512
▁explosion	-11513
▁extension	-11514
▁measuring	-11515
▁presented	-11516
▁rejoindre	-11517
▁adolescent	-11518
▁infections	-11519
▁transports	-11520
▁gratuitement	-11521
▁personnellement	-11522
Eh	-11523
ado	-11524
inn	-11525
yde	-11526
zes	-11527
▁ow	-11528
ilib	-11529
inos	-11530
ione	-11531
obil	-11532
▁Dev	-11533
▁Fer	-11534
▁Fre	-11535
▁Ses	-11536
▁foc	-11537
▁née	-11538
▁roi	-11539
▁tol	-11540
inder	-11541
ouest	-11542
umble	-11543
▁1980	-11544
▁Hall	-11545
▁Rese	-11546
▁jung	-11547
▁pige	-11548
acteur	-11549
apping	-11550
souris	-11551
▁Korea	-11552
▁Never	-11553
▁bones	-11554
▁déplo	-11555
▁dîner	-11556
▁modél	-11557
▁motif	-11558
▁assise	-11559
▁jusque	-11560
▁linked	-11561
▁margin	-11562
▁offers	-11563
▁papers	-11564
▁traged	-11565
American	-11566
▁careful	-11567
▁channel	-11568
▁connait	-11569
▁flowers	-11570
▁malades	-11571
▁récente	-11572
▁Remember	-11573
▁agréable	-11574
▁aliments	-11575
▁analyser	-11576
▁ressenti	-11577
▁wherever	-11578
▁Christian	-11579
▁Christmas	-11580
▁Parkinson	-11581
▁celebrate	-11582
▁infection	-11583
▁ingénieur	-11584
▁supérieur	-11585
▁architects	-11586
▁enregistré	-11587
▁neuroscient	-11588
▁journalistes	-11589
▁transparence	-11590
▁circonstances	-11591
▁électroniques	-11592
▁automatiquement	-11593
ki	-11594
00,	-11595
log	-11596
nal	-11597
roc	-11598
chée	-11599
rors	-11600
tail	-11601
▁Get	-11602
▁sne	-11603
▁ère	-11604
ining	-11605
inted	-11606
moins	-11607
uting	-11608
ésité	-11609
▁Mill	-11610
▁Miss	-11611
▁dete	-11612
▁plaf	-11613
▁west	-11614
called	-11615
essent	-11616
ifiant	-11617
itudes	-11618
menter	-11619
orique	-11620
▁About	-11621
▁Gabby	-11622
▁chips	-11623
▁falls	-11624
▁whist	-11625
▁Gandhi	-11626
▁compat	-11627
▁devast	-11628
▁improb	-11629
▁latest	-11630
▁monkey	-11631
▁sentez	-11632
▁whales	-11633
etically	-11634
▁bombard	-11635
▁colonie	-11636
▁diverse	-11637
▁entrain	-11638
▁feeding	-11639
▁herself	-11640
▁indique	-11641
▁raconté	-11642
▁robotic	-11643
▁suivent	-11644
criptions	-11645
opération	-11646
▁collègue	-11647
▁drinking	-11648
▁retourné	-11649
▁sexuelle	-11650
▁tropical	-11651
▁Basically	-11652
▁increases	-11653
▁spreading	-11654
▁tendances	-11655
▁chirurgien	-11656
▁contribuer	-11657
▁economists	-11658
▁financière	-11659
▁initiative	-11660
▁stratégies	-11661
ministration	-11662
All	-11663
eda	-11664
▁0.	-11665
four	-11666
onds	-11667
rive	-11668
éria	-11669
▁Moz	-11670
▁hey	-11671
▁mim	-11672
astre	-11673
eries	-11674
ollar	-11675
orous	-11676
▁Carl	-11677
▁Octo	-11678
▁Pass	-11679
▁Voix	-11680
▁doul	-11681
▁sacs	-11682
▁traî	-11683
▁turb	-11684
instru	-11685
▁anger	-11686
▁décès	-11687
▁démén	-11688
▁males	-11689
▁spons	-11690
▁vendu	-11691
▁évent	-11692
▁Chacun	-11693
▁Econom	-11694
▁crises	-11695
▁evolve	-11696
▁excuse	-11697
▁hunger	-11698
▁métier	-11699
▁negoti	-11700
▁requin	-11701
▁traits	-11702
▁traité	-11703
▁Prenons	-11704
▁classic	-11705
▁fournit	-11706
▁mystère	-11707
▁persist	-11708
▁poorest	-11709
▁poumons	-11710
▁Brooklyn	-11711
▁attaques	-11712
▁attendez	-11713
▁birthday	-11714
▁fauteuil	-11715
▁inattend	-11716
▁maintain	-11717
▁paradigm	-11718
▁preserve	-11719
▁exploring	-11720
▁obsession	-11721
▁optimiste	-11722
▁precisely	-11723
exploration	-11724
▁encourager	-11725
▁distributed	-11726
▁anniversaire	-11727
▁productivité	-11728
▁reconstruire	-11729
▁professionnel	-11730
OL	-11731
RM	-11732
di	-11733
oto	-11734
édé	-11735
▁Bh	-11736
▁ic	-11737
oler	-11738
▁Bol	-11739
▁Cur	-11740
▁Ice	-11741
▁még	-11742
▁ode	-11743
▁raw	-11744
agger	-11745
ordon	-11746
usses	-11747
▁Avez	-11748
▁Lune	-11749
▁Move	-11750
▁Supp	-11751
▁pest	-11752
isters	-11753
▁2005,	-11754
▁alien	-11755
▁pizza	-11756
▁ramen	-11757
▁title	-11758
▁étais	-11759
érateur	-11760
▁acknow	-11761
▁atomes	-11762
▁famine	-11763
▁fausse	-11764
▁fright	-11765
▁ingréd	-11766
▁neural	-11767
▁scream	-11768
▁trains	-11769
fortable	-11770
éanmoins	-11771
▁Lincoln	-11772
▁carried	-11773
▁composé	-11774
▁frankly	-11775
▁methods	-11776
▁précise	-11777
▁réalise	-11778
▁stretch	-11779
intention	-11780
▁Shanghai	-11781
▁Vraiment	-11782
▁division	-11783
▁download	-11784
▁equation	-11785
▁naturels	-11786
▁footprint	-11787
▁reference	-11788
▁translate	-11789
▁behavioral	-11790
▁department	-11791
▁programmer	-11792
▁quelconque	-11793
▁développent	-11794
▁franchement	-11795
▁observations	-11796
▁automatically	-11797
▁potentiellement	-11798
Be	-11799
Ne	-11800
RA	-11801
And	-11802
bul	-11803
ita	-11804
lem	-11805
▁Ac	-11806
▁ug	-11807
Okay	-11808
etes	-11809
ilar	-11810
▁Dés	-11811
▁Jer	-11812
▁Kat	-11813
ablir	-11814
atson	-11815
▁1960	-11816
▁Bern	-11817
▁Prés	-11818
▁Temp	-11819
▁arme	-11820
▁bike	-11821
▁clav	-11822
▁mars	-11823
▁mush	-11824
▁renv	-11825
▁sûrs	-11826
avance	-11827
udisme	-11828
▁Aucun	-11829
▁arbit	-11830
▁audio	-11831
▁bombe	-11832
▁censé	-11833
▁entré	-11834
▁envah	-11835
▁honey	-11836
▁joint	-11837
▁relax	-11838
▁spark	-11839
▁tourn	-11840
▁whale	-11841
appeler	-11842
titudes	-11843
▁Please	-11844
▁column	-11845
▁cordes	-11846
▁facult	-11847
▁offici	-11848
▁réagir	-11849
▁silenc	-11850
▁slides	-11851
▁Finally	-11852
▁glacier	-11853
▁interne	-11854
▁soigner	-11855
▁surgeon	-11856
▁achieved	-11857
▁incident	-11858
▁intitulé	-11859
▁mutation	-11860
▁opinions	-11861
▁overcome	-11862
▁pregnant	-11863
▁rappelez	-11864
▁shoulder	-11865
▁traverse	-11866
▁chercheur	-11867
▁continued	-11868
▁corporate	-11869
▁financier	-11870
▁interagir	-11871
▁practices	-11872
▁privilege	-11873
▁connecting	-11874
▁numériques	-11875
▁philosophy	-11876
▁principaux	-11877
▁distinction	-11878
▁recognition	-11879
▁represented	-11880
▁conventional	-11881
▁laboratoires	-11882
200	-11883
any	-11884
oit	-11885
île	-11886
Talk	-11887
acte	-11888
aler	-11889
isan	-11890
oine	-11891
éfin	-11892
▁Eas	-11893
▁Ted	-11894
▁Wow	-11895
▁péd	-11896
intes	-11897
osion	-11898
▁1970	-11899
▁Asie	-11900
▁Blue	-11901
▁Jord	-11902
▁Pole	-11903
▁Sand	-11904
▁Snow	-11905
▁Sout	-11906
▁clés	-11907
▁fest	-11908
▁horr	-11909
▁levé	-11910
▁logo	-11911
▁loop	-11912
▁seek	-11913
▁audac	-11914
▁finit	-11915
▁forts	-11916
▁judge	-11917
▁nourr	-11918
▁écart	-11919
atoires	-11920
tements	-11921
through	-11922
▁Berlin	-11923
▁commod	-11924
▁couper	-11925
▁désolé	-11926
▁incorp	-11927
▁sauter	-11928
▁spinal	-11929
▁toilet	-11930
▁trafic	-11931
▁volant	-11932
changing	-11933
▁January	-11934
▁attaque	-11935
▁couvert	-11936
▁densité	-11937
▁neither	-11938
▁savings	-11939
▁sembler	-11940
influence	-11941
▁brothers	-11942
▁calculer	-11943
▁calories	-11944
▁hormones	-11945
▁infinite	-11946
▁mondiaux	-11947
▁obsessed	-11948
▁rapports	-11949
▁traveled	-11950
▁téléphon	-11951
▁Pacifique	-11952
▁accomplir	-11953
▁disorders	-11954
▁identical	-11955
▁inspiring	-11956
▁telescope	-11957
▁prototypes	-11958
▁strategies	-11959
▁philosophie	-11960
▁photographe	-11961
▁performances	-11962
▁personnelles	-11963
▁intelligentes	-11964
▁vieillissement	-11965
SP	-11966
da	-11967
ONU	-11968
adm	-11969
isa	-11970
▁ra	-11971
apor	-11972
ault	-11973
obsc	-11974
olet	-11975
olum	-11976
prim	-11977
▁190	-11978
▁réd	-11979
ctors	-11980
ennis	-11981
estim	-11982
ignor	-11983
maker	-11984
overn	-11985
while	-11986
écriv	-11987
▁1950	-11988
▁Gard	-11989
▁Nike	-11990
▁Souv	-11991
▁bias	-11992
▁coch	-11993
▁disg	-11994
▁iPod	-11995
▁indu	-11996
▁stun	-11997
icking	-11998
orment	-11999
▁Camer	-12000
▁Media	-12001
▁doors	-12002
▁impat	-12003
▁knock	-12004
▁mérit	-12005
▁nôtre	-12006
▁prize	-12007
▁stere	-12008
▁thumb	-12009
atrices	-12010
ensible	-12011
▁Watson	-12012
▁envoie	-12013
▁fabule	-12014
▁genius	-12015
▁hearts	-12016
▁pocket	-12017
▁proced	-12018
▁procès	-12019
▁soyons	-12020
▁tribus	-12021
▁élevée	-12022
▁beliefs	-12023
▁compell	-12024
▁dancing	-12025
▁earthqu	-12026
▁promote	-12027
▁prosper	-12028
▁raising	-12029
▁révéler	-12030
▁windows	-12031
▁accepted	-12032
▁comparer	-12033
▁dauphins	-12034
▁disorder	-12035
▁hardware	-12036
▁malheure	-12037
▁remonter	-12038
▁treating	-12039
▁vaccines	-12040
▁component	-12041
▁télécharg	-12042
▁Geographic	-12043
▁développés	-12044
▁architectes	-12045
▁grandfather	-12046
▁Heureusement	-12047
▁dramatically	-12048
▁heureusement	-12049
▁réfléchissez	-12050
▁neighborhoods	-12051
chés	-12052
gers	-12053
ican	-12054
oids	-12055
ords	-12056
ître	-12057
▁192	-12058
▁Aug	-12059
▁Sau	-12060
▁cyl	-12061
▁féd	-12062
▁tea	-12063
glise	-12064
illon	-12065
stage	-12066
ulous	-12067
▁Rick	-12068
▁cage	-12069
▁cash	-12070
▁payé	-12071
▁plug	-12072
▁rail	-12073
▁seas	-12074
▁témo	-12075
▁élab	-12076
mental	-12077
upiter	-12078
éviter	-12079
▁Haiti	-12080
▁Saint	-12081
▁aster	-12082
▁basse	-12083
▁bombs	-12084
▁gorge	-12085
▁seeds	-12086
▁seuil	-12087
▁sexes	-12088
▁toler	-12089
▁écras	-12090
Austral	-12091
izabeth	-12092
étaires	-12093
étudier	-12094
▁Joseph	-12095
▁blague	-12096
▁clinic	-12097
▁faveur	-12098
▁immune	-12099
▁lutter	-12100
▁montée	-12101
▁paraly	-12102
▁placed	-12103
▁prepar	-12104
▁rising	-12105
▁saisir	-12106
▁tables	-12107
Bretagne	-12108
▁Clinton	-12109
▁Quelles	-12110
▁amélior	-12111
▁appréci	-12112
▁comparé	-12113
▁consent	-12114
▁cricket	-12115
▁Africans	-12116
▁approxim	-12117
▁bureaucr	-12118
▁désastre	-12119
▁imagined	-12120
▁lunettes	-12121
▁organize	-12122
▁retourne	-12123
▁vivaient	-12124
▁consumers	-12125
▁musiciens	-12126
▁équilibre	-12127
▁collecting	-12128
▁commitment	-12129
▁identiques	-12130
▁performing	-12131
▁projection	-12132
▁sophistiqu	-12133
▁perspectives	-12134
▁productivity	-12135
bat	-12136
raw	-12137
yon	-12138
fond	-12139
illé	-12140
lace	-12141
olic	-12142
unis	-12143
▁Méd	-12144
▁NSA	-12145
▁Rép	-12146
▁agr	-12147
▁alc	-12148
▁god	-12149
▁gut	-12150
imité	-12151
istre	-12152
unité	-12153
▁Camp	-12154
▁Hist	-12155
▁dust	-12156
▁fulf	-12157
▁leap	-12158
▁maqu	-12159
▁panc	-12160
▁proj	-12161
▁relâ	-12162
▁stig	-12163
ancien	-12164
▁femin	-12165
▁recru	-12166
▁scary	-12167
▁serai	-12168
▁tired	-12169
▁Sweden	-12170
▁contag	-12171
▁graves	-12172
▁heroes	-12173
▁tombée	-12174
▁étudie	-12175
▁Chinois	-12176
▁Jupiter	-12177
▁appears	-12178
▁collaps	-12179
▁donnons	-12180
▁mammals	-12181
▁plafond	-12182
▁servent	-12183
▁Research	-12184
▁grateful	-12185
▁parallel	-12186
▁produces	-12187
▁réserves	-12188
engagement	-12189
▁Alzheimer	-12190
▁authentic	-12191
▁colleague	-12192
▁pingouins	-12193
▁robotique	-12194
▁Revolution	-12195
▁collaborat	-12196
▁financiers	-12197
▁simplicité	-12198
augmentation	-12199
informatique	-12200
▁astonishing	-12201
hop	-12202
abes	-12203
lons	-12204
rite	-12205
tems	-12206
walk	-12207
étér	-12208
▁350	-12209
▁Vin	-12210
accél	-12211
▁bars	-12212
▁delà	-12213
▁enzy	-12214
▁nest	-12215
▁allem	-12216
▁boire	-12217
▁decre	-12218
▁enemy	-12219
▁freez	-12220
▁monté	-12221
▁rhyth	-12222
▁récit	-12223
century	-12224
▁dégrad	-12225
▁frappé	-12226
▁mainly	-12227
▁pathog	-12228
▁portes	-12229
▁précip	-12230
▁thrown	-12231
▁transm	-12232
épidémie	-12233
▁General	-12234
▁TEDTalk	-12235
▁gouvern	-12236
▁imaginé	-12237
▁mobiles	-12238
▁publish	-12239
ieusement	-12240
▁Atlantic	-12241
▁altitude	-12242
▁apparaît	-12243
▁archives	-12244
▁diverses	-12245
▁involves	-12246
▁isolated	-12247
▁meetings	-12248
▁properly	-12249
▁recovery	-12250
▁transmet	-12251
▁committed	-12252
▁demandant	-12253
▁insurance	-12254
▁paludisme	-12255
▁religieux	-12256
▁supporter	-12257
▁cartograph	-12258
▁exhibition	-12259
▁intentions	-12260
▁controlling	-12261
▁secondaires	-12262
▁trajectoire	-12263
▁échantillons	-12264
▁contrairement	-12265
▁caractéristique	-12266
eu	-12267
ady	-12268
pha	-12269
▁DV	-12270
▁ok	-12271
iées	-12272
opie	-12273
roll	-12274
▁PDG	-12275
burgh	-12276
clear	-12277
peare	-12278
ynman	-12279
étape	-12280
▁Kenn	-12281
▁Pitt	-12282
▁flip	-12283
▁prét	-12284
▁îles	-12285
expert	-12286
▁Grâce	-12287
▁banks	-12288
▁fluid	-12289
▁manqu	-12290
▁reten	-12291
▁stack	-12292
▁ultra	-12293
dessous	-12294
mençons	-12295
▁Durant	-12296
▁Lorsqu	-12297
▁Michel	-12298
▁colony	-12299
▁corals	-12300
▁facial	-12301
▁reveal	-12302
▁usines	-12303
inventer	-12304
ressions	-12305
▁Feynman	-12306
▁attirer	-12307
▁cheaper	-12308
▁citizen	-12309
▁fulfill	-12310
▁license	-12311
▁mangent	-12312
▁metabol	-12313
▁mettant	-12314
▁racines	-12315
▁visions	-12316
akespeare	-12317
▁academic	-12318
▁appeared	-12319
▁enseigne	-12320
▁faisions	-12321
▁guarante	-12322
▁ralentir	-12323
▁remercie	-12324
▁réunions	-12325
▁épidémie	-12326
▁curiosity	-12327
▁elsewhere	-12328
▁paintings	-12329
▁portraits	-12330
▁protocell	-12331
▁cardiaques	-12332
▁fascinated	-12333
▁opérations	-12334
▁réputation	-12335
▁supérieure	-12336
▁interacting	-12337
▁personality	-12338
▁discrimination	-12339
EC	-12340
Ex	-12341
IS	-12342
jo	-12343
Let	-12344
dri	-12345
net	-12346
ulg	-12347
▁MK	-12348
▁gh	-12349
alem	-12350
amis	-12351
aule	-12352
▁Ron	-12353
▁irr	-12354
esity	-12355
flies	-12356
▁Matt	-12357
▁erad	-12358
▁guit	-12359
▁lung	-12360
▁rush	-12361
inière	-12362
▁Donne	-12363
▁aside	-12364
▁assur	-12365
▁blank	-12366
▁brown	-12367
▁folle	-12368
▁paire	-12369
▁smoke	-12370
▁tromp	-12371
▁units	-12372
▁unité	-12373
obésité	-12374
▁divide	-12375
▁excess	-12376
▁oldest	-12377
▁plenty	-12378
▁powers	-12379
▁prices	-12380
▁repeat	-12381
olumines	-12382
▁entered	-12383
▁grosses	-12384
▁rejoint	-12385
▁sauvage	-12386
▁controls	-12387
▁elephant	-12388
▁embedded	-12389
▁passions	-12390
▁théories	-12391
Angleterre	-12392
▁apartment	-12393
▁catégorie	-12394
▁copyright	-12395
▁demandait	-12396
▁diffusion	-12397
▁intéresse	-12398
▁parachute	-12399
▁promotion	-12400
▁sensibles	-12401
▁Commençons	-12402
▁construite	-12403
▁invisibles	-12404
▁moustiques	-12405
▁permanence	-12406
▁construisent	-12407
▁installation	-12408
▁satisfaction	-12409
▁entertainment	-12410
▁significative	-12411
▁universitaire	-12412
At	-12413
Tu	-12414
ano	-12415
blé	-12416
▁37	-12417
▁ov	-12418
▁ub	-12419
adel	-12420
fare	-12421
▁Ten	-12422
▁apt	-12423
▁enh	-12424
▁mén	-12425
▁pit	-12426
▁pix	-12427
▁quo	-12428
liers	-12429
rison	-12430
▁dame	-12431
▁laid	-12432
otypes	-12433
▁Stone	-12434
▁Suède	-12435
▁gamin	-12436
▁repos	-12437
▁sauvé	-12438
▁singe	-12439
▁tries	-12440
érieurs	-12441
▁Singap	-12442
▁Tasman	-12443
▁célébr	-12444
▁décomp	-12445
▁escape	-12446
▁filter	-12447
▁geomet	-12448
▁missed	-12449
▁préjug	-12450
▁pushed	-12451
▁renfor	-12452
▁rescue	-12453
▁résumé	-12454
▁sphere	-12455
▁spider	-12456
itations	-12457
▁extinct	-12458
▁monkeys	-12459
▁municip	-12460
▁painful	-12461
▁potable	-12462
▁removed	-12463
▁secours	-12464
▁unbelie	-12465
individus	-12466
obscurité	-12467
▁attached	-12468
▁dépenses	-12469
▁globally	-12470
▁impliqué	-12471
▁reaching	-12472
▁solaires	-12473
▁transmit	-12474
▁Alexander	-12475
▁abandonné	-12476
▁africains	-12477
▁demandais	-12478
▁lifestyle	-12479
▁mutations	-12480
▁organisme	-12481
▁permettez	-12482
▁souffrent	-12483
▁telephone	-12484
▁optimistic	-12485
▁recognized	-12486
▁smartphone	-12487
▁écologique	-12488
▁Shakespeare	-12489
▁cooperation	-12490
▁financement	-12491
▁prisonniers	-12492
▁spectacular	-12493
▁spectaculaire	-12494
BC	-12495
loc	-12496
ôts	-12497
keep	-12498
▁Leg	-12499
▁Mos	-12500
ading	-12501
arten	-12502
eters	-12503
group	-12504
ipped	-12505
worth	-12506
▁Mess	-12507
▁Sher	-12508
▁curr	-12509
▁débr	-12510
▁empê	-12511
▁géom	-12512
▁mâle	-12513
▁peer	-12514
▁sque	-12515
▁Simon	-12516
▁crops	-12517
▁flott	-12518
▁gamme	-12519
▁ratio	-12520
▁sacré	-12521
▁tasks	-12522
▁tight	-12523
▁uncom	-12524
▁vache	-12525
▁veter	-12526
interpr	-12527
▁Arthur	-12528
▁Fellow	-12529
▁attrap	-12530
▁cosmos	-12531
▁emails	-12532
▁lovely	-12533
aluation	-12534
children	-12535
▁banques	-12536
▁dignité	-12537
▁divided	-12538
▁entoure	-12539
▁homosex	-12540
▁métabol	-12541
▁survécu	-12542
▁vouliez	-12543
▁whereas	-12544
▁échange	-12545
▁établir	-12546
▁Jonathan	-12547
▁breaking	-12548
▁darkness	-12549
▁marchent	-12550
▁primaire	-12551
▁describes	-12552
▁microscop	-12553
▁virtually	-12554
▁biolumines	-12555
▁culturelle	-12556
▁plateforme	-12557
▁protecting	-12558
▁volunteers	-12559
▁antibiotics	-12560
▁disposition	-12561
▁universités	-12562
▁échantillon	-12563
▁coordination	-12564
▁intéressants	-12565
infrastructure	-12566
▁programmation	-12567
ja	-12568
ît	-12569
obi	-12570
▁ho	-12571
▁ru	-12572
acts	-12573
cton	-12574
opin	-12575
plus	-12576
ycle	-12577
▁50%	-12578
▁Had	-12579
▁Tre	-12580
▁ham	-12581
ansas	-12582
class	-12583
enger	-12584
front	-12585
iders	-12586
onnée	-12587
onnés	-12588
▁Gene	-12589
▁News	-12590
▁brow	-12591
▁gray	-12592
▁lens	-12593
▁émet	-12594
ighted	-12595
lessly	-12596
▁Larry	-12597
▁align	-12598
▁banqu	-12599
▁cesse	-12600
▁coach	-12601
▁drove	-12602
▁lingu	-12603
▁liver	-12604
▁remix	-12605
▁schol	-12606
▁usual	-12607
▁utter	-12608
▁wound	-12609
ondance	-12610
édition	-12611
▁Wright	-12612
▁boucle	-12613
▁crying	-12614
▁décoll	-12615
▁hungry	-12616
▁insist	-12617
▁needle	-12618
▁poussé	-12619
▁rendue	-12620
▁échoué	-12621
▁brevets	-12622
▁density	-12623
▁femelle	-12624
▁monitor	-12625
▁négatif	-12626
▁obesity	-12627
▁partagé	-12628
▁uniques	-12629
▁wanting	-12630
▁captured	-12631
▁créatifs	-12632
▁créative	-12633
▁gigantes	-12634
▁penguins	-12635
▁provides	-12636
▁reported	-12637
▁shopping	-12638
▁traduire	-12639
exposition	-12640
▁conflicts	-12641
▁connectés	-12642
▁ressource	-12643
▁surmonter	-12644
▁confrontés	-12645
▁mécanismes	-12646
▁nucléaires	-12647
▁coopération	-12648
▁quotidienne	-12649
▁underground	-12650
▁expectations	-12651
▁universities	-12652
▁environnements	-12653
acé	-12654
arp	-12655
eds	-12656
upt	-12657
▁4,	-12658
▁SW	-12659
hour	-12660
rale	-12661
▁DVD	-12662
▁Kim	-12663
▁tip	-12664
endez	-12665
ercul	-12666
optim	-12667
▁pare	-12668
▁slog	-12669
▁émer	-12670
iminer	-12671
▁caché	-12672
▁dirty	-12673
▁locom	-12674
▁ondes	-12675
▁yield	-12676
▁étiqu	-12677
affaire	-12678
osphère	-12679
étation	-12680
▁cousin	-12681
▁normes	-12682
▁oiseau	-12683
▁protoc	-12684
▁transg	-12685
▁urbain	-12686
▁ventil	-12687
appareil	-12688
épendant	-12689
▁Nothing	-12690
▁arrivez	-12691
▁associé	-12692
▁dioxide	-12693
▁ouverts	-12694
▁rainfor	-12695
▁remplir	-12696
▁virtuel	-12697
Australie	-12698
▁amateurs	-12699
▁chocolat	-12700
▁conduite	-12701
▁laughing	-12702
▁lucratif	-12703
▁particle	-12704
▁textbook	-12705
▁transmis	-12706
▁administr	-12707
▁continues	-12708
▁depending	-12709
▁hypothèse	-12710
▁infantile	-12711
▁intuitive	-12712
▁ordinaire	-12713
▁apparaître	-12714
▁historical	-12715
▁britannique	-12716
▁discoveries	-12717
▁fluorescent	-12718
▁principales	-12719
▁progression	-12720
▁efficacement	-12721
▁antibiotiques	-12722
ETI	-12723
oil	-12724
appl	-12725
case	-12726
iday	-12727
tait	-12728
▁Bos	-12729
▁ONG	-12730
▁Sea	-12731
▁Van	-12732
▁pne	-12733
èvres	-12734
▁Arct	-12735
▁Back	-12736
▁Budd	-12737
▁Leon	-12738
▁Mass	-12739
▁Prob	-12740
▁cute	-12741
▁lève	-12742
▁rely	-12743
▁till	-12744
anding	-12745
archer	-12746
cedent	-12747
entrer	-12748
ouvant	-12749
▁McDon	-12750
▁River	-12751
▁Voice	-12752
▁fuels	-12753
▁pione	-12754
▁pires	-12755
▁purch	-12756
▁relat	-12757
▁rocks	-12758
ogether	-12759
ulteurs	-12760
usiness	-12761
éroport	-12762
▁Colomb	-12763
▁Julian	-12764
▁ajouté	-12765
▁borrow	-12766
▁dépass	-12767
▁feront	-12768
▁goutte	-12769
▁poulet	-12770
▁revoir	-12771
▁révèle	-12772
▁spoken	-12773
▁weapon	-12774
▁Charlie	-12775
▁Islamic	-12776
▁dignity	-12777
▁drivers	-12778
▁footage	-12779
▁intrigu	-12780
▁oublier	-12781
▁superbe	-12782
▁typique	-12783
▁variété	-12784
▁assemble	-12785
▁bactérie	-12786
▁constaté	-12787
▁défendre	-12788
▁démontré	-12789
▁fenêtres	-12790
▁mystérie	-12791
▁obstacle	-12792
▁official	-12793
▁paraître	-12794
▁refugees	-12795
▁secteurs	-12796
▁compromis	-12797
▁consensus	-12798
▁dedicated	-12799
▁nécessite	-12800
▁printemps	-12801
▁Angleterre	-12802
▁commission	-12803
▁partageons	-12804
▁soudainement	-12805
BA	-12806
ju	-12807
va	-12808
▁Ir	-12809
▁JH	-12810
fall	-12811
inés	-12812
isph	-12813
omat	-12814
utch	-12815
▁80%	-12816
▁90%	-12817
▁Aux	-12818
▁McC	-12819
▁Out	-12820
▁Tib	-12821
▁hat	-12822
▁sed	-12823
There	-12824
aviez	-12825
ierra	-12826
ommun	-12827
▁Bell	-12828
▁Conf	-12829
▁adap	-12830
▁bass	-12831
▁dump	-12832
▁pool	-12833
▁sois	-12834
▁triv	-12835
▁vice	-12836
estine	-12837
ptions	-12838
▁Arist	-12839
▁Colle	-12840
▁Ocean	-12841
▁Woman	-12842
▁absur	-12843
▁céléb	-12844
▁mythe	-12845
▁roots	-12846
▁verts	-12847
iveness	-12848
èvement	-12849
▁20,000	-12850
▁50,000	-12851
▁barely	-12852
▁bullet	-12853
▁carrés	-12854
▁habits	-12855
▁immers	-12856
▁régler	-12857
affaires	-12858
aticiens	-12859
attendre	-12860
▁baleine	-12861
▁defense	-12862
▁entrent	-12863
▁faciles	-12864
▁glucose	-12865
▁peindre	-12866
▁refroid	-12867
▁agencies	-12868
▁attraper	-12869
▁contains	-12870
▁diabetes	-12871
▁domestic	-12872
▁estimate	-12873
▁scénario	-12874
▁shooting	-12875
▁unlikely	-12876
▁construct	-12877
▁delivered	-12878
▁diagnosed	-12879
▁fortement	-12880
▁poussière	-12881
▁reprendre	-12882
▁sacrifice	-12883
▁searching	-12884
▁sexuelles	-12885
▁étrangers	-12886
▁Department	-12887
▁interfaces	-12888
▁intéressés	-12889
▁inventions	-12890
▁minuscules	-12891
▁opposition	-12892
▁champignons	-12893
▁conclusions	-12894
▁transporter	-12895
▁émotionnelle	-12896
▁architectural	-12897
non	-12898
▁!"	-12899
▁72	-12900
▁Ve	-12901
bage	-12902
icks	-12903
oked	-12904
zens	-12905
▁Cin	-12906
▁Eve	-12907
▁bug	-12908
▁nés	-12909
aband	-12910
ayons	-12911
grade	-12912
▁Kell	-12913
▁axis	-12914
▁siff	-12915
▁tenu	-12916
▁étro	-12917
aignée	-12918
éclair	-12919
▁2003,	-12920
▁copie	-12921
▁hauts	-12922
▁jouet	-12923
▁likes	-12924
▁wings	-12925
iscover	-12926
▁Indeed	-12927
▁assure	-12928
▁locked	-12929
▁output	-12930
▁repose	-12931
▁scales	-12932
▁silent	-12933
▁stages	-12934
▁ticket	-12935
▁tricks	-12936
empêcher	-12937
▁Stewart	-12938
▁affecte	-12939
▁baisser	-12940
▁comport	-12941
▁conduct	-12942
▁parlais	-12943
▁portion	-12944
▁printed	-12945
▁retenir	-12946
▁scratch	-12947
▁tragedy	-12948
▁arrivons	-12949
▁ennuyeux	-12950
▁essaient	-12951
▁magnetic	-12952
▁marathon	-12953
▁sanguins	-12954
étiquement	-12955
▁Président	-12956
▁critiques	-12957
▁déplacent	-12958
▁furniture	-12959
▁uncertain	-12960
interaction	-12961
▁affordable	-12962
▁functional	-12963
▁incentives	-12964
▁advertising	-12965
▁constitution	-12966
▁photographer	-12967
wis	-12968
▁Kh	-12969
▁Ug	-12970
▁kg	-12971
aron	-12972
born	-12973
chet	-12974
emic	-12975
inse	-12976
lies	-12977
nipr	-12978
osen	-12979
ping	-12980
raig	-12981
rick	-12982
▁Emp	-12983
▁Sah	-12984
▁eut	-12985
aints	-12986
alian	-12987
arbre	-12988
sters	-12989
utive	-12990
▁Beij	-12991
▁Lego	-12992
▁ages	-12993
▁beer	-12994
▁bous	-12995
▁cube	-12996
▁dive	-12997
▁guns	-12998
▁monn	-12999
▁suck	-13000
▁voca	-13001
adelph	-13002
aspect	-13003
dollar	-13004
otique	-13005
ualité	-13006
▁Louis	-13007
▁chers	-13008
▁embry	-13009
▁incon	-13010
▁shake	-13011
▁sheep	-13012
▁views	-13013
▁Argent	-13014
▁bulles	-13015
▁capita	-13016
▁détour	-13017
▁enrich	-13018
▁fortes	-13019
▁grains	-13020
▁jungle	-13021
▁lawyer	-13022
▁layers	-13023
▁patrim	-13024
▁prosth	-13025
▁surely	-13026
▁vivait	-13027
▁consume	-13028
▁proposé	-13029
▁publier	-13030
▁refugee	-13031
▁sachant	-13032
▁texture	-13033
▁visited	-13034
▁vivante	-13035
▁entendez	-13036
▁extraire	-13037
▁laissent	-13038
▁origines	-13039
▁paysages	-13040
▁spatiale	-13041
▁vacances	-13042
▁évidence	-13043
▁Elizabeth	-13044
▁aléatoire	-13045
▁créateurs	-13046
▁generated	-13047
▁investing	-13048
▁messieurs	-13049
▁suffisant	-13050
▁apparently	-13051
▁distribute	-13052
▁inégalités	-13053
▁association	-13054
▁explication	-13055
▁ingredients	-13056
▁occidentale	-13057
▁apparaissent	-13058
▁breakthrough	-13059
▁prostitution	-13060
▁transparency	-13061
▁interventions	-13062
Ah	-13063
enz	-13064
las	-13065
nut	-13066
oue	-13067
▁IM	-13068
▁Id	-13069
ogén	-13070
orps	-13071
▁10-	-13072
▁Gro	-13073
▁Mas	-13074
▁Pot	-13075
▁Vol	-13076
▁aer	-13077
▁alt	-13078
▁pub	-13079
▁tig	-13080
cular	-13081
ersey	-13082
keley	-13083
ommes	-13084
▁Mons	-13085
▁SETI	-13086
▁nets	-13087
▁porn	-13088
▁toys	-13089
▁whis	-13090
usalem	-13091
ustice	-13092
▁2006,	-13093
▁Harry	-13094
▁Santa	-13095
▁abund	-13096
▁aimez	-13097
▁cruci	-13098
▁fermé	-13099
▁fifth	-13100
▁finds	-13101
▁idéal	-13102
▁légis	-13103
▁opens	-13104
▁ouvre	-13105
▁proof	-13106
▁revue	-13107
▁skull	-13108
▁stops	-13109
▁stéré	-13110
forward	-13111
▁Allons	-13112
▁chaude	-13113
▁diable	-13114
▁diront	-13115
▁déprim	-13116
▁emprun	-13117
▁frozen	-13118
▁legacy	-13119
▁perpét	-13120
▁repart	-13121
▁subtle	-13122
▁titres	-13123
enseigne	-13124
▁ceiling	-13125
▁charity	-13126
▁couvrir	-13127
▁exposed	-13128
▁federal	-13129
▁opposed	-13130
▁perturb	-13131
▁restait	-13132
▁victime	-13133
▁dolphins	-13134
▁extrêmes	-13135
▁inventer	-13136
▁parvenir	-13137
▁proposer	-13138
▁symboles	-13139
▁announced	-13140
▁appliquer	-13141
▁attendent	-13142
▁expertise	-13143
▁magnitude	-13144
▁privilège	-13145
▁Philadelph	-13146
▁boundaries	-13147
▁maternelle	-13148
▁territoire	-13149
alimentation	-13150
▁programming	-13151
▁biodiversité	-13152
.»	-13153
Si	-13154
aby	-13155
eal	-13156
pet	-13157
toi	-13158
▁48	-13159
astr	-13160
ayez	-13161
èner	-13162
▁30,	-13163
▁Bet	-13164
▁Bru	-13165
▁Sys	-13166
▁Tam	-13167
Union	-13168
enter	-13169
isser	-13170
marin	-13171
▁Homo	-13172
▁Kong	-13173
▁Lang	-13174
▁Play	-13175
▁fame	-13176
▁gram	-13177
▁hire	-13178
▁ugly	-13179
charge	-13180
▁Unies	-13181
▁Venez	-13182
▁actif	-13183
▁brave	-13184
▁calme	-13185
▁elder	-13186
▁exter	-13187
▁fondé	-13188
▁idiot	-13189
▁inclu	-13190
▁laver	-13191
▁métro	-13192
▁outre	-13193
▁panel	-13194
▁préco	-13195
▁téléc	-13196
▁unpre	-13197
▁upset	-13198
▁vétér	-13199
asseoir	-13200
étrique	-13201
▁Disney	-13202
▁Joshua	-13203
▁apparu	-13204
▁arrang	-13205
▁chosen	-13206
▁comics	-13207
▁cyberc	-13208
▁export	-13209
▁fantas	-13210
▁froide	-13211
▁hardly	-13212
▁rentré	-13213
▁senior	-13214
▁sensor	-13215
▁triang	-13216
essayais	-13217
▁allions	-13218
▁diabète	-13219
▁letting	-13220
▁marques	-13221
▁painted	-13222
▁recycle	-13223
▁regener	-13224
▁reviend	-13225
▁smoking	-13226
▁trigger	-13227
▁aveugles	-13228
▁contamin	-13229
▁external	-13230
▁fermiers	-13231
▁installé	-13232
▁promesse	-13233
▁scenario	-13234
▁transist	-13235
▁tubercul	-13236
▁chocolate	-13237
▁encounter	-13238
▁extérieur	-13239
▁magazines	-13240
▁parcourir	-13241
▁possèdent	-13242
▁reduction	-13243
▁perfection	-13244
▁resolution	-13245
▁simplicity	-13246
▁supermarch	-13247
▁treatments	-13248
▁demonstrate	-13249
▁disappeared	-13250
▁essentielle	-13251
▁supplémentaire	-13252
DE	-13253
So	-13254
éte	-13255
▁JF	-13256
▁MR	-13257
erey	-13258
ideo	-13259
rary	-13260
tery	-13261
ueil	-13262
érez	-13263
▁Den	-13264
▁Det	-13265
▁Rad	-13266
▁ooh	-13267
Ouest	-13268
archy	-13269
iogen	-13270
owing	-13271
▁Brad	-13272
▁Jill	-13273
▁Turn	-13274
▁caps	-13275
▁guid	-13276
▁palm	-13277
▁prev	-13278
ifiées	-13279
ouvons	-13280
venons	-13281
érarch	-13282
▁apple	-13283
▁gonna	-13284
▁lobby	-13285
▁monit	-13286
▁nager	-13287
▁plait	-13288
▁revol	-13289
▁régén	-13290
▁tears	-13291
▁vivez	-13292
ocortex	-13293
perform	-13294
urgence	-13295
▁Scient	-13296
▁dozens	-13297
▁emmené	-13298
▁engagé	-13299
▁expose	-13300
▁majeur	-13301
▁mentor	-13302
▁puisqu	-13303
▁served	-13304
▁shadow	-13305
▁smooth	-13306
▁supern	-13307
▁trends	-13308
▁voyant	-13309
▁étages	-13310
aughters	-13311
▁absence	-13312
▁anxiety	-13313
▁diminue	-13314
▁gratuit	-13315
▁mouches	-13316
▁peuples	-13317
▁prévoir	-13318
▁renvers	-13319
▁slavery	-13320
▁touched	-13321
▁voyages	-13322
invention	-13323
▁Berkeley	-13324
▁Children	-13325
▁Monterey	-13326
▁activist	-13327
▁avancées	-13328
▁aventure	-13329
▁minister	-13330
▁musulman	-13331
▁provoque	-13332
▁sauvages	-13333
▁theories	-13334
▁thérapie	-13335
▁anciennes	-13336
▁attendant	-13337
▁backwards	-13338
▁variables	-13339
▁virtuelle	-13340
▁Antarctica	-13341
▁earthquake	-13342
▁interviews	-13343
▁mysterious	-13344
▁équipement	-13345
▁biologistes	-13346
▁limitations	-13347
▁informatiques	-13348
He	-13349
oz	-13350
Wow	-13351
mal	-13352
obt	-13353
wan	-13354
acre	-13355
mers	-13356
urse	-13357
writ	-13358
yard	-13359
▁900	-13360
▁McG	-13361
▁Off	-13362
▁Was	-13363
▁île	-13364
▁Data	-13365
▁Dire	-13366
▁Free	-13367
▁Marg	-13368
▁gris	-13369
▁joli	-13370
▁lift	-13371
▁liné	-13372
▁orth	-13373
▁pink	-13374
▁sche	-13375
▁surg	-13376
▁tied	-13377
▁éter	-13378
ggling	-13379
terdam	-13380
▁2004,	-13381
▁Monde	-13382
▁Parmi	-13383
▁accus	-13384
▁chest	-13385
▁codes	-13386
▁meter	-13387
▁repro	-13388
▁sheet	-13389
▁têtes	-13390
▁éparg	-13391
▁August	-13392
▁Luther	-13393
▁Malgré	-13394
▁Portug	-13395
▁Really	-13396
▁entrée	-13397
▁farmer	-13398
▁masses	-13399
▁mouche	-13400
▁shrimp	-13401
ervation	-13402
érieures	-13403
étranger	-13404
▁avancée	-13405
▁clavier	-13406
▁disturb	-13407
▁enlever	-13408
▁fassent	-13409
▁passive	-13410
▁reconnu	-13411
▁visiter	-13412
▁Mesdames	-13413
▁Narrator	-13414
▁attentes	-13415
▁biotechn	-13416
▁devienne	-13417
▁fabrique	-13418
▁focusing	-13419
▁fragment	-13420
▁lighting	-13421
▁parasite	-13422
▁poussent	-13423
▁périodes	-13424
▁tableaux	-13425
▁tiennent	-13426
▁étranges	-13427
▁autrefois	-13428
▁governance	-13429
▁integrated	-13430
▁puissantes	-13431
▁signifiait	-13432
entraînement	-13433
▁computation	-13434
▁photography	-13435
▁utilisation	-13436
▁alimentaires	-13437
▁traditionnel	-13438
▁merveilleuses	-13439
▁uncomfortable	-13440
▁reconstruction	-13441
▁technologiques	-13442
▁characteristics	-13443
"?	-13444
oen	-13445
rén	-13446
syl	-13447
▁JS	-13448
▁na	-13449
free	-13450
otte	-13451
oudd	-13452
pace	-13453
robi	-13454
uyer	-13455
▁50,	-13456
▁aig	-13457
acier	-13458
antic	-13459
ckets	-13460
force	-13461
irent	-13462
irons	-13463
ittle	-13464
▁Aust	-13465
▁debt	-13466
▁glad	-13467
▁guér	-13468
▁hect	-13469
▁infr	-13470
▁wise	-13471
▁ailes	-13472
▁corré	-13473
▁disag	-13474
▁drawn	-13475
▁déten	-13476
▁naked	-13477
▁piste	-13478
▁taxes	-13479
▁valid	-13480
▁Copenh	-13481
▁Europé	-13482
▁Nathan	-13483
▁actors	-13484
▁agency	-13485
▁anatom	-13486
▁bouill	-13487
▁dormir	-13488
▁déclin	-13489
▁emerge	-13490
▁emphas	-13491
▁guérir	-13492
▁rating	-13493
▁sacred	-13494
▁tribes	-13495
▁écoute	-13496
▁écrans	-13497
▁Pennsyl	-13498
▁Through	-13499
▁accéder	-13500
▁amongst	-13501
▁failing	-13502
▁garbage	-13503
▁granted	-13504
▁hanging	-13505
▁légumes	-13506
▁officer	-13507
▁passing	-13508
▁picking	-13509
▁reports	-13510
▁speaker	-13511
essentiel	-13512
▁autonome	-13513
▁doctorat	-13514
▁dynamics	-13515
▁examiner	-13516
▁habitats	-13517
▁membrane	-13518
▁obtenons	-13519
▁Allemagne	-13520
▁conserver	-13521
▁constante	-13522
▁démontrer	-13523
▁effrayant	-13524
▁habitudes	-13525
▁intérieur	-13526
▁percevoir	-13527
▁rendement	-13528
▁suivantes	-13529
▁universel	-13530
▁abandonner	-13531
▁compelling	-13532
▁secondaire	-13533
▁connaissais	-13534
▁moléculaire	-13535
▁publication	-13536
▁catastrophes	-13537
▁démocratique	-13538
▁propriétaire	-13539
▁signification	-13540
▁investissement	-13541
jou	-13542
éon	-13543
▁44	-13544
▁BM	-13545
▁Up	-13546
▁Wi	-13547
avis	-13548
reur	-13549
ship	-13550
town	-13551
wing	-13552
▁Fem	-13553
▁Jay	-13554
▁Mid	-13555
▁Put	-13556
▁Tok	-13557
▁bub	-13558
▁ski	-13559
▁sév	-13560
▁vus	-13561
arium	-13562
mates	-13563
matic	-13564
omper	-13565
produ	-13566
érale	-13567
▁2008	-13568
▁Norv	-13569
▁Plan	-13570
▁Sund	-13571
▁couv	-13572
▁lion	-13573
▁semi	-13574
▁sink	-13575
option	-13576
émisph	-13577
▁4,000	-13578
▁Absol	-13579
▁Force	-13580
▁Laden	-13581
▁Organ	-13582
▁caves	-13583
▁links	-13584
▁proph	-13585
aticien	-13586
attaque	-13587
unction	-13588
▁Church	-13589
▁Faites	-13590
▁Jersey	-13591
▁Sierra	-13592
▁Things	-13593
▁advers	-13594
▁arrête	-13595
▁balles	-13596
▁bourse	-13597
▁breaks	-13598
▁compli	-13599
▁excité	-13600
▁killer	-13601
▁mélang	-13602
▁oeuvre	-13603
▁paquet	-13604
▁proxim	-13605
▁stores	-13606
▁trajet	-13607
Institut	-13608
attaquer	-13609
orcement	-13610
▁Atlanta	-13611
▁Muslims	-13612
▁analyze	-13613
▁bicycle	-13614
▁empêche	-13615
▁ethical	-13616
▁pleurer	-13617
sociation	-13618
▁aircraft	-13619
▁arrivait	-13620
▁database	-13621
▁durables	-13622
▁hiérarch	-13623
▁interrup	-13624
▁japonais	-13625
▁laughter	-13626
▁northern	-13627
▁romantic	-13628
▁symétrie	-13629
▁totalité	-13630
▁boulevers	-13631
▁constater	-13632
▁impliqués	-13633
▁musicians	-13634
▁passionné	-13635
▁physicist	-13636
▁strangers	-13637
▁Pennsylvan	-13638
▁assistance	-13639
▁conducteur	-13640
▁ecosystems	-13641
▁identified	-13642
▁mechanisms	-13643
▁researcher	-13644
▁struggling	-13645
▁terrorists	-13646
▁volontaire	-13647
▁comparaison	-13648
▁consequence	-13649
▁disciplines	-13650
▁electronics	-13651
▁frustration	-13652
▁ingrédients	-13653
▁volontaires	-13654
▁étonnamment	-13655
▁agricultural	-13656
▁construisons	-13657
▁surprisingly	-13658
▁manifestation	-13659
▁régulièrement	-13660
orb	-13661
▁46	-13662
▁Ye	-13663
▁bâ	-13664
aver	-13665
hous	-13666
izer	-13667
plan	-13668
uish	-13669
▁10.	-13670
▁185	-13671
▁20%	-13672
▁203	-13673
▁Gre	-13674
▁Rec	-13675
▁bos	-13676
▁cér	-13677
▁lar	-13678
accep	-13679
apers	-13680
going	-13681
ictor	-13682
illet	-13683
itime	-13684
stone	-13685
▁Fred	-13686
▁Tell	-13687
▁mold	-13688
▁pant	-13689
▁salt	-13690
▁saur	-13691
▁souc	-13692
▁verb	-13693
Global	-13694
aiment	-13695
asions	-13696
ifient	-13697
romagn	-13698
sembly	-13699
▁Bruce	-13700
▁Tokyo	-13701
▁casse	-13702
▁décid	-13703
▁marry	-13704
▁scand	-13705
▁sonne	-13706
▁tapis	-13707
clavage	-13708
itables	-13709
ustriel	-13710
émotion	-13711
▁avancé	-13712
▁camion	-13713
▁concev	-13714
▁débats	-13715
▁découp	-13716
▁fluctu	-13717
▁frappe	-13718
▁galler	-13719
▁nurses	-13720
▁richer	-13721
▁rivers	-13722
▁réunis	-13723
▁theore	-13724
▁ultime	-13725
▁élever	-13726
explorer	-13727
▁Eastern	-13728
▁déclaré	-13729
▁millier	-13730
▁paradis	-13731
▁plongée	-13732
▁rebuild	-13733
▁rendant	-13734
▁sisters	-13735
▁smarter	-13736
▁welcome	-13737
▁éthique	-13738
▁chinoise	-13739
▁commande	-13740
▁matières	-13741
▁mensonge	-13742
▁musicale	-13743
▁poursuiv	-13744
▁produite	-13745
▁substant	-13746
▁symmetry	-13747
▁variable	-13748
▁cérébrale	-13749
▁illusions	-13750
▁mechanics	-13751
▁assumptions	-13752
▁predictions	-13753
▁remarquables	-13754
11	-13755
Re	-13756
més	-13757
Irak	-13758
arez	-13759
esus	-13760
▁Ger	-13761
▁gad	-13762
▁kit	-13763
▁tut	-13764
Where	-13765
epend	-13766
nante	-13767
▁Doug	-13768
▁Phot	-13769
▁Span	-13770
▁Wolf	-13771
▁blah	-13772
▁boun	-13773
▁dish	-13774
▁irre	-13775
▁issu	-13776
▁mood	-13777
▁poit	-13778
▁refr	-13779
▁wing	-13780
othing	-13781
▁2012,	-13782
▁Alice	-13783
▁Court	-13784
▁Leurs	-13785
▁Voila	-13786
▁bière	-13787
▁chère	-13788
▁cliff	-13789
▁crain	-13790
▁dépla	-13791
▁exped	-13792
▁flour	-13793
▁flows	-13794
▁helic	-13795
▁legit	-13796
▁lungs	-13797
▁marin	-13798
▁poète	-13799
▁récep	-13800
▁révol	-13801
▁scann	-13802
▁tribu	-13803
▁yours	-13804
▁élève	-13805
absence	-13806
chestre	-13807
▁Jewish	-13808
▁Uganda	-13809
▁adding	-13810
▁ethnic	-13811
▁injury	-13812
▁intime	-13813
▁libres	-13814
▁omnipr	-13815
▁prouvé	-13816
▁rarely	-13817
▁recons	-13818
▁thrill	-13819
▁trompe	-13820
▁troupe	-13821
▁voyait	-13822
autorité	-13823
▁Journal	-13824
▁applaud	-13825
▁dépensé	-13826
▁détruit	-13827
▁gagnent	-13828
▁géniale	-13829
▁janvier	-13830
▁pierres	-13831
▁pointed	-13832
▁recours	-13833
organiser	-13834
▁banlieue	-13835
▁barrière	-13836
▁démarrer	-13837
▁pyramide	-13838
▁repeated	-13839
▁returned	-13840
▁étranger	-13841
▁TEDGlobal	-13842
▁attitudes	-13843
▁dependent	-13844
▁elections	-13845
▁synthetic	-13846
▁terrorist	-13847
▁capability	-13848
▁fascinante	-13849
▁originally	-13850
▁gouvernance	-13851
▁improvement	-13852
▁probability	-13853
▁biodiversity	-13854
▁commentaires	-13855
▁fondamentaux	-13856
▁manifestations	-13857
▁traditionnelles	-13858
Can	-13859
jac	-13860
▁ED	-13861
▁EM	-13862
▁GG	-13863
▁RM	-13864
▁cm	-13865
iece	-13866
igan	-13867
mail	-13868
ollo	-13869
oper	-13870
▁160	-13871
▁CEO	-13872
▁Far	-13873
▁Kos	-13874
▁Scr	-13875
▁pel	-13876
ilson	-13877
isode	-13878
▁Camb	-13879
▁Dave	-13880
▁agit	-13881
▁bats	-13882
▁clon	-13883
▁jume	-13884
▁perç	-13885
▁pist	-13886
▁piét	-13887
▁sits	-13888
▁supr	-13889
erland	-13890
▁Italy	-13891
▁clich	-13892
▁craft	-13893
▁drill	-13894
▁gases	-13895
▁holds	-13896
▁reefs	-13897
▁safer	-13898
▁spots	-13899
▁tweet	-13900
▁échec	-13901
alisées	-13902
▁Social	-13903
▁Within	-13904
▁analyt	-13905
▁brevet	-13906
▁conçus	-13907
▁ensure	-13908
▁forcer	-13909
▁heaven	-13910
▁larmes	-13911
▁murder	-13912
▁patron	-13913
▁scores	-13914
▁sécher	-13915
▁unités	-13916
▁vallée	-13917
▁écouté	-13918
apporter	-13919
endroits	-13920
▁October	-13921
▁articul	-13922
▁chemins	-13923
▁circles	-13924
▁cousins	-13925
▁deserve	-13926
▁examine	-13927
▁formule	-13928
▁prenait	-13929
▁roulant	-13930
▁sensory	-13931
▁sympath	-13932
ertension	-13933
▁Palestin	-13934
▁brillant	-13935
▁concours	-13936
▁croyance	-13937
▁cérébral	-13938
▁femelles	-13939
▁includes	-13940
▁qualités	-13941
ifiquement	-13942
▁apprécier	-13943
▁calculate	-13944
▁contribué	-13945
▁daughters	-13946
▁immeubles	-13947
▁mondiales	-13948
▁musulmans	-13949
▁passerait	-13950
▁provoquer	-13951
▁conscients	-13952
▁hypothèses	-13953
▁tranquille	-13954
▁underlying	-13955
▁département	-13956
Art	-13957
bec	-13958
dis	-13959
enu	-13960
oor	-13961
oué	-13962
pan	-13963
sum	-13964
via	-13965
▁Ky	-13966
Hist	-13967
aphe	-13968
ctus	-13969
idém	-13970
idéo	-13971
oeil	-13972
ohol	-13973
onia	-13974
ulum	-13975
çoit	-13976
▁10%	-13977
▁Gar	-13978
▁Und	-13979
▁hal	-13980
▁mai	-13981
chair	-13982
oenix	-13983
écart	-13984
▁Bali	-13985
▁bain	-13986
▁conj	-13987
▁deme	-13988
▁east	-13989
▁juin	-13990
▁mall	-13991
▁pupp	-13992
▁rabb	-13993
adoles	-13994
amener	-13995
ediate	-13996
effort	-13997
makers	-13998
▁Kelly	-13999
▁Video	-14000
▁aesth	-14001
▁cryst	-14002
▁crâne	-14003
▁créés	-14004
▁piles	-14005
▁punch	-14006
▁sauve	-14007
▁viral	-14008
▁watts	-14009
attente	-14010
▁Orient	-14011
▁Saturn	-14012
▁adopté	-14013
▁enthus	-14014
▁extend	-14015
▁extrém	-14016
▁fought	-14017
▁landed	-14018
▁merely	-14019
▁témoin	-14020
▁waters	-14021
Histoire	-14022
▁Abraham	-14023
▁annoncé	-14024
▁branche	-14025
▁briefly	-14026
▁budgets	-14027
▁chapter	-14028
▁dioxyde	-14029
▁graphic	-14030
▁grottes	-14031
▁manager	-14032
▁menaces	-14033
▁monnaie	-14034
▁pulling	-14035
▁reduced	-14036
▁symbols	-14037
▁Ethiopia	-14038
▁artistic	-14039
▁culturel	-14040
▁delivery	-14041
▁dinosaur	-14042
▁dépasser	-14043
▁entraîne	-14044
▁financer	-14045
▁primates	-14046
▁préférée	-14047
▁radicale	-14048
▁restrict	-14049
▁speakers	-14050
▁tragédie	-14051
▁traversé	-14052
▁vaisseau	-14053
▁voudrait	-14054
▁émission	-14055
▁adventure	-14056
▁aimerions	-14057
▁broadcast	-14058
▁cherchent	-14059
▁diagramme	-14060
▁expanding	-14061
▁fragments	-14062
▁gratitude	-14063
▁hautement	-14064
▁parlaient	-14065
▁transcend	-14066
▁afterwards	-14067
▁consistent	-14068
▁determined	-14069
▁graphiques	-14070
▁ridiculous	-14071
▁suggesting	-14072
▁chimpanzees	-14073
▁agriculteurs	-14074
▁intellectuelle	-14075
▁investissements	-14076
ga	-14077
bru	-14078
nik	-14079
pox	-14080
sex	-14081
▁BJ	-14082
▁CM	-14083
▁Lu	-14084
▁TK	-14085
aded	-14086
chem	-14087
erme	-14088
kind	-14089
lets	-14090
▁Arm	-14091
▁Nam	-14092
▁Pop	-14093
▁Syl	-14094
▁meu	-14095
▁riz	-14096
▁tuy	-14097
allez	-14098
outes	-14099
phere	-14100
raine	-14101
▁100%	-14102
▁Cath	-14103
▁Dick	-14104
▁Pete	-14105
▁Youn	-14106
▁harn	-14107
▁hipp	-14108
▁knee	-14109
▁mate	-14110
▁meal	-14111
▁neat	-14112
▁tong	-14113
▁vacu	-14114
aimais	-14115
approp	-14116
effect	-14117
objets	-14118
▁Cyrus	-14119
▁Keith	-14120
▁Lewis	-14121
▁March	-14122
▁actor	-14123
▁album	-14124
▁cruel	-14125
▁edges	-14126
▁embau	-14127
▁insul	-14128
▁manus	-14129
▁quasi	-14130
▁threw	-14131
▁épuis	-14132
enfance	-14133
quiéter	-14134
related	-14135
ustrial	-14136
viously	-14137
▁Aucune	-14138
▁Banque	-14139
▁bombes	-14140
▁cataly	-14141
▁entrop	-14142
▁faudra	-14143
▁hautes	-14144
▁orbite	-14145
▁passez	-14146
▁pertes	-14147
▁pursue	-14148
▁revers	-14149
▁élimin	-14150
imagerie	-14151
▁farming	-14152
▁founded	-14153
▁happier	-14154
▁magical	-14155
▁normaux	-14156
▁occuper	-14157
▁prostit	-14158
▁shelter	-14159
▁threats	-14160
▁Occident	-14161
▁chapitre	-14162
▁cultiver	-14163
▁devenues	-14164
▁educated	-14165
▁facility	-14166
▁poitrine	-14167
▁reminded	-14168
▁frequency	-14169
▁mentionné	-14170
▁paradigme	-14171
▁parasites	-14172
▁physicien	-14173
▁répondent	-14174
▁separated	-14175
▁squelette	-14176
application	-14177
▁catégories	-14178
▁conviction	-14179
▁extinction	-14180
▁operations	-14181
▁patrimoine	-14182
▁cybercrimin	-14183
▁diapositive	-14184
▁journalists	-14185
administration	-14186
▁globalization	-14187
▁mondialisation	-14188
dé	-14189
Que	-14190
mph	-14191
rof	-14192
ses	-14193
uct	-14194
▁SS	-14195
▁UN	-14196
agen	-14197
ials	-14198
izon	-14199
èvre	-14200
▁'60	-14201
▁coc	-14202
▁oct	-14203
▁pav	-14204
▁tur	-14205
▁voc	-14206
▁wet	-14207
accum	-14208
ernal	-14209
escal	-14210
habil	-14211
oupes	-14212
ribly	-14213
uyant	-14214
▁bags	-14215
▁dégo	-14216
▁exig	-14217
▁mant	-14218
▁mous	-14219
▁négl	-14220
▁soap	-14221
apeaux	-14222
encing	-14223
engine	-14224
phabet	-14225
▁1990,	-14226
▁Jesus	-14227
▁Linux	-14228
▁Phili	-14229
▁Third	-14230
▁Tunis	-14231
▁Watch	-14232
▁arrow	-14233
▁balls	-14234
▁begun	-14235
▁fiber	-14236
▁miser	-14237
▁obsol	-14238
▁realm	-14239
▁relie	-14240
▁reson	-14241
▁seats	-14242
▁skept	-14243
▁symph	-14244
▁taper	-14245
▁tenté	-14246
espèces	-14247
unclear	-14248
▁Columb	-14249
▁Norden	-14250
▁Quatre	-14251
▁accent	-14252
▁actifs	-14253
▁appels	-14254
▁degrad	-14255
▁exprim	-14256
▁feriez	-14257
▁fermer	-14258
▁funded	-14259
▁intact	-14260
▁mienne	-14261
▁shaped	-14262
illusion	-14263
émission	-14264
▁College	-14265
▁Whether	-14266
▁entouré	-14267
▁exploit	-14268
▁imagery	-14269
▁préfère	-14270
▁pyramid	-14271
▁résumer	-14272
▁serions	-14273
▁urbaine	-14274
▁évaluer	-14275
▁contacts	-14276
▁crossing	-14277
▁héritage	-14278
▁informed	-14279
▁insights	-14280
▁intégrer	-14281
▁marchand	-14282
▁maîtrise	-14283
▁measures	-14284
▁missions	-14285
▁récolter	-14286
▁southern	-14287
▁évidente	-14288
▁Australie	-14289
▁depressed	-14290
▁elephants	-14291
▁kilomètre	-14292
▁migration	-14293
▁organiser	-14294
▁radically	-14295
▁suggested	-14296
▁teenagers	-14297
▁additional	-14298
▁biologists	-14299
▁exceptions	-14300
▁improbable	-14301
▁translated	-14302
▁automatique	-14303
▁commerciaux	-14304
▁connaissait	-14305
▁considérons	-14306
▁experimental	-14307
▁terriblement	-14308
▁grandchildren	-14309
▁internationaux	-14310
▁internationales	-14311
CH	-14312
OC	-14313
âts	-14314
▁JA	-14315
Etat	-14316
When	-14317
cool	-14318
igné	-14319
iled	-14320
lées	-14321
mont	-14322
phal	-14323
vant	-14324
▁70,	-14325
▁Mit	-14326
▁Seb	-14327
▁adh	-14328
▁évo	-14329
agées	-14330
aping	-14331
arios	-14332
berry	-14333
huile	-14334
inons	-14335
lable	-14336
umeur	-14337
▁Lord	-14338
▁Nich	-14339
▁acid	-14340
▁hill	-14341
▁labe	-14342
lihood	-14343
obiles	-14344
uganda	-14345
▁2010.	-14346
▁Medic	-14347
▁Tesla	-14348
▁array	-14349
▁blame	-14350
▁cable	-14351
▁label	-14352
▁schém	-14353
▁vagin	-14354
inverse	-14355
élicopt	-14356
▁Mozart	-14357
▁Victor	-14358
▁adjust	-14359
▁bandes	-14360
▁caring	-14361
▁crédit	-14362
▁decent	-14363
▁fibres	-14364
▁genoux	-14365
▁modest	-14366
▁native	-14367
▁Florida	-14368
▁Spanish	-14369
▁aborder	-14370
▁bateaux	-14371
▁camions	-14372
▁dangers	-14373
▁disgust	-14374
▁fastest	-14375
▁inutile	-14376
▁investi	-14377
▁primord	-14378
▁relever	-14379
▁réelles	-14380
▁climbing	-14381
▁conclude	-14382
▁machiner	-14383
▁marchait	-14384
▁monument	-14385
▁sleeping	-14386
▁éducatif	-14387
▁épinière	-14388
architecte	-14389
▁cherchons	-14390
▁collectif	-14391
▁introduit	-14392
▁passwords	-14393
▁remercier	-14394
▁supported	-14395
▁évènement	-14396
▁continuons	-14397
▁reputation	-14398
▁université	-14399
amélioration	-14400
▁contraintes	-14401
▁schizophren	-14402
▁tremblement	-14403
▁attentivement	-14404
▁travaillaient	-14405
▁progressivement	-14406
ES	-14407
cod	-14408
hot	-14409
nez	-14410
oop	-14411
reh	-14412
upp	-14413
▁38	-14414
▁Er	-14415
▁Gh	-14416
anna	-14417
aska	-14418
asso	-14419
atie	-14420
cére	-14421
etti	-14422
made	-14423
romp	-14424
ylac	-14425
èles	-14426
▁80,	-14427
▁Esp	-14428
▁FDA	-14429
▁Hos	-14430
▁Luc	-14431
▁Rog	-14432
▁Rub	-14433
▁ain	-14434
▁pac	-14435
▁unt	-14436
▁wed	-14437
Afric	-14438
capes	-14439
inger	-14440
ommer	-14441
opher	-14442
oules	-14443
▁Cuba	-14444
▁Dian	-14445
▁Hell	-14446
▁Shir	-14447
▁Soud	-14448
▁beet	-14449
▁cats	-14450
▁dysf	-14451
▁fans	-14452
▁oeil	-14453
▁tuna	-14454
envers	-14455
humain	-14456
ighter	-14457
minute	-14458
resser	-14459
▁2001,	-14460
▁Quels	-14461
▁Trade	-14462
▁bears	-14463
▁bonus	-14464
▁burst	-14465
▁cache	-14466
▁crist	-14467
▁câble	-14468
▁impos	-14469
▁léger	-14470
▁maire	-14471
▁mixed	-14472
▁modes	-14473
▁rêver	-14474
▁shell	-14475
▁trail	-14476
▁vainc	-14477
▁voter	-14478
cession	-14479
lements	-14480
▁astéro	-14481
▁copies	-14482
▁curric	-14483
▁deviez	-14484
▁effond	-14485
▁millén	-14486
▁partly	-14487
▁provoc	-14488
▁ramène	-14489
▁récifs	-14490
▁tackle	-14491
aterrest	-14492
iculture	-14493
individu	-14494
▁Beijing	-14495
▁Montana	-14496
▁agences	-14497
▁cancére	-14498
▁chauves	-14499
▁dépassé	-14500
▁exister	-14501
▁helpful	-14502
▁imaging	-14503
▁informe	-14504
▁lawyers	-14505
▁millenn	-14506
▁prepare	-14507
▁variole	-14508
étudiants	-14509
▁McDonald	-14510
▁associés	-14511
▁atteints	-14512
▁champion	-14513
▁imprimer	-14514
▁managers	-14515
▁repenser	-14516
▁spéciale	-14517
▁tournant	-14518
▁autorités	-14519
▁immediate	-14520
▁investors	-14521
▁predicted	-14522
▁prisoners	-14523
▁regardais	-14524
▁satisfait	-14525
▁semblable	-14526
▁biologiste	-14527
▁hypothesis	-14528
▁magnétique	-14529
▁philosophe	-14530
▁américaines	-14531
▁concepteurs	-14532
▁indépendant	-14533
▁infirmières	-14534
▁surprenante	-14535
▁vulnérables	-14536
▁écosystèmes	-14537
▁individuelle	-14538
▁unbelievable	-14539
▁contradiction	-14540
▁demonstration	-14541
▁fondamentales	-14542
▁significantly	-14543
▁divertissement	-14544
St	-14545
ova	-14546
▁AT	-14547
asty	-14548
aude	-14549
fold	-14550
onge	-14551
tell	-14552
▁60,	-14553
▁Ham	-14554
▁Hol	-14555
▁Kur	-14556
▁Nai	-14557
▁Nav	-14558
▁Tay	-14559
arité	-14560
enous	-14561
liest	-14562
yclop	-14563
érées	-14564
▁Alan	-14565
▁Cinq	-14566
▁Less	-14567
▁Pink	-14568
▁bion	-14569
▁dies	-14570
▁meur	-14571
▁méch	-14572
▁pèse	-14573
▁roue	-14574
▁écri	-14575
cembre	-14576
coutez	-14577
ytocin	-14578
▁chats	-14579
▁citer	-14580
▁corde	-14581
▁fraud	-14582
▁matri	-14583
▁noyau	-14584
▁pénét	-14585
▁salon	-14586
▁spray	-14587
▁tribe	-14588
▁vôtre	-14589
▁Sahara	-14590
▁Sylvia	-14591
▁Warren	-14592
▁bruits	-14593
▁connus	-14594
▁courts	-14595
▁ending	-14596
▁jouant	-14597
▁paires	-14598
▁panels	-14599
▁pertin	-14600
▁regime	-14601
▁thresh	-14602
▁voyais	-14603
▁échecs	-14604
cedented	-14605
▁Floride	-14606
▁coûteux	-14607
▁croyais	-14608
▁deviner	-14609
▁devoirs	-14610
▁dossier	-14611
▁elected	-14612
▁futures	-14613
▁hormone	-14614
▁prescri	-14615
▁rethink	-14616
▁soldier	-14617
▁souffre	-14618
▁trivial	-14619
▁verrons	-14620
espérance	-14621
habitants	-14622
histoires	-14623
urrection	-14624
▁Caroline	-14625
▁Southern	-14626
▁believes	-14627
▁choosing	-14628
▁encyclop	-14629
▁enseigné	-14630
▁figuring	-14631
▁invested	-14632
▁précieux	-14633
▁throwing	-14634
▁Obviously	-14635
▁abilities	-14636
▁healthier	-14637
▁incapable	-14638
▁sentences	-14639
▁autonomous	-14640
▁chromosome	-14641
▁comparable	-14642
▁compliquée	-14643
▁dictionary	-14644
▁dépendance	-14645
▁explaining	-14646
▁inevitable	-14647
▁prédiction	-14648
▁psychopath	-14649
▁rencontrés	-14650
▁écosystème	-14651
▁chromosomes	-14652
▁commentaire	-14653
▁grandissent	-14654
▁immunitaire	-14655
▁connectivité	-14656
▁interestingly	-14657
IA	-14658
100	-14659
SPR	-14660
lib	-14661
sur	-14662
▁%.	-14663
▁AG	-14664
▁DP	-14665
Cola	-14666
uate	-14667
utan	-14668
▁130	-14669
▁CRI	-14670
▁Cro	-14671
▁Dém	-14672
▁Ell	-14673
▁Has	-14674
▁loy	-14675
▁sle	-14676
Sahar	-14677
allas	-14678
apeur	-14679
iseur	-14680
oscop	-14681
ouche	-14682
shirt	-14683
▁Love	-14684
▁anom	-14685
▁bang	-14686
▁fins	-14687
▁glor	-14688
▁prud	-14689
▁sage	-14690
▁tués	-14691
▁volé	-14692
cember	-14693
estion	-14694
gments	-14695
intuit	-14696
market	-14697
▁Susan	-14698
▁algae	-14699
▁chief	-14700
▁demie	-14701
▁elite	-14702
▁gains	-14703
▁inond	-14704
▁owner	-14705
▁pomme	-14706
▁puits	-14707
▁roman	-14708
▁rétro	-14709
▁vents	-14710
▁wider	-14711
ajouter	-14712
matique	-14713
oublier	-14714
oureuse	-14715
▁Arabic	-14716
▁CRISPR	-14717
▁During	-14718
▁Norway	-14719
▁Philip	-14720
▁angles	-14721
▁bother	-14722
▁disapp	-14723
▁domain	-14724
▁gamins	-14725
▁grille	-14726
▁génére	-14727
▁linear	-14728
▁nommée	-14729
▁parven	-14730
▁pigeon	-14731
▁plaque	-14732
▁poèmes	-14733
▁slogan	-14734
▁soirée	-14735
▁stroke	-14736
▁trucks	-14737
▁viable	-14738
▁widely	-14739
auraient	-14740
ènements	-14741
▁Develop	-14742
▁Kennedy	-14743
▁accumul	-14744
▁adopter	-14745
▁adorent	-14746
▁affects	-14747
▁diminué	-14748
▁disrupt	-14749
▁dérange	-14750
▁females	-14751
▁involve	-14752
▁neurone	-14753
▁précoce	-14754
▁shocked	-14755
▁targets	-14756
interface	-14757
▁answered	-14758
▁arrivera	-14759
▁commença	-14760
▁comptent	-14761
▁contents	-14762
▁disagree	-14763
▁enceinte	-14764
▁entering	-14765
▁extended	-14766
▁familial	-14767
▁habitués	-14768
▁laissons	-14769
▁logement	-14770
[...]
